0008
FFF2
0026
0019
000F
000B
001E
FFFE
FFE3
0008
FFE5
FFF2
0006
FFF9
FFF3
0002
0014
0015
000A
FFF4
FFFE
FFF7
0012
FFEE
0016
FFF5
FFFF
FFE4
FFFF
FFF6
0008
FFFD
0014
FFFC
FFF2
FFF7
000C
FFF4
0011
FFF3
0017
FFF4
000E
FFF6
001F
0008
FFEC
FFF5
0024
0019
FFF2
0019
0000
FFE6
0013
0000
0000
FFEF
001F
000A
0012
FFFF
001B
000F
0016
FFF8
FFF9
FFFA
FFE5
FFF7
0005
0000
0008
0009
0009
FFF5
0014
FFF8
FFFD
FFFF
0018
001D
0009
FFF2
FFF9
FFEB
FFFB
FFF3
FFFB
FFE7
0012
0004
FFE3
FFF4
FFFC
FFFF
000F
000B
FFF0
FFFE
FFFC
FFF2
000F
FFF2
0007
000E
0000
FFE8
0014
0013
000B
0004
0015
000B
0011
0021
0006
000F
0004
FFF3
FFF0
FFEB
0008
FFF4
0007
FFF3
0010
0004
