FFF2
FFDF
0034
001B
FFF0
FFEC
0036
0018
0003
000F
FFF5
001E
001F
FFD3
FFEB
0012
FFEE
FFFC
FFF2
0000
FFEB
0038
0008
0009
FFE0
FFEA
000C
0013
000A
0039
002D
FFB8
FFE1
FFE9
002C
0028
0020
FFD5
002D
0023
FFC3
FFDF
001F
FFE6
005A
0035
0042
FFE6
FFEC
FFFB
0025
0000
0028
FFF4
0011
FFE1
0009
FFD7
0025
0018
0049
0034
FFFA
004D
