0011
FFDF
0014
000F
0016
0018
FFEC
0016
0004
0038
FFF1
FFFD
0008
FFFF
FFE1
FFFA
FFDE
FFDD
0015
001E
000F
0009
FFFC
0004
000D
000C
0010
FFF6
FFF9
FFEE
0025
FFE0
FFE6
0013
FFF6
0002
FFDC
001D
0011
001D
0021
0016
0026
0016
000F
001A
FFFF
0007
000D
000C
0014
0009
001C
0018
FFED
FFD5
FFF0
001E
FFEE
FFE6
FFE9
0000
FFEF
0015
