FFE1
000C
FFDC
0026
002F
0027
FFE1
0018
0017
FFF4
001B
002D
002D
000B
0014
000B
0002
001A
000E
000F
FFF1
0021
0015
FFD6
0014
0029
FFF6
FFFB
FFF2
0034
FFFC
0035
FFFD
FFCE
0025
0001
002C
001E
FFF0
FFF2
001C
001C
000B
FFE6
FFEF
FFD9
FFE7
0020
001D
002A
0000
002B
001F
0010
0001
FFFF
FFF6
000B
FFE5
0002
0032
FFE6
0030
0030
