003D
0046
0028
002D
0021
0047
0024
0043
FFD0
0038
0026
0049
0042
001A
FFD8
002E
FFC4
0036
0065
0025
002E
0034
0038
FFEE
FFDD
003C
002C
001B
002B
0023
006B
0033
004C
0032
0044
0040
0042
003C
004C
0028
004E
0045
004A
003E
002F
001A
004A
004D
002F
0031
0033
0046
003A
0035
0037
0037
0023
0061
0018
003B
004C
0041
003C
0032
0027
0049
004D
003C
0024
FFBB
0019
0009
008A
0012
003B
0029
FFDF
0032
0001
003B
005C
0030
0041
002C
000E
0036
0055
004E
0040
FFFB
005C
0046
004B
003B
FFE6
0033
0036
FFBC
0038
FFEB
0043
0038
0028
FFA8
0037
FFB3
0031
FFCE
0042
0041
0028
0045
002E
0001
FFBA
003D
0055
0034
0034
004B
0050
FFC3
0040
0011
0043
0060
003C
FFFE
