001B
FFEB
000F
0011
0010
001D
0041
FFEA
0000
FFEC
000B
0009
FFFB
FFF9
0042
0028
0003
0007
0023
FFE1
FFE7
002F
0043
FFE7
0020
0000
FFFA
0017
0012
FFF8
FFF5
FFEE
002C
000D
FFF4
FFF7
0009
0096
0010
FFFE
0016
0014
0011
0055
000E
001D
FFF2
0003
000E
FFFF
FFE9
0036
0002
0025
FFEF
0026
FFFB
0000
FFF4
000E
000C
FFEC
FFEA
0011
0019
0005
FFEE
0009
000B
FFF4
FFE6
0000
0023
0010
FFFA
FFF8
FFF3
0000
FFED
0022
0012
000F
0006
0012
0012
FFFE
FFEB
FFEF
FFEC
0002
FFF9
FFEF
0015
001C
0005
0018
0019
0018
FFF3
0016
FFFC
001A
0017
FFFF
0015
FFF3
FFDE
0005
FFF0
FFF4
0002
FFEA
FFF2
0026
0015
0027
FFFA
0011
FFF7
0001
FFF0
0003
FFF6
0003
FFF9
FFF5
000F
0021
