0002
0001
FFFF
000E
FFFE
0005
0002
0004
FFFF
0001
0000
0000
0009
0004
0003
0001
0004
0000
0002
0000
0005
0003
0002
0003
0002
0002
0000
0004
0006
0001
FFFE
FFFF
0001
0002
0002
0002
0002
000B
0007
0005
0007
0004
FFFF
0004
0000
FFFF
0003
0001
FFFF
FFFF
FFFF
000D
0003
0002
0008
0000
0000
0007
0005
0000
0005
0008
0006
0002
