0035
002C
FFC1
0015
0016
003D
FFBE
FFB6
FFE6
FFE3
000D
003D
001B
FFFD
FFFB
001E
FFC8
FFFE
0013
FFF6
FFED
FFFA
0000
0016
FFFF
FFB2
FFEA
FFE1
0048
0016
0027
FFFE
FFE8
FFCA
0020
FFEB
0037
FFEA
FFDF
FFDA
0014
000D
FFDC
FFE1
003B
FFD7
FFDB
FFFE
0007
FFE1
0005
FFD9
FFF2
0037
FFC6
FFEF
FFFF
0002
001F
FFCA
0017
FFFD
0028
0038
