0008
0008
FFFE
FFF9
FFF9
0002
FFFC
0007
0001
FFF8
0006
0007
FFF7
FFF9
FFF7
FFF7
FFF6
FFF6
FFFE
FFFD
FFFF
FFFF
0002
0001
0007
0001
FFFB
FFF7
FFFB
FFFB
FFFF
0008
FFF6
0005
0001
FFFC
0005
0002
FFFF
FFFD
FFF6
FFF9
FFF7
FFF9
FFFA
FFF5
0004
0004
FFFD
0000
0006
FFF9
0006
0006
FFFA
0000
FFF6
FFFA
FFFD
FFFC
FFFA
FFF7
FFF6
0009
0006
FFF9
FFFD
0003
FFF8
FFFD
0004
FFFC
FFFC
FFF9
0002
FFFD
FFFC
FFFE
0002
FFF9
FFFF
0006
FFFC
0002
0002
FFFF
FFFA
FFFE
FFFB
0006
FFFF
0009
0005
FFF9
000A
0008
0005
0001
FFF9
0009
0006
FFFF
0007
FFFD
0009
0009
FFFA
FFFD
FFFE
FFFB
FFFF
FFFF
FFFA
0002
0009
FFF6
FFF7
0004
FFF8
FFFF
0000
0008
FFFA
0005
FFFF
FFF7
FFFA
FFF8
FFF7
0004
000A
FFFB
FFF8
FFFF
0009
FFFD
000A
0008
FFFF
FFF6
FFFD
0005
FFFB
FFFE
FFFE
FFFF
0006
FFFA
0009
0005
0005
0009
FFFC
0007
FFFB
0003
0001
FFFD
FFFC
FFFA
FFFA
0003
0009
0005
FFF8
0001
0000
FFFA
000A
FFFA
FFFA
0005
0008
FFFF
FFFE
0008
FFF7
0003
FFF7
FFFC
0006
FFFE
FFFB
0009
0001
FFFA
0008
0003
0002
0003
FFF9
0005
FFFF
FFFF
FFFC
0002
FFFE
0003
0000
FFFA
FFF6
FFFA
FFFE
0001
FFF9
FFFF
0004
0005
FFFC
0005
0007
0000
FFF9
FFF7
0004
0002
0002
0009
FFF9
0009
FFF7
0002
0003
FFF9
FFFD
000A
FFFF
0004
0002
FFFD
0003
FFF6
0000
FFF8
FFFB
FFF7
0002
FFF7
FFFD
FFFD
0000
0008
0005
0004
FFF7
0000
0005
0007
FFFA
0005
FFF8
0007
0007
FFFB
0003
0008
0004
0008
FFFA
0002
0007
FFFE
FFFE
0008
0001
FFFB
0008
FFF6
FFF8
FFFB
0006
FFFB
0001
FFFE
FFFB
FFF7
0004
FFF6
FFFC
FFFE
0008
FFFB
FFF9
0005
0003
0001
0006
FFFD
FFFA
0007
FFFF
0004
0004
0008
0005
0005
0002
0007
0002
0005
0001
0004
0007
FFF9
FFFE
0007
0007
0001
0007
FFFB
0005
0006
0007
0003
000A
0002
0005
0007
FFFF
0006
FFFA
FFF8
0008
0008
FFFA
0007
FFF7
FFFA
0000
0006
0003
FFFF
FFFD
FFF7
0000
0005
0003
0004
000A
FFFC
0004
0008
FFFA
0001
0001
FFFB
FFF8
FFFC
0008
FFFA
FFF8
FFF8
0004
0003
FFF9
0002
0007
FFFE
0008
0001
0009
0003
0007
FFFA
FFFC
FFF9
0006
FFF9
0009
FFFE
FFF6
FFFE
0003
0001
FFFE
FFFF
0004
0001
FFF9
FFFA
0006
FFFA
000A
0000
000A
000A
0008
FFF5
FFFC
0003
FFFB
0002
0002
0001
0008
0009
FFFE
0005
FFFD
0003
FFFD
FFF7
FFFD
FFFB
0008
FFF6
FFFF
0009
0007
FFF7
0009
FFF7
0008
0009
000A
FFF7
0003
0009
0006
0000
0008
0006
FFFE
FFFA
FFF8
000A
0006
0003
FFFE
FFF7
0000
FFFD
FFF6
FFFB
0002
0000
FFF8
FFFA
0002
0007
FFFC
0005
FFF9
FFF8
FFFF
FFF6
FFF7
0007
0006
FFFA
FFFC
FFFB
0006
0002
FFFC
FFFF
000A
0001
FFFE
FFFC
0009
FFF8
0004
FFF7
0004
FFFC
0009
FFFB
0004
FFF8
0002
FFFE
000A
0009
FFFE
FFF6
0003
0003
0000
0002
FFFD
0004
0006
FFFF
0003
FFF9
0001
0003
FFF9
FFFF
0008
FFFA
FFF9
FFFF
FFF8
0001
0008
0006
0000
0008
FFF9
0002
FFFB
0000
FFF7
FFF9
0001
0008
0005
0008
FFFC
0001
FFFC
FFF7
FFFE
0007
FFF6
0009
FFF6
0006
FFF9
FFFD
0004
0002
0000
0006
FFF9
0009
FFFD
FFFA
0005
FFFB
FFFC
0000
FFFC
FFF7
0003
000A
FFFF
0005
FFFF
FFF9
0001
0003
FFF9
0009
0008
FFF8
000A
0005
FFFD
FFFD
FFF9
0008
FFFE
0002
0009
FFF8
FFFF
FFFD
FFFE
0001
FFFF
0001
FFF8
0008
FFFB
FFFA
FFF9
FFFD
0002
0001
0007
0009
FFFB
FFFB
0002
FFFE
0006
FFF8
FFFE
FFFD
FFFD
FFFE
0008
FFFF
0003
FFFA
FFFF
FFFA
0009
FFF7
0001
FFFA
0002
FFF7
000B
0004
0002
0007
0006
0005
FFFC
000A
0006
0006
0007
FFF7
FFFC
FFFD
0005
0009
FFF7
FFF9
0009
FFF9
FFF6
FFFA
FFFD
000A
FFF9
0005
0008
FFFF
FFFF
FFF7
0002
0009
FFFC
000A
0003
0009
0006
FFFD
0003
FFF8
0001
0004
0003
0000
FFFA
000B
0006
FFFD
0008
0009
0002
000A
0005
0003
0007
0001
000A
FFFB
0008
000A
FFF7
0009
FFF6
FFFB
FFFE
0006
FFFC
0007
0008
0002
0006
0008
0001
FFF7
000C
FFFF
FFF8
FFF7
0003
0008
0006
000A
FFF9
FFFA
0003
0009
000A
0001
FFFA
FFF9
FFFC
0008
0007
000B
FFFD
FFFF
0007
0002
FFF7
0008
0009
0003
0004
FFFF
FFF6
0006
0003
0008
0004
FFFD
0001
0006
FFFB
FFFD
0008
0006
FFFC
0005
0003
FFF8
FFFA
FFF9
FFFE
FFF6
FFF7
000A
FFF9
FFF9
FFFB
FFFD
FFFE
FFFD
FFFF
0009
0007
FFFD
0000
FFFF
FFFE
FFF7
0007
0006
FFFE
FFFB
0002
FFF7
0008
FFF7
0001
0009
0003
FFFE
FFFB
FFF9
FFF6
0008
0004
0004
0006
FFFE
FFFA
FFFC
FFF7
0006
0003
FFFE
0005
0004
FFF9
FFFD
0008
0004
0008
FFF6
0007
0005
0003
FFF6
0006
FFFC
0009
FFFC
000A
000A
FFFD
FFFF
0001
0005
0002
0005
FFFB
0001
0002
0007
0006
FFF6
0007
FFFB
FFFD
FFF8
FFFA
FFFD
FFFF
0004
FFF9
0009
FFF9
FFFB
0009
FFFC
FFFF
FFFB
FFF7
0005
0001
FFFB
0002
FFFF
FFF8
0003
FFF9
0003
0007
0003
FFF8
0005
0007
0008
0005
0003
FFFC
0000
FFFA
0001
FFFF
FFF8
0004
FFFC
FFFE
FFFB
0005
FFFC
0008
0004
FFFC
FFFC
FFF6
0004
0006
FFFC
FFFC
FFFA
FFFA
0000
0002
0002
0002
0001
0005
FFFC
FFFE
0002
0000
FFFC
0004
FFF8
FFFA
0003
0001
FFFA
0009
0000
FFF7
FFFC
FFF7
FFFF
0004
FFF9
0008
FFF8
000A
FFFE
0002
FFFA
0008
FFFF
0006
FFF7
FFFA
0001
0002
FFF7
0009
FFFA
0009
FFFB
0009
0009
FFFB
0005
0003
0008
FFF7
FFFA
0000
FFFD
FFFF
FFFE
0009
FFF6
FFFD
000A
FFFE
FFF7
FFFB
0006
0006
0002
0000
0006
FFFF
FFF7
0003
0003
0009
FFFB
FFFC
0008
FFFF
FFFA
0001
0005
0003
0009
0004
0009
0006
FFF7
FFFA
0003
000A
FFFA
0003
FFFA
0008
0009
0003
0004
FFFB
FFF7
FFFC
0003
0007
FFF9
FFFC
0003
0001
0003
0005
0008
0000
000A
FFF8
FFF7
0001
0000
0004
FFF6
FFFC
FFFE
FFFF
FFFE
FFF9
0001
0003
0007
0005
FFF9
0001
FFFE
0005
0007
FFF7
0000
0007
FFF7
0005
FFF8
0004
0003
FFFB
0003
0002
0007
0008
0003
FFF9
FFF6
FFFF
FFFE
0005
0000
0003
FFFA
0006
FFF8
FFFB
FFF7
0000
0007
0002
0008
0001
0009
000A
FFF9
000A
FFFD
FFFD
FFFB
0007
0001
0006
0002
FFF9
0000
FFF9
0001
0009
000A
0002
0008
0002
0003
0007
FFFE
0007
0008
0007
0001
0008
0008
0000
0001
FFFF
0009
0006
FFF8
FFFB
0008
0003
FFFF
FFF9
0007
FFF8
0004
0000
0000
0000
0008
FFF6
FFF8
FFFE
FFFB
0004
0003
0004
0008
FFFD
0002
0000
0000
FFFF
FFFE
0009
0007
0009
FFF6
0006
FFF9
FFFD
0007
FFFB
FFFC
FFFC
FFF6
FFF7
0008
0009
FFF9
FFF9
0009
000A
0005
FFFD
0002
0007
0003
FFFF
FFFF
FFFE
FFF7
FFFF
FFFD
0007
FFF8
0008
0009
0006
FFF8
FFFB
FFF9
0006
FFFB
FFFA
0006
FFFF
FFFB
FFF6
FFFF
0000
FFFA
FFF9
FFFC
0003
0004
0006
0000
FFFE
0003
FFF7
0003
0001
0002
0009
0001
0003
FFF8
0002
0005
0003
0004
0006
0009
0007
0004
FFF6
0004
0000
FFFA
0003
FFFF
FFFA
0007
0007
000B
0001
0005
FFFB
0008
FFFC
FFFC
FFFB
FFFD
FFFB
FFF6
FFFA
0008
FFF6
FFF6
0007
0006
0009
0002
FFF9
0000
FFF9
0004
FFF9
FFF7
FFFE
FFFB
0005
0003
FFFA
0003
0009
FFFF
0002
FFF7
FFF8
FFFC
FFF6
0004
0004
FFF9
FFF9
FFFB
0005
FFFA
FFFA
FFFD
FFFF
0005
0003
0007
000A
FFF8
FFFA
000A
FFFE
FFF7
0004
0005
0004
FFFB
FFF7
FFFE
0006
FFFB
FFF6
0006
FFFB
FFF5
0009
0008
FFFC
FFF7
FFF7
FFF7
FFF8
FFFC
FFFA
0005
FFF6
FFFB
0005
FFFE
0008
0001
000A
0000
FFF7
0006
FFF7
FFF7
FFFC
FFFB
0004
0008
0009
FFFB
0002
FFFF
FFFA
0001
0008
0002
FFF8
FFF6
FFF7
0009
FFF8
FFFE
FFF9
0005
0004
0003
FFFD
0002
0008
FFF9
FFFA
FFFA
FFFD
FFFD
0009
FFFE
0008
0006
FFF9
0003
0000
FFFB
FFFE
FFFA
0002
0008
FFFD
0009
FFFB
0008
FFF9
FFFE
0009
FFFA
FFFA
0000
FFFF
0007
0004
0007
FFFE
FFFC
0000
FFF8
FFF7
FFF8
FFF9
FFF9
0006
FFFB
FFFA
0005
0006
0007
0006
FFF8
FFF9
FFFE
FFF9
000A
0009
FFFC
0009
0008
0000
FFFC
0002
0004
0001
FFF7
0006
FFF9
0001
FFFC
FFFE
FFFE
FFFF
0005
0004
FFF9
FFFE
0008
0000
FFFA
FFF9
FFF7
0008
FFFE
0000
FFFD
FFFE
0003
FFF7
0009
0005
FFF6
0006
0004
FFF6
FFF8
0006
FFFA
FFFA
0005
0006
FFF9
0003
0001
0008
0003
0008
FFFB
0009
0009
FFFB
FFF8
0007
0009
0009
000A
0004
FFFB
FFFC
FFFB
FFFE
0003
0003
0007
0005
0008
FFFF
0003
FFF7
FFF7
FFF6
0002
FFFB
0007
0007
0004
0003
FFF6
FFFC
FFFA
0000
FFF9
FFFA
0005
0004
0005
FFFF
FFF9
0001
0002
0008
FFFB
0007
FFF7
FFFC
FFFA
0009
FFFC
FFFE
0004
FFFB
FFFD
0004
0001
FFFB
0001
0007
FFF7
FFFA
FFF7
FFFA
0006
0002
0003
FFFC
FFFC
FFFA
0008
0005
0000
FFFD
FFFE
0005
0007
0001
0006
0000
FFF7
FFF7
0008
FFF8
0009
FFFB
0003
0006
0004
FFF8
FFF8
0007
FFF9
FFFB
0008
FFFF
FFFF
FFF6
0001
FFF9
0000
0006
0002
0007
FFF9
0002
0001
0009
FFFF
0008
0007
FFF9
FFFA
0006
0009
FFFB
0002
0003
FFFF
0002
0002
000A
FFFD
0008
0000
FFF9
FFFC
0004
0002
0004
0003
FFFD
0008
FFFC
0009
FFFD
0000
0008
0001
000B
0008
FFFC
FFFA
FFF6
FFFA
FFFF
FFF6
0001
0002
FFF6
FFFF
FFFF
0006
0000
0006
FFF6
000A
0008
FFFD
FFFC
0002
000A
0001
0002
FFF6
0005
0006
FFFA
FFFC
0001
0004
0003
FFFB
0003
0000
0000
0002
0007
FFF8
0002
FFFE
FFFC
FFFA
000A
0003
FFFF
FFFB
FFFA
0003
0008
0008
0006
FFF6
FFFD
FFFD
FFFF
0003
0005
FFF9
FFFE
0004
0009
0003
0004
0004
0002
0002
0000
0001
FFFE
FFF6
0000
FFF6
FFFA
0001
0006
FFFC
0005
FFFF
0000
000A
0001
0006
FFF9
FFFA
FFF8
FFFE
0009
0003
FFFB
0003
0001
0008
FFFF
0000
FFF7
FFFE
FFFB
FFFC
FFFC
0001
0005
0008
FFF9
0002
FFFF
0008
0004
0002
0005
FFFB
FFFD
0007
FFF7
FFF8
0007
FFFE
0002
0001
0002
0009
FFFB
FFFF
FFFF
0001
0005
0003
0005
FFF7
FFF7
FFFA
FFFB
0009
0000
0004
0003
FFFB
FFF7
0007
0008
0008
0006
FFFE
FFF7
0000
FFFA
0001
0008
0006
FFF5
0009
FFFE
0009
0009
000A
FFFC
FFF6
0003
FFFF
FFF7
FFFD
FFF8
FFF9
0004
0000
FFFC
FFFE
FFFE
FFFE
FFF8
0001
FFF6
FFF6
0002
0005
FFFC
FFF6
FFFA
0004
FFFC
FFF6
0003
FFFC
0000
FFFF
FFFB
FFFB
FFF9
0009
0008
FFF9
FFF9
FFF8
0006
0009
FFFD
FFF9
0001
FFFB
000A
FFF9
0005
FFFB
000A
000A
000A
0002
0000
0006
FFFE
0005
FFF9
0000
0003
FFFD
FFFF
FFF7
FFFB
FFFC
0006
FFF9
0009
FFF7
FFF9
0000
0002
0004
FFF8
0001
FFFC
FFFD
FFFD
0002
0008
0007
0009
FFFD
FFF8
0008
FFF7
FFF8
FFF9
0005
000B
0009
FFFA
FFFA
FFF9
0000
0004
FFF8
FFF7
0008
FFFD
FFF8
0000
0006
0005
0005
0006
0007
0006
FFF8
FFFC
0009
FFFE
0009
0000
0000
FFF6
0008
FFFF
0009
0001
0002
FFFE
FFFB
0001
FFFF
FFFA
FFF8
0006
0004
FFFA
FFFD
0004
FFFB
FFF7
0006
FFFC
0002
FFFF
FFFE
0009
FFF8
0001
0003
0008
FFFF
FFFE
0001
0005
0005
FFFE
FFFB
FFF7
FFFB
0009
FFFD
FFF6
FFF9
0006
0001
FFF7
FFF5
FFFE
0003
0008
0004
0004
0008
FFFE
0005
0003
FFF9
0001
0001
0008
0002
0008
FFFF
FFFE
0005
FFF7
FFF7
0009
0003
0009
0003
FFFD
FFFA
0009
0008
FFFD
0002
0005
FFFD
0005
FFFA
FFFF
FFFA
FFF7
0008
0004
FFFD
0003
0004
0002
FFFF
0003
0000
0007
0003
0000
FFFB
FFFB
FFFA
FFFD
FFFE
0003
FFFB
0002
0004
FFFD
0009
0000
FFFD
0006
FFF9
FFFB
0008
FFFB
FFFA
FFF8
FFFC
FFF8
FFF7
0008
0008
FFF7
FFFA
FFFA
FFF9
FFFA
0000
FFFF
FFFE
FFF7
FFFE
FFFB
0006
FFF8
0009
FFFF
0007
0003
FFF9
0005
0005
0005
FFFC
0002
FFFE
FFFE
FFFC
0004
0008
0001
0008
0004
0000
FFFA
FFFB
0008
FFFA
0002
FFF6
FFF9
FFFC
FFFF
000B
FFFC
FFFD
0002
FFFE
0009
0008
FFF9
0002
FFFE
FFFC
0004
0009
FFF8
FFFD
FFFC
0006
FFF8
0007
FFF9
FFFF
0004
0005
FFFD
FFFA
0002
0008
0001
0008
0007
0002
0001
FFF7
FFFF
FFFB
FFF6
0008
0003
0007
FFF9
0009
0003
0007
FFFD
0001
0000
FFFB
FFF7
FFF9
0006
FFFE
0001
0008
0001
0000
000A
FFFA
FFFA
FFFB
0003
FFF7
0006
FFFA
0003
FFFF
0009
0005
0006
FFFF
0006
FFFB
FFFD
000A
0004
0004
0005
FFF9
FFFC
0000
FFFC
FFFF
FFF8
FFFC
FFF7
0003
FFFE
FFF8
0005
FFF7
000A
FFFA
0007
0000
0005
FFF9
FFFB
FFFA
0005
0003
FFFD
000A
0009
FFF8
0007
FFF8
0003
FFFC
FFF6
FFFF
FFF9
FFFB
FFFC
0001
FFFC
FFF6
0001
0004
0005
FFF7
FFF9
0002
FFF9
0002
0001
FFF6
0006
0000
FFFE
0005
0000
0000
0004
0003
0004
0003
0006
FFFE
0003
0004
FFFD
FFF9
0001
0002
0007
FFFE
0008
FFFF
0004
FFFF
FFF9
0009
FFFD
FFFB
FFF9
FFFD
FFFF
0000
0005
FFFD
FFF9
FFFD
0006
FFFE
0009
0005
0000
FFFF
0001
FFFD
FFF9
FFF9
000A
FFF9
0001
FFFA
0008
0003
0000
FFFB
0003
FFFF
0001
FFFC
FFF8
0000
0004
0005
0000
FFF9
FFFA
0003
FFFE
FFFA
0004
FFFF
FFF7
FFFD
0001
FFFE
0008
0008
FFFB
000A
0000
0004
FFFA
FFFA
0001
0009
FFF9
0003
FFF7
FFFE
0007
0004
0000
000A
FFFA
FFFB
000A
0003
0005
FFFB
0003
0008
FFFE
FFFC
0003
FFF8
0005
0002
FFFE
FFFB
0000
FFFC
FFF5
FFFF
FFFF
FFFE
FFF9
FFF9
FFFB
FFFD
0002
FFFE
0001
0002
0008
FFFC
FFFF
0008
0007
0001
FFFA
0003
FFFB
0008
0001
0004
0001
0006
FFFD
FFFA
0002
0001
FFF8
FFFA
0004
0005
FFFD
FFFA
0004
FFFF
FFF7
FFFD
0006
0004
FFF7
FFF9
0004
0005
0006
0008
FFFB
FFF9
FFFC
0000
FFFD
0000
0007
0009
FFFB
FFFB
0004
000A
0008
0000
0000
0005
0009
0006
FFFF
0005
FFFE
FFFA
0007
0004
FFFE
0008
FFF8
FFF7
FFFC
0002
FFFE
0002
FFF8
FFF6
FFFB
FFFB
FFF8
0000
0004
0008
FFFE
FFF6
0001
FFFA
0001
0006
FFFD
0009
FFF8
FFFD
000A
FFFA
FFFF
FFF8
FFF6
0003
0005
FFFB
0002
0006
FFFA
FFF6
0004
0000
FFF8
0006
FFFD
000B
000B
FFFC
0008
0000
0006
FFFF
0000
0005
0008
0003
FFFC
0002
0008
0001
0004
0000
0006
FFFE
0008
FFFC
FFFF
FFF7
FFFD
FFF7
FFF7
0000
0005
0008
0005
FFFD
0004
0008
0006
0009
FFFB
FFF9
FFFB
FFFD
FFF8
0002
FFF6
0009
0009
FFF8
FFF6
FFF9
FFFB
0009
0000
FFF7
0005
FFFF
FFFE
FFF8
0000
0008
FFFA
0007
0003
FFFD
FFF6
0006
0008
0005
0008
0001
FFFF
FFFB
0006
FFF9
0007
FFFD
FFFC
FFF9
0005
FFF8
0000
FFF9
FFFE
0000
FFFC
FFFE
FFF9
0003
FFFC
FFFD
FFFB
0005
0009
FFF6
0006
FFFE
0003
FFFA
0006
0007
FFFE
FFFE
0000
FFF6
FFFA
0009
FFFD
FFF8
0003
0001
FFFD
FFFA
0008
FFF5
0005
0000
FFFE
0002
FFFE
0003
0006
0007
FFFD
0001
FFFF
FFF8
FFFC
FFFA
0008
FFFB
FFFF
0005
0001
0001
0009
0005
FFFB
FFF7
0001
0000
FFF9
0003
FFFF
FFFE
0001
FFFD
FFFF
FFFD
0004
FFF6
0009
0002
FFF5
0000
FFF8
FFF9
FFFF
0003
0004
0005
0005
FFFD
FFF7
FFF9
0009
0009
FFF7
0007
FFFD
FFFF
0004
0004
0006
FFF9
0005
0002
0002
FFF9
FFFA
0006
FFFC
0007
0006
FFF6
FFF7
FFF9
FFFD
FFFA
FFF9
FFFC
FFF8
FFF8
FFF7
0000
FFF8
FFF5
0000
0004
0006
FFF9
0003
000A
0002
FFFF
FFFD
FFF7
FFFD
FFFD
0004
0006
0006
FFFA
0003
0003
0008
0005
FFF9
0005
0001
0008
FFFF
FFFB
0007
0003
FFFF
0002
0000
FFF7
FFF9
FFFC
FFFF
FFF7
0002
0004
0009
FFFD
0004
0003
0006
FFFC
FFFB
0004
0005
FFFD
0001
0004
0007
FFF7
0007
FFFC
FFFE
FFF7
FFFD
FFFD
0005
FFFF
0006
FFF8
FFFA
0001
FFFC
0009
0008
0002
FFFD
0001
0005
FFFD
FFFD
FFFC
0002
0006
FFFC
FFFE
FFF9
FFF8
0003
FFFE
FFFD
0003
FFF7
0002
0008
FFFB
FFF8
FFFA
0003
FFFD
0004
FFFA
FFFC
0002
FFF7
FFF6
FFFD
0003
0002
FFF7
0006
FFFB
0003
FFFC
0000
0008
FFFC
FFF6
FFF5
0004
FFFD
0001
0009
0002
0007
FFF7
0003
0008
FFFA
0007
FFF8
FFF9
FFF6
FFF9
0007
FFFB
FFFF
0009
FFFB
FFFB
FFF9
FFF8
FFFA
0008
0001
FFF7
0004
0003
FFFD
0000
FFFD
FFFD
0009
FFFA
FFF6
FFF9
FFFF
0004
0001
0006
FFFB
FFFF
0007
0007
FFF7
FFFA
FFF7
FFF6
FFF9
FFFB
0000
0006
0005
FFFA
0003
FFF8
FFFA
0003
0004
0003
FFFB
0005
FFFF
FFFD
FFF7
FFFB
0005
0000
FFFA
0008
FFF9
0004
0003
FFF8
FFFA
0009
0003
0009
FFFE
FFFB
0002
FFF7
0002
FFFB
FFF7
0007
000A
0009
0003
000A
0006
FFFF
FFF7
FFF7
0009
0007
FFFD
FFFF
FFFD
FFFD
0002
0004
0005
0004
0004
0008
FFFB
0007
FFFD
FFF7
FFFB
0001
FFFC
FFFB
FFF6
0006
0007
FFFC
0000
0006
FFF6
FFF9
0001
0001
0009
FFFC
000A
0004
0001
FFFC
FFFC
0007
0000
0007
FFF7
FFF8
0003
FFF9
FFFB
0006
FFFC
0009
FFF9
FFFF
FFF8
FFF9
FFFD
0006
0002
FFFF
0005
0005
FFFE
FFFC
0002
FFFD
FFF6
FFFB
0004
FFF9
FFF7
0007
FFFB
0006
0006
0003
0009
FFFB
FFF8
0006
0001
0000
0008
0009
FFFF
0001
0007
0008
0009
0008
FFF7
0009
FFFE
FFFA
FFFD
0005
0006
FFFE
0003
FFFC
0004
FFF8
0002
0003
0006
0009
FFF8
0007
0009
0004
000A
000A
FFF9
FFFD
FFFE
0000
FFF9
FFF9
0009
0000
0002
0004
0007
FFFB
FFFC
0003
FFFD
0008
FFF7
000A
0002
0002
0008
0008
0008
FFF8
0002
FFF8
0005
0009
FFF8
FFFB
FFFD
0008
FFF9
0000
0006
FFF6
FFFE
0004
FFF7
FFF9
0007
0003
FFFA
0001
FFFE
FFF7
FFFC
0002
0004
0008
0009
0004
0006
FFFC
0002
FFF7
0006
0007
0004
FFF9
FFF6
0008
0008
0007
FFFB
0002
0007
FFFF
FFFC
FFFE
0008
0005
0009
0004
0005
FFFD
0003
0004
0006
FFFF
0009
FFF7
000A
FFFE
0001
0006
FFFF
FFF7
0003
0007
0008
FFFA
0000
0004
0009
0002
000A
FFFD
0003
0008
0000
FFFD
FFFE
FFF6
0007
0001
0000
0007
FFFA
0007
0005
0005
FFF8
FFFB
FFFC
FFFD
0000
0007
FFF8
FFFE
000A
FFF9
0007
FFFB
FFF7
0009
0004
FFFE
FFFC
FFFB
FFF9
FFF7
0000
FFFD
FFFE
0006
FFF8
0002
FFF8
0001
FFF9
0005
FFFE
0009
FFFA
0008
FFFC
0008
FFF9
000B
FFFF
FFF6
FFFE
FFF8
0000
0009
FFFF
000A
FFF7
FFFA
0007
FFFE
0004
FFF8
0005
FFF9
0009
FFF7
0006
0004
0008
0000
0002
0006
FFFD
000A
FFFD
FFF9
FFFE
FFFD
0008
FFFC
FFF6
0003
FFFF
FFFD
0006
0007
FFF7
FFF6
0008
FFF9
0000
FFF9
FFFA
FFF7
0005
0008
0006
FFFD
0004
0002
FFF8
FFFF
0004
0000
0008
0002
0000
FFF7
FFF8
FFFD
0000
0005
FFF7
FFF8
FFFF
FFF9
0009
0009
FFF8
0001
FFF6
0001
FFFB
FFF7
FFF9
0002
FFFE
0002
FFF7
FFFE
FFFB
FFF9
FFF8
0002
FFFC
FFFE
FFFE
0004
0002
FFFE
FFF8
0001
0005
FFFA
FFFD
FFF7
FFFB
FFFA
FFF7
0003
0000
FFFE
FFFC
FFFF
FFF9
0004
0003
FFFF
0009
0009
FFF6
FFF9
0004
FFFD
000A
FFFC
FFF8
FFF6
FFFD
0001
FFF7
FFFD
0002
0004
0007
0006
0004
0000
FFFA
0000
FFFA
FFF9
0004
0006
0004
FFFC
0000
FFF7
0006
FFF9
FFFA
0009
0004
FFFF
FFFE
0001
FFF8
FFFF
FFF9
0004
0008
0005
FFFC
FFFC
0007
FFF8
FFFB
0004
0001
0009
0006
0005
FFFD
0007
FFF7
FFFE
0009
FFFF
0001
000A
0001
0003
FFFA
0001
FFFE
0000
0008
FFFC
FFFE
FFFE
FFFB
FFFE
FFF6
FFFA
FFFB
FFFA
0001
0003
FFFA
0000
FFFB
FFFE
FFFB
0006
FFF9
0004
FFFF
FFFD
FFFC
FFFF
FFFB
0001
000A
0007
0005
FFFF
FFF6
FFF8
FFF9
FFFE
0009
FFFD
FFFE
FFFB
0007
FFFC
FFF7
FFF9
FFFA
0003
0009
FFFA
FFFB
FFFB
0000
0006
FFFE
0003
0006
FFFC
0008
FFFD
FFF9
FFFB
FFFE
0001
0008
FFFA
0006
FFF6
0005
FFF7
0002
0004
0005
FFFD
0004
0009
FFFB
0000
0007
0000
FFFA
FFF9
0002
0009
FFF6
FFFC
0002
0009
0006
FFFF
FFFE
0000
0007
FFF8
FFFE
FFF8
0006
FFFE
FFFB
0004
FFFF
0008
0006
0005
FFF6
FFF9
0007
000A
0004
FFF9
FFF9
FFFF
0006
0009
FFFA
FFFC
0005
FFFE
FFF9
0006
FFFF
FFFD
FFF8
FFFE
0008
FFF7
FFFE
0002
0002
FFFB
0004
0002
FFFC
0008
0000
0006
0000
0008
FFF9
0001
0004
0002
FFFE
0003
FFFC
FFF8
FFFD
0008
0008
0001
FFFF
0001
0002
0000
FFFC
FFFF
0003
FFF7
FFFC
FFF6
0008
0003
0009
0000
FFFE
0002
0006
000A
FFFC
0002
FFFA
FFF5
0007
0000
FFF9
0008
0009
FFF9
000A
FFFB
0000
0006
FFFD
0008
0006
0009
0007
FFF9
FFFB
FFFA
0001
FFFD
0006
0009
0002
0004
0006
0004
0004
0002
FFF9
FFFB
0005
0006
0001
FFFE
0009
FFF8
0006
0000
0007
000A
0006
FFF8
FFFB
FFFE
FFFA
FFFE
0006
0002
FFFD
FFFD
0007
0002
FFFE
FFFF
0007
FFF7
0000
FFF8
FFFF
0005
FFFD
0000
FFF6
FFFF
0003
FFFA
0001
0004
FFF8
FFFF
FFFA
0009
FFFE
0000
FFF9
FFFA
000A
0003
0005
0001
0008
0002
0009
0006
FFF8
FFFA
FFF6
FFF7
FFFD
0005
FFF9
0005
FFFF
FFF8
0001
0007
0001
0006
FFFE
FFF7
0000
0007
FFFB
000B
0003
0000
FFFE
0009
0009
FFF7
0000
0007
FFF6
FFFF
FFF8
0003
FFFE
FFF7
FFF8
0007
FFFC
FFF6
FFFB
FFF8
FFF7
0005
0006
0002
FFF6
0007
FFF8
FFF6
0003
FFFD
0001
0007
FFF7
0009
FFFE
000A
FFF8
FFF9
0000
FFF8
FFFA
0005
0003
FFF9
0006
0000
FFFE
0000
000A
0001
FFFA
0004
0009
FFFD
0009
0008
FFFC
0008
0000
0000
0004
FFFE
FFFA
FFFC
0004
FFFE
0009
0000
FFF9
0009
0002
FFFB
FFFA
FFFA
0008
FFFC
0007
FFF6
0004
0005
FFFA
FFFB
FFFA
0006
0002
FFF7
FFFD
0009
FFFD
0000
0004
0001
000B
0007
0008
0000
FFFA
FFFB
0002
FFFF
FFF6
0005
FFF7
FFFF
FFF9
FFF8
0005
0007
0002
0006
FFFA
FFF9
0007
FFFE
0005
0004
0000
0002
0009
0005
0008
FFFF
FFFA
FFFE
FFF8
FFFE
FFF8
0009
FFFE
FFFE
0004
000A
FFF9
0008
0001
FFFB
FFFF
FFF9
0006
0003
0003
FFFA
FFF9
0000
0006
0009
0005
FFFF
0004
0001
0003
0008
000A
0004
FFFE
0006
0007
0000
0001
FFFD
FFF8
0009
FFFF
FFFD
0004
0005
0007
0002
0006
FFFE
0004
0008
0004
0002
FFFE
FFFE
000A
0001
FFF9
0002
0002
FFFB
FFFB
FFFD
0000
FFF7
0003
FFF7
0000
0002
0002
FFFD
000A
000A
0001
0009
0008
FFFE
FFFB
FFF7
0005
FFFB
FFFA
0002
0009
FFFE
FFFE
FFF9
000A
FFF9
0009
0001
FFF6
0006
FFF7
FFFC
FFFF
FFF8
0005
FFF7
0004
0008
FFF6
FFF8
FFFE
0009
0005
0008
0007
FFFF
FFFB
0002
FFFA
000A
FFFD
FFFB
FFFF
0006
FFF8
FFFC
FFF8
0001
0006
0005
FFFC
000A
FFF8
FFF7
FFFC
FFF9
FFFD
0004
FFFF
0003
0004
FFFA
FFFD
0001
0008
0000
0002
0002
0007
FFF9
FFFE
FFFD
FFFB
FFF6
0008
0002
0002
FFF8
FFFA
FFF8
FFF9
FFFC
FFF9
0001
FFFE
FFF8
0002
FFF7
0006
FFFE
FFFA
FFF7
0008
FFFD
FFFD
FFFD
0007
FFFE
0002
000A
0006
FFFC
FFFB
FFFF
FFFE
0006
0005
FFF8
0004
FFFA
0008
0002
FFFB
FFFC
0005
0009
0009
0001
FFFE
0004
0003
0008
FFFA
FFFB
0009
0003
FFF7
0005
0008
0007
FFFC
FFFB
0002
0008
FFF6
FFFC
FFFC
0007
FFFD
0000
0007
FFF7
0009
0002
FFFB
0008
FFFA
0002
FFFF
FFFC
0006
FFF7
FFF9
FFF8
0009
FFFC
0002
FFFD
0005
FFF7
0009
0006
0003
0008
0007
FFFD
0005
FFF9
0006
0002
FFFA
FFFD
FFFC
0005
0002
0008
FFFA
0004
FFFE
0005
0007
0008
000A
FFFD
FFF8
0000
0005
0005
0004
FFFF
0005
0003
FFFE
0004
FFF9
FFFB
FFF7
FFFA
FFF9
FFF8
FFFA
0008
0004
0002
0005
FFF7
FFF9
FFFD
FFFB
FFF8
FFF8
0000
FFF9
0008
000A
FFFA
FFFF
0009
FFF8
FFFE
FFF8
FFFD
FFF7
0002
FFFE
0002
0005
FFF6
0009
0004
FFF9
FFFA
000A
FFFD
0009
FFFD
000A
0009
FFFF
0006
0002
000B
FFF9
0004
0007
000B
FFF7
0005
FFF7
0001
0005
0009
0003
000A
0009
0007
000A
FFF9
FFFD
FFF9
FFF9
FFFC
FFFE
0003
0001
FFFE
000A
0003
FFFD
FFF6
0000
FFF7
FFFC
0003
FFFD
FFF6
0003
0006
0009
0003
FFFE
FFFF
FFFD
0009
0007
0006
0003
FFFE
FFFB
000A
FFFE
FFFA
0001
FFFD
FFFD
FFFC
0001
FFFD
0005
0007
FFFA
FFF9
FFFB
FFF7
0007
0008
FFF6
0004
FFF6
0007
0000
0004
FFFF
FFF6
FFF7
0004
FFF7
0004
FFF7
0005
0004
0002
FFFB
0006
000A
0003
FFFE
0004
FFF6
FFF6
0006
0006
FFF7
FFF9
FFFB
FFF7
FFFA
FFFE
FFFA
0003
0001
0001
FFFB
0003
000A
FFFE
0001
FFFC
0002
FFFB
0009
FFF7
0007
0004
0008
0002
FFFC
FFFF
FFF8
FFF6
0006
FFFB
FFF7
FFFB
FFF7
0001
FFFD
0006
FFFC
0009
0009
000A
FFF8
0006
0006
0009
FFF9
FFFD
0006
FFFA
0004
000B
0000
FFFE
0003
0008
0006
FFFE
0008
0004
0008
FFFF
FFF9
0000
FFFD
FFFC
FFFF
FFF8
0001
0000
0000
FFFD
0001
FFFD
FFFF
0003
0006
0006
FFF7
FFF8
0001
000A
0001
0003
0008
0001
0004
FFFD
0007
FFF9
FFF7
FFFE
0003
FFFC
FFFE
0004
FFFD
0000
0003
0009
FFFE
0005
0003
000A
0004
FFFF
0001
FFF6
0009
0007
0009
0006
FFFF
FFF9
FFF8
FFFD
FFFF
FFFC
FFFB
0007
FFFB
FFF9
0007
0001
0005
0006
FFF6
FFFA
0000
FFF8
0000
FFFD
0002
0005
FFF7
0001
0004
0008
0009
0009
0001
FFFC
0008
0004
FFF6
FFF7
0000
0002
FFFB
0006
0005
FFF9
FFF6
FFFF
0009
FFFE
FFFE
000A
FFF6
FFFF
0000
FFFD
FFFD
0001
FFFC
0006
0008
0002
FFF7
0001
0002
FFFB
0005
0006
0004
0004
0000
FFF8
FFF7
0000
0001
FFFE
FFFE
0009
FFF8
0007
0008
FFFD
0003
FFFC
0002
FFFA
0008
0006
FFFC
FFF6
FFFA
0008
FFFC
FFFB
0006
0006
FFFE
FFF6
FFF8
FFF8
FFFE
FFFB
0004
FFF8
FFFC
0009
FFFC
0005
0008
0001
0005
FFF7
FFFE
0004
FFF9
0006
0009
FFF8
FFF7
0007
0009
0007
FFFF
0004
FFFE
0004
0008
FFFA
FFF7
FFF6
0009
0004
000A
FFF7
0003
0006
FFFF
FFFC
FFF8
FFFB
0009
FFFD
FFFE
FFFF
0000
FFF8
FFF6
FFFF
0002
0004
0002
0001
FFF9
0007
FFFA
0007
FFF8
0002
0001
FFF6
FFFD
FFFA
FFFF
0004
FFF9
FFFF
0003
FFF7
FFFF
FFFF
0008
000A
FFF9
0006
FFFC
0004
FFF7
0008
FFF9
0002
0007
0000
0001
FFFD
FFFB
0005
FFFA
0001
FFF6
FFF9
0004
FFF7
FFFA
0005
0009
0002
FFFB
0003
0002
FFFA
FFFC
FFFB
FFFC
0003
FFFD
FFFB
0002
FFF8
0004
FFF6
0005
0002
FFF9
0004
FFF9
0002
0009
0004
0004
0008
0004
FFFE
0005
0004
FFFD
FFFF
FFFB
FFF9
0000
FFF9
FFFE
0000
0006
0004
0003
0004
FFF8
0007
0006
FFFE
0007
0001
0007
0001
FFFB
0004
FFF9
0009
0001
0006
FFFE
0002
0001
FFF6
FFF6
FFFB
FFF9
0004
0009
0000
0003
FFFA
FFFA
FFFA
FFF9
0008
0003
FFFB
0003
0006
0007
0002
FFFF
FFF6
0006
FFFA
000A
0004
FFFF
FFF7
FFF8
0001
0005
0007
0008
FFFF
FFFD
0007
FFF9
0007
0000
0006
FFF8
FFF8
0009
FFFD
000A
0007
0006
0005
0006
0008
FFF9
0004
FFFD
0003
FFF7
FFF9
FFFE
0000
FFFA
FFF9
FFFC
0008
FFF7
0009
0000
FFFB
0002
0006
0008
0006
FFFA
FFFE
FFFF
0003
FFFE
FFF8
FFF9
0000
0006
0004
0003
FFF7
0007
FFFD
0008
0007
000A
FFFF
FFF7
FFF6
0003
FFFC
0007
FFFA
0005
FFF8
0005
0002
FFFA
0003
FFF7
FFF9
0009
FFF9
FFFA
FFFA
0006
0001
0006
FFFF
FFFC
FFFF
FFFF
0003
FFFE
FFFF
FFFD
0003
0009
FFF8
FFF6
0002
0001
0008
FFF7
0003
FFFC
FFF8
0001
0008
0004
FFFB
FFF6
FFFA
000A
FFF8
FFFF
FFFC
FFFE
FFFD
FFFC
FFF9
FFF7
0009
0006
0002
0003
FFFF
FFFB
0005
FFFB
0005
FFF6
FFFE
0003
FFFD
0005
FFF8
FFFF
0005
0009
0004
0001
FFF9
FFF8
FFFB
FFFE
0002
FFF6
000A
0003
0009
FFFE
FFFA
0003
FFFA
0007
000A
FFFF
0001
FFFD
FFFC
0003
0003
0001
0001
0003
FFFA
0005
0003
FFF9
0000
0003
0008
FFF8
FFFD
FFFD
FFFA
000A
0004
FFF5
FFF7
FFF9
FFF8
FFF6
0002
0008
FFF7
0005
FFFE
FFFA
FFF8
FFFB
FFFF
0000
0002
0007
FFFF
FFFA
0004
0005
FFFC
0005
0005
0003
FFFF
0006
0007
0005
FFFD
0001
FFFC
FFF9
FFF8
0001
0004
FFFC
0002
0002
FFFB
0008
0000
0004
FFF7
FFFE
FFF8
0009
0008
FFF9
FFFD
FFF7
0001
FFF7
0001
FFFE
0008
FFF9
0003
0006
0006
FFF7
FFFC
0009
0003
FFF8
FFFD
0002
0004
FFFF
FFF7
0005
0000
FFFB
FFFD
FFFA
FFFC
0008
FFFF
0005
0000
FFFE
0007
0001
000A
0007
FFF6
0001
FFFF
FFFE
FFFA
0000
FFF7
FFFF
000A
FFFE
0000
0003
0006
FFF6
0008
FFFB
FFF8
FFFD
FFF8
FFFC
0006
FFFF
FFFF
0005
FFFD
FFFA
FFFD
0001
0009
0002
FFF7
0002
FFFD
FFFF
FFFB
FFFE
FFFA
0002
000A
0008
0008
0006
FFF8
0007
FFFE
0000
FFFB
FFFB
FFFB
0008
FFFB
FFF8
FFFA
0002
0002
FFFA
0005
0000
FFF9
0002
0005
FFFB
0001
FFFB
FFF8
FFFC
0001
FFF9
FFF9
0009
0006
FFFA
FFFA
0009
FFFF
0000
FFF8
FFF8
0004
0007
FFFE
FFF8
0004
FFFD
0007
000A
FFF6
FFFE
FFF7
0000
FFFF
0006
FFFB
0003
0009
FFFF
FFF5
0001
0003
FFFB
FFFD
0002
0001
0007
FFFA
FFF7
FFFD
FFFC
FFFF
0006
FFFE
0006
FFFA
0002
0003
0006
0000
0000
0001
0002
0007
FFFD
FFFC
0002
0003
FFFD
0009
FFFA
0005
FFF6
0004
0006
0005
0005
FFFE
0009
0000
000A
0001
0008
FFF6
0001
0004
000A
0004
0000
0001
FFFF
FFFD
0005
0003
FFF9
0004
FFF7
FFFB
0007
FFFF
0000
FFF9
FFFB
0005
0007
0003
0004
FFFA
000A
FFFF
0004
FFFF
FFF8
0001
0008
0001
FFFE
FFF7
0009
0005
0000
FFFD
0005
FFF9
FFFF
FFF9
FFFC
0000
0000
0005
0000
0000
0009
FFFC
FFFC
FFFA
0005
FFF6
0005
0003
FFFA
FFFB
FFF6
FFFF
0009
0006
FFF8
0007
FFFA
0007
0001
0002
0000
FFF6
FFF8
FFFD
000A
FFFE
FFFB
0004
0001
FFFD
FFFC
FFFC
FFF7
FFFE
0006
0002
0005
FFFE
FFFB
0002
FFF7
FFF7
FFF6
FFFC
0000
0006
0004
FFFA
0001
0007
0003
FFFE
FFFF
FFFE
FFF6
0005
0007
0006
FFFB
FFF9
0008
0001
0005
0005
FFF5
0004
FFFF
FFFF
0006
FFFC
FFFB
0001
FFF6
FFFB
FFFA
FFFC
0002
000A
0000
FFF8
0002
FFFE
FFF9
0007
FFFC
FFFD
0009
FFF8
FFFA
000A
FFFB
FFF8
FFFF
0004
FFF9
0004
FFF9
0005
0009
FFF8
FFFF
0002
FFFB
0001
FFFB
0000
FFF8
FFFB
0009
FFFA
0000
FFF8
FFFC
FFFB
FFFD
FFFD
FFFD
FFFA
0009
FFFC
0005
FFFF
0007
0008
FFFC
0006
0005
FFF9
0004
0005
FFF9
0008
FFF9
FFFE
0003
FFF8
0007
0005
0002
0006
0000
0006
0004
FFFD
FFFF
FFF6
0003
0001
0000
0003
0002
0000
FFF7
0009
FFF8
0005
0009
0000
FFFB
0001
0006
0000
0009
0008
FFFE
FFF8
FFFD
0004
FFFE
0001
0002
FFF7
0007
FFF9
FFFB
0003
FFFA
FFFD
FFFB
0006
FFFB
FFFD
0007
FFF6
FFFE
0003
0004
FFFB
FFF7
FFFE
FFFC
0003
FFFE
FFFE
0008
0000
FFF9
FFF9
0007
FFFE
FFFE
0000
FFF8
FFFA
FFFA
0001
0008
FFF8
0008
FFFD
0000
000A
0000
0005
0006
000C
FFF7
FFF9
0002
FFF7
FFFB
0000
FFFF
0000
FFF8
FFF8
FFF7
000A
FFFE
FFF6
0004
FFF9
0008
0004
0007
0001
0002
0006
FFFD
0008
FFFD
FFFD
0008
0008
0004
FFF7
FFF9
0009
0007
0000
0003
0002
FFFF
0001
FFFF
0003
0007
0009
0002
0009
0000
FFFE
0000
0001
0005
FFF7
FFFF
0003
0009
FFFA
FFFE
FFFB
0002
0009
FFFA
0007
FFFA
0002
FFFE
0008
FFFB
FFFB
FFFD
FFFD
FFF8
FFFD
FFFE
FFFD
FFFE
0003
000A
FFF6
FFFC
FFFB
FFF6
FFFD
000B
FFFD
FFF8
0005
FFFF
0004
0005
0001
0003
FFF8
FFFC
0000
FFF9
0008
000A
0002
0008
FFF7
FFF9
0008
FFFD
0007
0009
0000
FFFE
FFFE
0000
0001
FFFF
FFFD
FFFC
0009
0004
FFFE
0008
0003
0005
FFFA
0003
FFF9
0003
0002
FFFB
0003
FFF7
0006
0007
0007
FFFF
FFF9
0005
0000
0003
0007
0009
0005
0008
FFFE
0008
FFFF
0004
FFFE
0003
FFFC
0002
0001
000A
FFF6
FFF6
FFFD
0002
FFF8
0007
0009
0000
FFF8
FFF7
0004
0006
FFFF
0007
0005
0004
0008
0008
0000
0009
0003
0003
FFF7
FFFB
FFFA
0003
0008
0004
0004
FFFD
0000
0009
FFF7
0007
0008
000A
0002
000A
FFFE
FFF7
FFF8
FFFB
FFF7
FFF8
0006
0005
FFFC
FFFB
0001
0000
0004
FFF7
0003
0004
FFF6
FFF9
FFFB
FFFB
0009
FFFB
FFFE
0008
0000
0009
FFFC
FFFA
FFF7
FFF8
FFF7
FFF9
FFF7
FFFE
FFF9
0002
FFFF
FFFD
0005
0003
0007
0000
0009
FFFA
0009
0002
FFF7
FFFB
0004
0002
FFF6
FFFB
0001
0002
FFFE
0007
000A
0005
0009
0002
0004
FFF8
FFFA
FFFE
000A
FFF8
0006
FFF7
FFF6
FFFD
FFFD
FFF8
FFF9
FFF6
0009
0007
0000
FFFB
0002
0002
FFFC
0002
0007
0009
0003
0000
FFFA
FFF6
FFF6
FFFF
FFF5
0009
0009
FFFC
FFF9
FFFA
FFFD
000B
0006
FFFB
0005
FFFE
0005
0009
FFFC
FFFB
0006
0005
000A
FFFB
FFF6
FFF9
000A
0003
0004
0008
0007
FFFB
FFFA
0001
FFF8
FFF8
FFFF
0000
FFFF
0005
0003
FFFC
0000
FFFD
0001
0007
FFF9
0005
0004
FFFA
0006
FFFE
0008
FFFD
FFF8
FFFC
0007
0006
0001
FFF9
0004
FFF9
FFF9
FFFA
0008
FFFB
0007
000A
FFFD
0005
FFF9
0004
0002
FFF7
000A
0003
FFFC
FFFD
FFF9
0000
FFFE
0000
FFF9
FFF9
0008
FFF7
0001
FFF6
FFFB
FFFC
FFFE
000A
FFFB
0001
0001
0000
0005
0000
FFF7
FFF7
0000
FFF5
FFF8
FFF5
FFFF
0007
0000
FFF8
0007
0004
FFF6
000A
FFF9
FFF9
0001
FFF9
0004
FFFB
0005
FFFB
FFFD
0002
FFFC
FFFE
FFFB
0003
0000
0002
0008
FFF8
FFFD
000A
FFFF
FFF7
0003
FFF8
FFF6
FFF9
0005
0000
0000
FFFD
0003
FFFF
FFFD
FFFD
FFF8
FFFB
FFFB
FFFF
FFFA
0007
0009
0007
0006
FFF4
FFF8
FFF6
FFFB
FFF7
0008
FFFC
FFF9
FFFA
FFF7
0001
0006
FFFB
0007
FFFC
FFFA
0009
FFF8
0000
FFF7
FFFA
000A
0003
0000
0000
0000
0006
FFFC
FFF8
000A
FFFC
0006
FFFF
0000
0003
0004
FFFD
FFFF
FFFF
0000
FFFB
0003
FFFD
FFFA
FFFA
FFF7
FFF5
0001
FFFB
0002
0002
0006
FFF7
FFF7
FFF7
FFFA
0002
FFF9
0003
0009
0000
0006
FFF7
0008
0005
0009
0005
FFFB
0007
FFFB
000A
0003
000A
0005
0002
FFFD
FFFB
FFF9
FFFD
0004
0001
FFFF
0006
0000
FFFC
0001
FFFA
FFFB
FFFF
FFFC
0003
0003
FFF7
0009
0002
FFFE
0009
0003
0000
FFFD
FFFE
0006
FFFD
FFFD
0004
FFFF
0007
0007
FFFB
FFFD
FFFD
FFF6
0002
0000
FFFF
0001
FFF7
0001
FFF9
0002
0006
0005
0006
0000
FFF9
FFF8
0007
FFFC
0004
FFF8
0002
FFF9
0006
0001
0005
FFFC
FFF8
0001
0005
0005
FFFA
FFFA
FFF7
FFF9
FFF8
0006
0006
FFFA
FFFC
FFFE
FFF6
FFFB
0000
FFFB
0006
FFFF
FFFB
0002
0004
FFFE
0008
0001
FFF8
0007
FFF7
0000
0007
0006
0003
0002
0009
0003
FFFF
0007
FFFB
0008
0004
0004
0005
FFF5
0001
FFFA
0005
FFFF
FFFA
0004
000A
0006
0008
0000
0004
FFFA
FFFA
0005
FFFD
FFF7
0005
0003
0007
FFFA
FFFB
0009
0001
FFFF
FFFE
0008
0006
FFFB
0005
FFFB
FFF6
0004
FFFD
FFFA
FFFD
FFFB
0006
0009
FFFE
FFFA
0005
FFFD
0008
0004
FFF9
FFFB
FFFC
0009
FFFB
FFFA
FFF7
0007
0002
FFFF
000A
000B
0008
0009
FFFF
0007
0003
0003
FFFF
FFFE
0002
0003
0001
FFFF
FFFB
FFFC
FFFB
FFF7
FFF8
FFFB
0004
FFF6
FFFF
FFFF
FFF8
FFFD
FFFE
FFFD
FFF8
FFF5
FFFD
0001
0004
0000
FFFC
0008
0004
FFFB
FFFF
0005
FFFD
0003
FFF7
FFFA
0002
FFFB
0006
FFF9
FFFD
FFF7
0005
000A
FFFE
0003
FFFD
0003
FFF6
FFFD
FFFE
FFFE
0008
0006
FFF7
0005
FFFD
0002
0008
0002
FFFA
FFF8
FFF8
FFF7
FFF7
FFFF
FFFB
0003
FFF7
0002
FFF7
FFFA
0009
FFF7
FFF8
0003
FFF9
FFF7
FFFA
FFFC
0009
0008
0008
FFFD
0004
0002
0005
FFFE
FFFB
FFF6
0006
FFFA
000A
0005
0005
FFFB
0008
FFF6
0005
FFFB
0006
0004
0003
0004
FFF9
FFF7
FFFF
0009
FFF6
0001
FFF9
0009
0008
FFF9
FFFE
FFF8
FFF9
0003
0001
FFFD
0009
FFFF
FFF8
FFFC
0009
FFFA
FFFD
0005
0009
FFFE
0007
FFFF
0000
FFF9
0008
000A
FFFA
0002
FFFD
0008
0000
000A
FFFE
0009
0003
FFF7
0007
0002
0004
FFF6
0008
0000
0008
0001
FFF8
0007
FFFF
0007
0003
0003
FFFD
000B
0001
0001
0000
0008
0000
FFFA
0009
FFFC
0007
0005
FFFE
0003
0005
0004
FFF6
FFF8
FFF7
0004
0004
0005
FFFC
0002
0004
0000
0002
0003
FFFC
FFFD
FFF8
FFFF
0005
FFF5
0008
000A
FFFF
FFF7
FFF6
0005
0007
FFF7
FFF7
FFF8
0002
0004
0003
FFFF
0006
0008
FFFD
FFF9
FFFF
FFFD
0009
FFFD
FFFC
FFFB
0006
0001
FFF8
0009
FFFC
000A
FFFF
FFFC
FFFE
FFFC
0005
FFFC
FFFD
FFFD
FFFC
0000
0007
FFFE
0003
0007
0001
FFF7
FFFF
000A
FFFA
0008
FFFD
0007
FFF8
FFF8
0000
0001
FFFD
FFFD
0004
0009
FFF9
0009
0000
000A
0004
FFFF
FFFD
0005
0006
FFFC
000A
0001
FFFA
0008
000A
0007
FFFF
0008
0003
0001
FFF8
FFFB
0006
0000
0002
FFF8
FFF8
0007
0005
FFFD
FFFB
0009
0004
0002
0007
0002
FFFC
FFF8
FFF9
FFFC
FFF8
0009
0008
0000
FFFF
FFF7
0008
0004
FFFA
FFF9
FFF7
FFFE
0000
0005
0003
0005
FFF6
FFFB
FFFB
0002
0009
FFFB
0005
FFF7
FFFE
0000
0003
FFFD
000A
0008
FFF7
0003
FFFE
0008
FFF7
0007
0006
0008
0004
FFF8
FFFB
0000
FFFC
0000
0004
000A
FFFA
0005
FFFF
FFF9
FFFC
FFF8
FFF6
FFFF
FFF9
0008
FFF8
FFF7
0004
FFFB
FFFB
FFFF
0001
FFFB
FFF9
FFFC
0002
FFF9
0006
0000
0003
0006
000B
0008
FFFE
0006
FFFD
000A
0003
FFFD
0003
FFFB
0003
0008
FFF9
FFFE
FFF7
FFFD
0007
0000
FFF9
FFF9
FFF7
0004
FFF7
0009
FFFC
0001
0001
0001
0002
FFFC
0008
0004
0008
0004
FFF6
0003
0009
000A
FFFC
FFF9
FFFE
0004
FFF6
FFF9
0009
FFF7
FFF7
0002
FFFD
FFFD
0002
FFFD
0009
FFFD
FFF8
FFFB
0004
FFF6
FFFC
FFFB
0008
FFF8
FFF8
000A
0007
FFFA
0001
0000
FFFF
0007
FFFF
0007
FFF7
0005
FFFF
FFFE
FFF8
FFFF
000A
0006
0000
0009
FFFB
FFF9
FFFC
0001
0006
FFFE
FFFD
0000
0003
0007
0004
0009
FFF9
FFFA
FFFF
FFF8
FFFD
FFFD
FFF7
0003
FFFF
FFFE
FFFC
0001
FFFC
FFFD
0001
FFF6
0000
000A
FFF8
0007
0001
0002
FFF7
FFF9
0000
FFFF
FFFC
0007
0003
0001
0003
FFFC
FFFF
0009
FFF8
FFF9
0009
0000
0001
FFF8
FFFA
0009
FFFB
FFFF
FFF8
FFFA
0002
FFF9
FFFC
0008
FFFE
000A
0005
0003
FFF7
FFFD
FFFA
0000
FFFF
FFFC
FFF8
FFFD
000A
0005
0008
0002
0001
FFFE
0005
FFFF
FFF7
0006
0003
0000
FFFE
FFFD
0008
0003
FFFA
0007
0004
FFFB
0004
FFF8
FFFA
0008
0005
FFFA
0000
0007
0003
0004
FFF7
FFFA
FFF9
FFF9
0004
FFFD
0007
0002
0000
FFF7
FFFD
FFFC
FFFF
0008
FFF9
0001
0003
0000
FFFD
FFF8
FFF6
0008
0003
FFFF
0006
FFF6
0002
0008
000A
000A
FFFD
0009
FFFD
0005
0008
FFF9
0009
0002
FFFF
0001
FFFE
FFFD
0000
0009
FFF7
0002
0007
0003
FFFC
0009
0005
FFFB
FFFA
0006
0004
FFFE
FFF9
FFF6
0002
FFFC
FFFC
0009
FFFF
FFFA
0003
0006
0000
FFFB
FFFD
FFFD
0000
0006
0001
FFFA
FFFB
0009
FFF7
0007
0007
FFFC
FFFA
FFFD
000A
FFFE
000A
FFF8
FFF6
FFFE
FFFD
0008
FFF7
0001
0004
0007
0002
0003
000B
0000
FFF9
FFF9
0007
0007
FFFC
FFF9
FFFB
FFFB
0006
0001
0002
FFFA
0006
0002
FFF6
0002
0006
0004
0007
FFFE
0007
0007
0004
FFFA
FFFA
FFFD
0002
0000
FFF9
FFF7
FFFA
0000
FFFC
000A
FFFD
0003
0008
FFFD
0000
0009
0003
FFFD
0006
0003
FFFE
0002
0002
000A
FFFE
0000
FFFC
FFF6
FFFF
0002
0005
0006
FFF8
0005
0005
0003
0002
FFFD
0009
0009
FFFC
FFFF
0006
0006
0000
FFFF
FFFF
FFFB
0007
0008
0009
0000
0000
0000
0004
FFFE
FFFD
0001
FFFD
0007
FFF7
FFF7
FFF7
FFFD
FFFB
0004
FFFF
FFFE
0008
FFF7
FFF9
FFF8
0007
FFF8
FFFB
0009
000A
0001
FFF9
FFFC
0009
FFFC
0007
FFF6
0007
0001
0002
FFFB
0007
FFFF
0003
FFFE
0006
0005
0002
FFFE
FFF8
FFF9
0005
000A
0006
0009
FFF8
0006
0006
0008
FFFE
0008
FFFB
FFFB
FFF9
0004
FFF9
FFF9
0004
FFF7
0002
000A
0005
FFFA
0009
0003
FFFD
FFF6
FFF6
0007
FFFF
FFF7
0008
FFF9
0000
0008
FFFA
FFF9
0000
000A
FFF9
0008
0001
FFFC
FFFA
FFF6
0003
0000
FFF9
0006
0002
0005
FFFC
0006
FFF9
0006
0009
0006
FFFA
FFFA
0000
0003
FFFA
FFFB
0009
0007
FFFB
FFFB
0006
0009
0005
0007
FFFD
FFFA
0003
FFF8
0009
0007
FFFD
000A
0001
FFFE
000B
0008
0001
0009
0002
0000
FFF9
0005
FFFE
FFFD
0002
FFFC
FFFD
0005
FFFF
0005
FFF7
0002
FFF5
FFF6
FFFD
0003
FFF9
0006
0002
FFFE
0001
FFFC
0001
FFFD
FFF7
0002
FFFC
000A
FFFB
FFF6
0007
FFF7
FFFE
FFFF
0009
FFFA
0007
0005
0006
0003
0000
FFFB
000A
FFFD
0009
0007
FFFF
FFF8
0001
0000
FFFD
FFFC
0007
0000
FFFF
0000
0003
0008
FFF7
0000
FFFD
0005
FFF8
0009
0007
0001
FFF8
FFFA
FFFB
0008
0007
0002
FFFE
FFFC
FFF7
FFF8
0003
FFF7
FFFB
0009
0001
0002
0004
0009
FFFE
0000
0001
FFFA
FFFA
0000
FFF7
FFF5
FFFC
FFF7
0006
FFFA
FFFD
0004
FFFC
0006
FFFF
0006
FFFB
FFFE
FFF7
FFFD
FFFF
FFF7
FFFE
0003
0005
FFF8
FFFE
FFFC
FFFA
FFFD
FFF9
0005
FFF8
FFFD
0002
0004
FFFD
0008
FFFA
0008
0008
0001
FFF8
0003
FFFC
0003
0003
0008
000A
0006
0003
000A
FFFE
0003
FFFD
0000
0005
FFF8
FFFE
0005
0005
0009
0007
000A
0008
0000
0009
000A
FFFA
FFFE
FFFE
FFFE
0002
FFF8
FFF6
FFF7
FFF7
FFF7
FFF7
FFF6
FFFC
0005
0007
0003
0009
FFFF
FFF6
FFFA
0000
FFF6
FFFE
FFFA
0009
FFFA
FFF6
FFFE
FFF9
0000
FFF9
FFFA
0005
0005
FFF7
FFFD
0005
0001
0006
0000
0008
FFFE
FFF8
FFF8
0005
FFFF
0004
0002
FFFE
FFFB
FFFA
0007
FFFB
0001
000A
0001
0009
FFFD
0005
FFFF
FFF9
FFFE
FFF6
FFFE
000A
0001
FFF6
FFF6
FFFD
FFFC
FFFB
0009
0003
0007
FFF9
FFF8
0000
0004
0000
0005
0000
FFFA
FFF9
0005
0006
0006
FFFB
0004
0009
FFFC
0005
0000
FFFE
0005
0006
0000
000A
0006
0009
FFFD
0005
FFF9
0007
0009
FFF8
0001
FFFA
FFFA
FFF9
0002
FFF7
0000
0008
0001
0005
FFF5
FFF9
0001
0003
0003
FFFB
FFF8
0003
000A
0005
0003
0009
0000
FFFA
0006
0003
0005
FFFE
FFF7
FFF8
FFF7
FFF9
FFFC
FFF9
FFFC
0002
0004
FFFE
0009
0006
FFFA
FFFE
0007
FFF9
FFF9
0000
0007
FFFE
0004
0002
FFFF
FFF9
FFFF
FFF8
FFF8
FFFF
0006
0000
FFFC
000B
0006
FFFF
0002
0007
FFF7
0001
FFFD
0009
0008
0002
0004
FFF6
0004
FFFC
0009
0002
0002
FFFB
0000
FFF9
0000
0001
0002
0003
FFF6
0000
000A
FFFB
0008
0005
FFFB
FFFA
000A
FFFE
0006
FFFB
FFFB
0006
0008
0008
0009
0007
FFF7
0007
0006
0009
FFFF
0000
FFF7
0004
0007
FFFA
FFF5
FFFA
0003
FFFE
0005
FFF8
FFFE
FFFE
0006
0008
FFF7
0003
0001
0007
0007
FFF8
FFF9
0000
0001
FFF9
0000
FFFD
FFF9
0008
FFF7
0008
0002
FFF7
0004
FFFD
0006
FFFA
0008
FFFF
0004
0006
0009
FFFB
0009
0002
FFFB
0006
FFFC
FFF7
0005
0008
FFF7
FFFF
0004
0002
0006
0005
FFFF
FFFA
0003
0005
0008
0009
0008
FFFA
FFFE
FFFF
0002
0009
0003
0008
FFF9
FFFE
FFF8
0002
FFFE
0001
FFFC
FFFB
FFFE
0003
FFF7
0007
0004
0005
0004
0005
0008
FFF7
FFFC
0006
0005
FFF9
FFFD
FFF6
FFFF
FFFC
FFF7
FFF6
000A
FFFC
0002
FFFA
FFFA
FFFE
0004
FFFF
0001
FFF8
0003
0002
FFF6
FFF6
FFFA
0003
0002
0005
0004
FFF8
FFFF
0005
FFF8
0003
0000
0001
0004
FFFE
FFFA
0007
FFF6
0008
FFFC
FFFA
FFF7
FFFE
FFFE
FFFB
FFF8
0005
FFF6
0003
FFFC
0008
0001
0007
0008
FFF6
FFF8
FFF6
FFFF
FFFF
0007
0001
FFFB
FFFE
0006
0009
FFFA
FFF7
0009
0008
FFFC
FFFD
0004
0003
0004
0002
FFFF
FFFE
0000
FFF9
FFFC
FFFC
0001
0005
0009
0003
0002
0004
FFFF
0005
FFFF
FFFF
0009
0007
0008
0009
0006
0005
0008
0009
FFF8
0001
0005
FFFB
FFFE
0002
FFFD
0002
0001
0008
FFF7
000A
FFF8
0006
FFFA
FFFD
FFF7
0004
0001
0006
0002
0005
FFFD
FFFB
0008
0006
FFFA
FFFB
FFFB
0007
FFFB
FFF6
FFF8
0009
0007
0005
FFFB
FFFD
FFF9
0006
0006
0002
FFF9
FFFF
FFFC
0000
FFFC
0006
FFF7
0008
0001
0003
0000
FFFC
0002
0003
0002
FFFF
FFF9
FFF7
FFF9
0002
FFFB
0009
0004
FFF6
FFFE
FFFF
FFF8
0006
FFFC
FFF7
FFFA
FFFD
0000
0004
0009
FFF7
FFFE
FFFA
FFFC
FFFC
FFF6
FFF7
FFFC
FFF8
0002
FFF7
0006
0000
0003
FFFD
0009
FFFB
0008
0007
0004
FFFF
0004
000A
FFF9
FFF9
FFF9
0006
FFF8
FFF5
FFFA
FFF7
FFF8
FFFE
FFFA
FFFC
0004
FFF7
0004
FFF7
FFFB
0005
FFF8
FFFE
FFF7
FFFE
FFF7
0008
FFFA
FFF9
FFFE
0006
FFFB
0004
0000
FFF8
0000
FFFC
FFF6
FFFE
0000
FFF8
FFFD
FFF9
FFFA
0003
0007
FFF9
0003
FFF8
0004
0005
000A
0000
0007
0009
0009
0004
0001
0007
FFFF
FFFB
FFFF
FFFC
0004
0008
0007
0002
0007
FFFE
FFFD
0004
0003
000A
FFFE
0001
FFFA
FFFA
FFF6
0007
000A
FFF7
0002
0006
0003
0000
FFFB
0008
0009
FFFE
0003
0009
0003
FFFD
FFF8
0008
0000
FFFC
0006
0005
FFFD
0009
0004
0001
FFFD
FFFF
0001
FFF7
000A
FFFF
FFF7
0006
0006
FFFB
0004
0001
0000
FFFE
FFF9
0007
FFFB
FFFD
FFF7
0003
0008
0003
0003
0006
0004
0009
FFF9
FFF6
0005
0006
0005
0000
0002
0003
0008
FFFF
0009
0005
0005
FFFC
FFF7
FFFC
FFF7
0001
FFFA
FFFA
0000
0003
0008
FFF8
0008
FFFD
0007
FFFC
0000
FFFA
0006
FFF6
FFFA
0008
0002
0000
FFF6
FFFA
0007
FFF6
0007
FFF9
0007
FFF9
FFF9
0001
0005
000A
FFFA
FFFB
FFF7
000A
FFFA
FFF6
FFF9
0002
0005
0006
000A
0001
FFFC
0002
0004
FFF8
0006
FFFA
FFF7
0003
FFFA
FFFC
0006
FFFC
FFF7
FFF7
FFFA
0003
FFF9
0008
0008
0005
0006
FFFF
FFFF
FFFF
FFFA
0006
0005
FFF8
FFF8
FFFD
0006
0003
0007
000A
FFFE
FFFC
0005
FFFB
0006
FFF8
0004
FFFD
0009
0009
0004
FFFC
0000
0000
0005
0002
FFFD
0005
0003
FFFB
0002
FFFD
FFFA
0004
FFF9
FFF8
FFF8
FFFB
FFFC
0001
FFF7
0008
000A
FFF9
0009
0006
0008
0006
0005
FFFD
FFF6
FFFA
0003
FFFB
0005
0000
FFF9
0009
0007
0009
0004
0004
0000
FFFF
0003
0008
FFF8
FFF7
FFFA
FFFD
0004
FFFF
000A
0001
0004
FFF7
FFF9
0007
FFF9
FFF6
FFF9
FFFF
0008
FFFB
FFF9
0009
0001
0001
0006
0000
0009
0002
FFFC
0005
0001
0008
FFFE
0008
FFF8
0002
0008
FFF9
FFFD
0002
FFFD
0006
FFF9
0003
000A
0000
FFFE
FFF9
0000
FFFA
0002
0000
0009
FFFA
0009
FFF8
0009
0004
FFFC
0005
FFFB
0003
0002
FFFD
0006
0003
FFF6
0005
FFF9
0007
FFF6
0004
0004
000A
0005
0004
FFFF
0002
0008
FFFB
FFFE
0008
000A
0003
0006
000A
FFFC
0008
0008
FFFA
0007
0008
0001
FFFB
0009
0009
000A
FFF6
0006
0003
FFFD
0005
FFFE
0000
FFFA
0004
FFF7
000A
0006
0006
0008
000A
FFFD
0006
0006
0006
0000
0006
0003
0007
0007
0008
FFFD
0001
FFF6
0002
0001
0000
FFFD
0009
000A
0001
0002
FFFE
FFF7
FFFF
FFFC
FFF7
FFFC
0009
0009
FFFD
FFF7
FFF6
0000
FFF9
0003
FFFF
FFF7
0008
0005
0000
FFF8
FFFB
0001
FFFC
0007
000A
0007
0007
0008
0004
0002
FFF9
FFFF
0000
0005
0004
0003
FFF6
0004
FFF7
FFFC
FFF8
0000
0000
FFF6
FFFE
0000
FFFE
FFF9
FFF6
0007
FFF7
FFFE
0000
0004
000A
0005
FFFE
FFFF
FFFB
0006
FFFD
FFFC
0008
FFF5
FFF9
FFFE
FFFA
FFFB
0004
0008
0000
FFF7
0007
FFF9
0008
FFF6
0004
0001
FFFD
0007
0003
0001
0003
FFF9
0003
0005
0002
FFF7
0009
FFFC
0009
0008
FFF9
FFF7
FFFA
0009
000A
0008
0009
0006
FFF9
0009
0006
0003
0009
FFF8
FFF8
0006
0003
0004
0001
0007
0001
0007
FFFE
FFF6
0001
0001
FFFD
000A
FFF7
FFF8
FFFD
0004
FFF7
0000
0002
0004
FFF8
FFF9
0004
0004
0004
0004
0009
FFF9
FFFC
FFF9
FFFF
FFF9
0003
FFFA
0008
0001
FFFD
0006
0009
0002
0003
FFFB
FFFB
0006
0001
FFFB
FFFF
0002
0009
FFFE
FFFE
FFF6
0008
0002
FFF6
0006
FFFC
FFF6
FFF9
FFFD
FFF7
0002
0009
0007
FFFC
FFFF
0008
0007
0002
FFFD
FFFA
FFFC
FFF7
FFF8
0004
FFFC
0000
FFF8
0002
FFFC
FFFC
FFFB
0008
FFF9
FFFE
0002
FFF8
0001
FFFD
FFFF
FFF7
FFF9
0004
FFFB
0001
0007
0008
FFFE
FFFB
FFFE
0001
0005
0000
0005
0003
FFFF
0009
0004
FFFC
0007
0004
FFFC
FFF9
FFFE
0006
0001
FFFD
0008
0003
0001
0002
FFFA
0007
0003
0001
FFFF
0000
FFF6
FFF8
FFF5
0001
0003
FFF7
0005
FFFF
FFF6
0005
FFFB
FFFB
0004
FFFF
FFF7
FFFC
FFF7
0007
FFFD
FFFA
FFFE
0007
FFFE
FFF7
0004
FFFE
0002
0001
FFFD
0007
FFF8
0007
FFF9
FFF9
0004
FFF9
0005
0005
0007
FFFC
0008
FFFB
0001
FFF9
0002
0009
FFF8
FFF8
FFF6
FFFB
0008
0008
000A
0000
0006
0005
FFF9
0004
FFFB
FFF9
0000
0009
0005
0009
0006
FFFF
FFF6
FFFA
FFF6
0006
0008
FFFD
FFF9
FFF9
0008
FFF9
FFFE
FFF7
FFF8
FFF6
0007
FFFA
FFFF
FFFB
FFF9
0004
FFF9
000B
0009
0009
FFF9
FFF7
FFF9
0007
FFFE
0002
0005
FFFA
0003
0002
000A
FFFA
0003
0006
FFF7
0001
FFFF
FFFF
0008
0001
0005
FFFC
0009
0008
0002
0009
0001
FFFB
FFFF
0005
FFF8
0006
0001
FFF9
FFF8
0000
0009
FFF8
FFF9
0000
0002
0000
FFF9
0007
FFF6
0000
FFFF
0001
FFF6
FFF6
0003
0008
FFFB
0000
0006
FFF8
FFFD
FFFA
000A
FFF9
FFF9
0003
0006
FFF8
0006
FFFB
FFF9
0006
000A
0005
0006
FFF9
0000
FFFB
0006
0007
0008
0007
FFFE
000A
FFF9
0007
FFF9
FFFB
0006
000A
FFFC
FFF7
FFF9
000A
0006
FFFC
0005
FFF6
0007
0008
0008
FFF7
0008
000A
0000
0002
0003
0005
0001
FFF6
FFFD
0000
0004
0000
0007
FFF7
FFFD
FFFF
FFF7
FFF8
FFF8
FFFF
FFF8
FFF9
0006
0008
0000
0007
0001
0004
0003
0001
0005
FFFF
FFF6
0007
FFFD
FFF8
0005
FFF8
FFFC
FFFB
FFFC
FFF8
0007
FFF9
FFFE
0003
FFFF
0008
FFF9
0009
0000
FFFC
FFF6
FFFE
FFF8
FFFB
FFFF
FFF8
FFFD
0002
0007
000A
FFFD
0009
FFF8
0005
FFF6
0004
0004
FFF9
0003
FFF7
FFF8
FFFD
0003
0007
000A
FFFB
0001
FFFE
FFFF
FFFC
0000
0001
FFF7
0006
FFFB
0007
FFFD
FFFB
0007
FFFB
FFFF
000A
FFF7
FFFA
FFFA
FFFF
FFFF
FFFF
0000
FFFA
0003
FFF7
0009
0002
FFFD
FFF9
0001
0006
FFFF
0007
FFFA
000B
0006
0000
FFFB
FFFD
0006
FFF7
0001
0003
0004
0006
FFFB
FFF8
FFFF
0001
FFF6
0005
FFFD
000B
FFFD
FFFB
0003
FFF8
FFFB
0001
FFFF
0003
0003
FFF9
0008
FFFA
0009
FFFB
0006
FFF7
FFFA
FFFD
FFFE
FFF9
0007
0008
0004
FFFA
0006
FFFC
0008
FFFD
FFF7
FFF8
000A
FFFA
FFF7
FFFF
FFFD
FFF9
FFFB
FFF7
0005
FFFC
FFFD
0001
FFFC
0007
000B
FFF8
FFF7
0002
FFF6
FFFE
FFF9
0000
FFF9
0005
FFF8
0007
FFF7
0008
0005
FFFF
0000
FFFE
0002
000B
FFFF
FFFF
0001
0004
0000
0002
0004
0000
FFFC
0009
0005
FFFE
0003
FFFB
FFFC
0007
FFF9
0003
0007
FFF9
000A
0003
0001
0006
0007
FFF7
FFF9
FFF9
FFFC
0005
000A
FFFF
0007
0003
FFFB
0006
FFFA
0006
FFFE
0007
FFFC
FFFD
FFFD
FFFF
0005
FFFF
FFF9
FFF9
FFFE
FFFE
0008
0007
0006
FFFA
0004
FFFF
0006
FFFC
0003
FFFD
0004
0001
0006
FFFD
0002
FFF9
FFFF
0008
FFF8
0009
FFFB
000A
0002
FFF9
0006
0007
FFFE
0005
0003
0005
0003
FFFE
0002
0008
0001
0009
0009
FFF8
0004
FFFC
FFF7
0006
0009
FFF7
0003
0009
FFFC
0003
0006
0009
FFF7
0004
0008
0001
0002
0000
0000
0002
FFF9
FFFB
FFF6
0000
FFFA
0009
0000
0007
0007
000A
0007
FFFA
FFFE
0008
000B
000A
FFFB
FFFA
0009
0008
FFF9
FFF8
0009
FFFA
FFFA
FFF8
0009
0000
0008
0006
0001
FFFB
FFFE
0009
0005
FFF7
0008
FFF8
FFFE
0005
0006
FFF7
0006
FFF8
FFFE
FFF6
0005
FFF8
0004
FFF6
0004
0006
0000
FFFC
FFF8
FFF8
0004
0000
0002
0001
FFF6
0004
FFFE
0009
0002
FFFA
000A
0008
FFF7
FFF9
0006
0007
000A
0004
0002
0006
0007
FFFB
0006
FFFC
0002
0007
FFF8
000A
0009
FFFC
0007
000A
FFFA
FFF7
0000
0004
0006
FFFB
0000
FFF7
0004
FFF9
FFFC
0008
FFF9
0001
0001
0001
0008
0003
0006
0003
FFFC
0007
0005
0003
0003
FFF9
0005
FFFA
0007
0001
0000
FFFE
FFFA
0002
FFFD
0006
FFF9
FFFA
0006
0000
FFF9
FFF8
FFF8
0006
0003
0003
0001
000A
FFF6
0005
0008
000A
FFFF
FFF9
FFF7
FFFF
FFF9
FFF8
0008
0007
0005
0000
0004
FFFD
0000
0008
0000
FFFE
FFFA
FFFA
0006
0003
0006
0002
0005
FFF8
0007
0002
FFF7
FFF9
0007
0009
0007
0009
0000
FFFF
0004
FFF9
0003
0003
0003
0009
FFFC
0000
0008
0002
0002
FFF9
0009
000A
FFF6
FFFA
FFFB
FFFF
FFFF
FFFD
0002
0008
0004
FFF6
0003
FFF9
0003
0005
0007
0004
0002
FFFF
FFF7
0000
FFF6
FFF8
0000
FFF9
0003
0002
0003
0005
000B
0004
0000
0004
0004
0005
FFF9
FFF7
0003
0002
FFF6
FFFC
0006
000A
FFF7
0003
0003
FFFF
FFFB
FFF9
0000
0000
FFF8
0009
0002
0003
0000
0006
FFFD
0004
0001
0007
0009
0006
0003
0005
0006
0007
0003
FFFC
FFF8
FFFF
FFFC
0000
0003
0005
FFFC
0006
FFFD
0004
FFF7
0003
0003
0000
0003
FFFE
FFFB
0004
0009
FFF8
0007
0003
0000
0009
FFFC
000A
FFFF
0005
0005
FFFD
0002
FFFC
FFFE
FFFF
FFFB
FFFD
0008
FFF6
0002
FFFA
000A
000A
FFF8
0002
0001
FFFC
0004
FFFB
FFFB
0009
0007
0002
0000
FFF7
FFFB
0007
FFFD
FFFC
0007
FFF9
0003
FFF7
FFF7
FFFD
0008
0007
000A
FFFA
000B
0009
FFFC
0006
0002
0009
FFFF
0002
000A
FFF7
FFFB
FFFF
FFFE
FFFB
FFF6
0002
0003
FFFB
FFF9
0008
FFF8
FFFE
0000
FFFA
0000
0004
FFF8
0007
FFF6
FFFF
0004
0000
FFF9
FFFA
0005
FFFF
FFF7
FFF7
FFFA
0006
0009
FFFF
FFFC
0005
0007
0008
FFF9
0000
0001
FFFF
0000
0000
FFFC
0006
FFF6
0003
FFF7
0004
FFFA
0006
0005
0003
0002
FFF8
FFFD
0004
0003
FFF8
0000
0008
0009
0005
0003
FFF7
0005
0003
0005
0004
0008
0003
FFFC
0007
0003
0009
0008
0003
0006
0007
FFF7
0009
0005
FFF6
FFFE
FFF7
0007
FFF8
FFF6
FFFB
0005
0000
FFFE
0002
0001
FFF9
FFFF
FFF8
FFF7
0004
0006
0009
FFFB
0001
0004
0003
0001
FFFA
0000
FFF8
0005
0009
FFFF
FFFA
0009
000A
FFF8
FFFE
0000
0002
FFFD
FFFD
0007
0007
FFFD
FFFC
FFF7
FFF8
FFFE
FFFC
FFFE
FFF6
FFFC
FFFF
FFFD
FFFC
0001
FFFB
FFFE
0001
0002
0008
0000
FFF9
0001
FFFC
000A
0001
FFF8
0000
000A
FFFD
0008
0005
FFF7
FFFC
0009
0006
FFF9
0002
FFF6
0000
0001
0005
FFF8
FFFA
0003
FFFD
0001
0000
FFF8
0002
000A
0004
FFFA
FFFD
0004
FFFB
0001
FFF8
0000
FFFD
0000
FFFC
FFF8
000B
FFF8
0009
0009
FFFE
0001
FFF8
FFFE
FFF8
FFFE
0005
FFFC
0006
0001
0001
0006
FFF9
0005
FFF8
FFFA
FFFD
FFFE
FFF9
0002
0004
FFFA
0000
0007
FFFF
0002
FFFD
0007
FFF9
FFFE
FFF7
0007
0002
0006
0003
0003
FFFD
FFFA
FFF9
FFFF
0007
000B
0000
0002
FFFA
FFF9
FFFD
FFFA
FFFC
FFF7
0004
0007
0003
0009
FFFC
0002
0006
0008
0005
0008
FFF9
FFFC
0000
FFF6
0007
FFFE
FFF6
FFFD
FFF8
FFFD
FFF9
0001
0001
0005
0009
0007
0001
0006
0002
0007
0007
000A
0000
0005
FFF7
0000
0005
FFF8
0009
0001
0005
0003
0008
FFFC
FFFC
FFFB
0001
FFFD
0003
FFF7
FFF7
FFFB
0009
FFFE
0001
FFFD
FFFF
0000
0008
FFFE
0009
FFF8
0006
FFFE
FFFD
0009
0001
FFF7
000A
0002
FFFE
FFFC
0003
FFF8
0007
0004
FFFF
0006
0009
0007
FFF8
0007
0004
0003
0003
FFF9
0008
FFFE
FFF7
FFFD
FFF7
FFFC
FFFC
0007
FFFA
FFF6
0009
000A
FFFB
0008
0002
FFF7
FFF9
FFF8
0009
0003
0003
FFF7
FFF9
000A
FFFF
0009
FFFF
0001
FFF7
FFF8
FFFD
FFFA
FFF8
000A
0005
0001
FFF7
FFFF
0002
FFF6
FFFD
FFFD
0001
FFF6
000A
0008
0008
FFF8
0009
FFFB
0000
FFFC
FFFC
FFFF
FFF9
0002
FFFC
0006
0004
FFFA
FFFE
FFF9
0009
FFFA
FFF7
FFF8
0009
FFF9
FFF9
0001
0006
0008
FFFF
0001
0005
0008
0003
0006
FFFE
0007
FFF6
FFFB
FFFE
0006
0000
FFF8
0003
0000
FFFE
0004
0004
0000
0007
0006
0003
0000
FFFA
FFF9
FFF9
0002
0009
0008
0008
0006
0007
FFF9
0005
FFFF
FFFF
FFF9
0001
FFFF
0003
0005
0001
000A
000A
FFFA
FFFD
FFF8
0009
0009
0002
FFFA
000B
FFFA
0003
FFF6
0009
0002
FFFC
0006
FFFE
FFF8
0008
FFFD
0004
000A
FFF7
000A
0001
0009
FFFF
FFFD
0003
FFF9
0000
0004
0009
0006
FFF7
FFFC
FFFE
0003
0004
0001
FFFA
FFFE
0000
FFFC
0009
FFF7
FFFE
FFF8
0001
0004
0008
FFFC
0003
FFFC
0004
FFF9
FFFF
FFF8
0004
FFF9
FFFF
FFF9
0004
FFFA
0006
0002
FFF7
0006
FFFD
0002
0008
FFF9
FFF6
0003
FFFE
0008
FFFB
0007
0004
FFF7
0008
FFFB
0001
000A
FFFD
FFFC
000A
FFFA
FFF7
0000
0009
0008
000B
FFFB
000A
FFFE
FFFF
FFFF
FFFF
0005
0003
FFF6
0003
FFFC
FFFD
000A
FFFB
0005
FFF7
FFF8
FFFC
0009
FFF5
0003
0007
0004
0001
FFF6
FFFD
FFFD
FFFD
FFF8
0006
FFFB
FFFB
0003
FFFF
0005
FFFD
FFFD
0004
0008
0004
FFF8
000A
FFF7
FFFE
0008
0007
FFFB
000A
0002
0005
0004
FFF7
0003
FFF7
FFFA
FFFA
0009
0002
000A
FFFE
FFFD
0006
FFFF
000A
0007
FFFD
FFFA
0009
0005
FFFB
0001
FFFA
FFF7
FFF9
0009
0002
0001
FFFB
0008
FFFC
0009
0004
FFFE
FFF6
FFFD
000A
0006
FFFB
0006
FFF9
000A
FFF8
0001
FFF9
FFF8
FFFA
FFFC
FFFA
FFFD
0004
0000
FFFB
FFFB
0005
0004
FFFF
0000
FFF6
FFFE
0001
0008
FFF7
0004
0009
000A
FFFE
FFF9
0005
0004
FFFE
FFF6
FFF7
FFF7
FFFC
0005
FFFF
0002
0001
0009
FFFA
FFFE
FFF6
FFF7
0007
0009
0001
0004
FFFC
FFFE
FFFE
0004
FFF6
0007
0009
0007
0008
0005
0002
0009
0004
FFF7
0004
FFFD
FFF6
0005
0006
0006
0000
FFF6
FFF8
000A
FFFF
FFFA
0009
0007
FFFC
0006
FFFF
0002
0004
0007
0009
0002
FFFB
FFF9
0004
FFF7
0007
FFFA
0005
FFFA
0001
0007
0008
FFF7
000A
0004
0007
0002
FFFF
FFFC
FFF7
0002
0003
0008
0008
0008
0001
0000
0004
0007
0001
FFF8
0003
FFFA
0003
FFFB
FFFD
0002
0009
0003
0009
0007
0002
0002
FFF7
000A
FFF9
FFFE
0002
FFFA
0000
0000
0002
FFFF
FFF9
0002
FFFD
FFFF
0006
FFF8
FFF6
0002
FFFE
0007
0002
FFFF
FFFD
0002
FFFF
0000
0002
0003
FFFF
FFFA
0009
FFFF
FFFD
FFFC
0009
0007
FFFE
0005
0002
0005
0006
FFFF
0008
FFF8
0004
FFFC
FFF7
FFFE
FFFE
0007
0005
FFF8
FFFB
FFF7
0007
FFFE
0003
0008
FFFD
0009
0009
0005
0001
FFFC
0005
FFFD
FFF6
0007
000B
0001
000A
0003
FFF7
0007
FFF7
0008
FFFE
0005
0002
FFFE
000A
0007
FFFE
0003
FFFB
0005
0006
0003
FFFB
FFF9
FFF9
0009
FFFB
FFFC
0002
FFFA
0004
FFFB
0005
0001
0006
0004
0008
FFF9
FFFD
0002
0003
0003
FFFF
0002
0004
FFF8
FFFD
FFF9
FFFD
0009
FFFB
0007
0003
0007
0008
FFF9
0009
0005
FFFB
FFF9
FFF9
FFF8
0009
FFFB
0002
0004
0007
000A
0001
FFFF
FFF7
FFFA
FFFE
0008
FFFB
0008
FFFA
FFFD
FFF7
FFFE
FFFE
FFFF
FFFC
0009
0008
0007
FFFA
0000
0000
0003
0003
FFFD
0006
0001
000A
FFF8
0007
0005
FFFB
0003
FFFB
FFF7
FFFB
0000
0009
0009
0007
FFF9
0003
FFFB
FFFA
0008
0001
0009
0000
FFFB
0006
FFFE
0007
0004
FFFC
0008
0003
FFFC
FFFA
0002
FFFA
0004
FFFD
FFFD
0007
0002
0003
FFFB
FFF9
FFFA
0007
0002
FFFA
FFFE
FFFE
0003
FFFC
0007
FFFF
0004
FFFD
FFF8
FFFD
FFFD
FFFB
FFFD
0003
0000
FFFD
FFFD
0003
0002
FFFC
0005
FFF9
FFFF
FFF8
FFFA
FFFB
FFF9
0003
0003
FFF6
000A
000A
0008
000A
0001
FFFC
000A
FFFF
FFFF
0000
0002
0006
0008
0005
FFF5
FFFB
0001
0006
000B
0005
FFF8
FFF8
0001
0002
0004
0004
FFFC
FFFA
000A
FFFD
0006
FFF9
000A
FFFC
0006
FFF6
FFFA
FFFE
FFF9
0003
000A
0007
FFFB
FFF7
FFFC
0000
FFFE
0004
FFF9
0007
0009
0004
0005
FFFE
FFF7
FFF8
FFF7
0008
0007
0002
0005
FFFA
0003
FFF6
0008
FFFC
0007
FFFE
0009
0000
FFFC
FFFB
FFFC
FFFB
0008
0009
FFFB
0003
0007
FFFB
0004
0001
0004
0008
0001
0006
FFF6
0009
0009
0007
0002
FFF9
0006
FFFA
0006
0000
0007
0000
0000
FFF9
FFFF
0003
FFF7
0008
000A
FFFC
0000
0001
000A
FFF9
0004
FFF9
0006
FFF6
FFFD
FFFD
0006
0003
0006
FFF9
0008
0003
000A
0004
0001
FFFB
FFFC
FFFF
0000
FFF9
0006
0003
FFFF
FFFC
0000
0009
000B
FFF8
0003
FFFA
0001
FFFF
FFF9
FFF9
FFF7
FFFF
FFF6
0008
FFF9
FFFB
FFF9
0000
0000
FFFC
0008
0000
FFF6
0001
FFFA
FFFF
0006
0006
FFF9
0003
0003
FFF9
FFFB
0003
000A
FFFE
FFFB
0009
FFFB
0002
0005
FFFA
0007
0008
0001
0005
FFFF
0001
0007
0002
0002
000A
0003
0002
0001
0009
FFF9
FFFA
FFF8
0007
FFFA
0004
FFFA
FFF6
0006
FFFA
FFFD
0002
0009
0005
FFFE
0005
FFFA
FFFA
0005
FFFB
FFFC
000A
0007
0005
0006
0008
FFFE
0006
FFFD
0002
FFFD
0003
0009
FFF8
0001
0005
FFFA
FFFB
0008
FFF9
FFFA
FFF7
0005
FFFD
0001
000A
FFFD
0002
0008
0006
000A
0001
000A
FFF9
0002
FFFE
0009
0009
0003
0006
0000
0006
0002
FFFA
0008
FFFC
FFF7
0002
0002
0002
0009
FFF8
FFF9
000A
FFFA
FFFF
0007
0005
0005
FFFA
FFFE
0006
0000
0007
FFFA
FFFB
0009
0004
FFF7
000A
0006
0002
0002
0009
0002
000A
0009
0009
0008
FFFE
0007
FFFF
FFFC
FFFC
0009
0002
FFF8
0007
FFFD
FFF7
0003
FFFF
FFF7
0003
FFF9
FFFE
FFFC
FFFB
0001
FFF9
FFFC
0007
0004
FFF7
FFF9
000A
0004
FFFC
FFFF
0001
FFF8
FFFB
0006
0000
0008
FFFE
FFFC
0004
0002
FFF8
0003
000A
0009
0000
FFFB
FFF7
FFF8
0009
0008
0003
FFFC
FFFC
FFFC
FFFE
0004
FFF7
0001
FFF8
FFFF
0003
0003
FFFA
0008
0008
0009
0007
FFFC
0009
FFF6
0004
0003
FFFC
FFF9
FFFF
0001
FFFF
FFFA
0008
000A
0004
FFF7
0008
FFF8
0007
FFFB
FFF8
0009
FFF7
0006
FFFE
FFFE
FFFF
FFFE
FFFB
FFFF
FFF8
0006
0006
0006
0002
0008
FFFF
0007
0000
000A
FFF8
FFFF
0002
0008
0004
FFFE
FFFF
FFF9
FFFB
FFFE
0002
0007
FFFC
0003
0006
0007
0006
FFFE
FFFE
0009
0001
0006
FFF9
0008
0001
FFF8
FFFB
0005
0000
FFFE
0008
0002
FFF7
0008
0000
FFFD
0006
0005
0000
FFFD
0007
0007
FFF8
FFF8
FFFC
0002
0000
0005
0008
0005
0001
FFFC
FFF7
FFFD
0003
FFFB
0005
FFFB
FFFC
FFFC
FFF8
FFF8
0000
FFFC
0008
FFFF
FFFB
FFFA
0007
0003
0004
0000
0001
0001
FFF8
0001
FFFD
0009
0008
0006
0000
FFF9
FFF9
FFF9
000A
0002
0000
FFF8
FFFC
0003
0002
FFFB
000B
FFFA
FFFE
0006
0002
0004
0006
FFFE
FFFC
FFF7
FFF8
FFFF
0001
0005
000B
0001
FFFE
FFF8
0001
FFFA
FFF9
FFFA
FFFB
0003
0003
0006
FFFF
0005
FFFF
0006
000B
000A
0004
0006
0008
0009
FFFA
FFFA
0007
FFFF
FFFD
0005
0000
FFFB
FFFA
000B
0002
0009
FFFD
0006
FFFF
0000
0003
0004
0007
FFFC
0007
FFFD
FFFE
FFFC
000A
FFFB
FFFE
FFFB
FFFC
FFF7
0007
FFFA
FFFC
0005
0002
FFFF
FFF8
0007
FFF9
FFF7
0002
0005
FFFA
0002
000A
FFFD
0002
0000
0006
0005
0005
FFFA
FFFE
0004
FFFF
FFFE
FFFE
0007
FFFB
FFF7
0005
0000
FFF9
FFFD
0008
FFF7
FFFB
0005
FFFE
FFFB
FFFE
000A
0001
FFFE
0003
0009
FFF9
FFFF
FFFE
000A
FFF8
0001
0008
FFFF
0007
0006
FFFC
0007
0007
000A
0003
FFFA
FFFE
0008
0008
FFF8
FFFB
0005
FFFD
FFF8
0009
0003
0007
0003
FFF9
FFFB
FFF6
FFF9
0005
FFFE
0009
0004
000A
0000
FFFB
FFFA
0006
0008
FFFD
0008
0007
0008
FFFD
0000
000A
0002
FFFE
0007
0006
0009
FFFA
FFF9
FFF7
0000
FFFA
0001
FFF7
0004
000A
0007
0008
0009
0002
000A
0007
FFF8
FFF6
FFF8
0008
FFFB
0001
FFF7
FFFD
0005
0004
FFFC
0002
FFF8
FFFB
FFF7
0006
FFF9
0008
FFFA
FFFF
0004
FFFA
FFFC
0008
FFF6
0006
0008
0003
0006
FFFF
0006
FFF8
0006
000A
0009
FFFB
0003
FFF7
FFFA
0007
0003
FFF8
0008
0002
FFFE
FFFC
FFF8
FFFC
0000
0002
0001
0004
FFFB
000B
0009
FFFA
0005
0000
0007
FFFC
FFF6
0006
0003
FFFD
0001
FFF7
0006
0006
000A
FFF9
0000
0004
FFF6
0008
0006
0009
0000
FFFF
FFF8
FFFA
FFF7
0001
FFF9
0002
0003
0007
0002
FFFC
0004
FFFB
FFF9
0006
0008
FFF9
FFFC
0007
FFFB
0009
0004
0000
0006
0005
0008
FFFB
FFFB
FFFD
0000
0007
FFFC
FFF9
0002
FFFB
FFF8
0005
0003
0003
0005
FFFB
0007
0001
FFFC
FFFD
0009
0002
0006
FFF7
FFFD
0001
FFFE
0004
0004
0003
0002
FFF7
FFF6
FFFF
0003
0001
0009
0004
0008
0002
FFFF
FFF9
0003
000A
FFFA
FFF7
0001
0005
000A
0008
000A
FFFE
FFFC
0005
0002
FFF9
FFFA
0003
FFF8
FFF6
FFFE
0007
0002
0009
0000
0000
0004
0005
0006
0007
FFF8
0002
0002
FFFC
FFFF
0000
0000
FFFE
FFFD
0006
FFF7
FFF9
0003
FFFA
0003
0002
0007
0007
FFF6
0008
FFF9
0008
FFF7
0002
FFFC
FFF9
FFFB
0002
FFFF
0007
0005
0006
0003
0005
FFFB
FFFD
FFF6
FFFE
FFFC
0002
0001
FFFB
0009
0008
FFFF
0000
0008
0001
FFFA
0000
0003
FFFB
0003
FFF6
FFF7
FFFC
FFFC
FFFC
FFFE
000A
0006
FFF9
0002
000A
FFFB
0009
FFFF
FFF9
0009
0009
FFFD
FFFA
FFF8
0004
FFF8
FFFA
0009
FFFE
0002
0005
0000
FFFA
0006
FFFE
FFF7
0002
FFFC
FFFA
FFFD
FFF6
0002
FFF6
FFFA
0001
0002
FFF7
0001
FFFD
FFF6
0005
FFFB
0009
0002
FFFC
0009
0001
FFFE
0000
0000
FFFB
0007
0007
FFFC
0005
FFF6
FFFD
0001
0006
FFF9
FFF9
0000
0009
FFFF
FFFC
FFFE
0007
0005
000A
FFF7
FFFB
FFF7
0007
FFFC
FFF8
0008
0007
FFF8
0001
0006
FFFE
000B
0000
FFFD
FFFF
FFFB
FFFB
0008
0004
0003
0005
FFF9
FFFE
0009
0009
FFFB
FFFB
FFFC
FFF7
0009
0008
0000
0004
FFFB
0001
FFF7
FFFE
0009
FFFD
0005
0008
000A
0008
0001
FFF7
FFF6
FFF9
FFFE
FFFF
FFF8
FFF9
0004
0007
FFF7
0004
0003
0003
0002
0008
0009
0000
FFFF
FFFE
FFFD
0009
0009
0006
FFF7
0001
FFF6
FFFA
0007
0003
FFFE
0001
0003
0009
0008
0002
0009
FFF7
0002
FFFC
0008
FFFA
FFFA
0007
0001
0004
0007
FFFC
FFF6
0000
FFFD
0008
FFF8
0000
0005
0006
FFFD
FFFD
FFFD
FFFC
0008
0003
000A
0002
FFFE
FFFF
0006
FFF9
0003
0008
0008
FFFC
FFFE
0000
0003
FFFC
FFF7
FFF6
0007
0009
000A
0001
FFFB
FFFC
FFF8
FFF6
FFFE
FFFC
FFF7
FFF9
FFF8
0006
FFF8
0000
0003
FFF6
FFFF
FFF9
0003
0008
FFF7
0002
FFFF
0006
FFFC
FFFD
0009
FFFD
0001
FFFF
0004
0004
0009
0000
0005
FFFA
FFFD
0008
FFFC
FFFB
0001
0006
0002
0007
0003
0000
FFF7
0001
0000
FFFE
FFFA
FFFD
000A
0004
0002
0005
0006
0002
0007
0001
0002
000A
FFFF
FFFC
FFFA
0008
FFF7
0006
0007
FFF9
0008
FFF9
FFFA
0005
FFF8
0008
FFFA
000A
FFF7
FFF6
FFFA
FFFA
FFFC
0007
FFFD
000A
0004
FFF5
FFF9
FFF6
FFF6
FFF6
FFFB
FFFA
0003
0002
FFF7
000A
FFF8
FFF6
FFF7
FFF9
FFF8
0009
0004
FFF7
FFFC
0002
0005
FFFF
0007
FFFE
FFFB
FFF8
FFF5
FFFB
FFF9
FFFF
FFFE
FFF8
0004
0002
FFF8
FFF7
0003
FFFE
0008
0009
0006
FFFD
0000
0007
FFF8
FFFF
0005
0005
FFF9
FFFE
FFF9
FFF6
0003
FFFA
0000
FFF8
FFFB
0008
0005
0000
FFF7
FFFD
FFFA
FFF8
FFFF
FFFE
0000
0006
FFFD
FFF6
0001
FFF7
FFFF
FFFE
FFF8
0005
0002
0004
0000
0001
0003
0001
0008
0006
FFFC
0000
0005
0007
FFFF
FFF7
FFFF
0003
0005
FFF8
0005
FFFA
FFFF
0001
FFF6
FFFB
FFF9
0002
0004
FFFB
FFF6
FFFE
FFFE
0008
FFFE
0001
FFF7
FFF7
0004
0000
0000
0004
0006
FFF9
FFFE
FFFA
000A
FFFF
FFF8
FFF8
0003
FFFA
000A
FFFC
FFFB
FFFD
0009
0004
FFF9
FFFF
0007
0002
FFFC
FFFF
0003
FFFE
0004
0006
0004
0009
0007
0004
FFFF
0002
0005
FFF8
0007
FFF9
0004
0008
0005
FFF9
FFFA
0008
FFFB
0004
000A
0009
FFFA
FFFB
0008
FFF9
FFFE
FFFE
0009
FFFE
0008
000B
0004
FFF7
FFFB
FFF6
0008
0003
FFF9
0008
0009
0005
000A
0004
0003
FFFB
0006
0005
FFF6
FFFA
0001
0009
0002
FFFA
FFFE
FFFB
0007
0009
FFF9
FFFE
0000
0006
FFFC
FFF9
FFF7
0006
0005
FFFB
FFFE
0007
FFFC
FFF9
0007
FFF8
FFF8
FFFD
FFF7
0007
FFFA
FFFA
0009
FFFA
FFFC
0005
FFF8
0006
FFFD
0000
FFFF
FFFB
0000
000A
0006
0003
FFFB
FFFB
FFF9
FFFD
0009
FFFA
0003
FFFF
FFFB
FFF6
FFFD
FFF8
0006
FFFC
0004
0002
0000
000A
0001
FFF8
FFFA
0005
0001
FFFC
0000
0008
FFFC
FFF6
0001
FFFA
FFF8
FFFB
FFF9
0008
FFFD
0002
FFFD
0004
0002
FFFE
0008
FFF9
FFFD
FFF7
FFFB
0000
FFF6
0002
FFFE
FFFB
000A
0002
FFF9
0005
0001
FFFC
0003
0009
0004
FFFC
0003
0006
FFFB
0000
FFFD
FFFB
0000
0005
FFFD
FFF8
0004
0003
FFF6
FFFB
FFF6
FFFD
0002
0003
FFF8
0002
0001
FFFA
FFFF
FFF7
FFFD
0006
FFFD
FFFE
0001
0008
0000
0009
0006
FFFB
FFFC
FFFC
0002
0009
FFFB
FFFA
0004
000A
FFFF
FFF9
FFF7
0001
FFFD
FFF9
0000
0002
0004
0006
0003
0005
FFF7
0006
FFF6
0009
0008
FFF6
FFF8
0007
FFFF
FFFE
0003
FFFF
0007
0008
FFFD
FFFF
FFFB
0007
0009
FFF9
FFF6
0004
FFFC
0009
0008
FFF8
FFFC
FFF8
0008
0009
FFF9
0004
FFFF
FFFB
FFFD
0001
FFFF
FFF7
0003
000A
FFF8
FFFE
FFFD
0009
0007
FFFA
FFFE
0006
FFF9
FFFB
0007
0002
FFFD
0006
0008
0003
FFFD
FFFA
FFFD
0007
FFFD
0002
0004
0001
FFFA
0003
0000
0008
0002
FFFC
0008
FFF8
0001
FFF8
0004
FFF9
0004
0009
FFFC
FFFC
0003
FFF7
FFF8
FFFE
FFFD
0002
0009
0009
FFF6
FFFE
0008
FFF9
0008
FFFB
FFFE
FFFD
FFFA
FFF9
FFF6
FFF7
FFFA
0007
0002
0002
FFFC
FFFB
FFFC
0000
0000
0008
0005
FFFA
0005
FFF7
0000
0007
FFF6
FFFD
000A
FFFF
FFF8
FFFD
0002
0004
FFF7
0004
FFF8
FFF5
0008
0002
FFF8
0004
000A
0005
0004
0005
0008
0001
FFF8
0005
0008
0002
0004
000A
FFFA
FFFF
000A
0006
0005
FFF9
0003
FFF8
FFFF
FFF6
FFF9
FFF6
FFFD
FFFA
FFF7
FFF8
FFFD
0002
FFFE
FFFF
FFF5
0009
FFFF
FFF9
FFFE
FFFB
0005
0004
0000
0002
FFFD
FFFC
0001
FFF7
FFFB
FFF7
FFFD
FFF9
FFF9
FFF8
FFFB
0004
0006
FFFC
FFF9
FFFC
0009
0003
0007
0003
FFFC
FFFB
0002
FFFD
FFF9
FFFF
FFF9
FFFC
FFFE
FFF9
FFF8
FFF8
000A
0002
0002
000A
0002
0000
0004
0007
FFFA
0006
0002
FFFB
FFF7
0008
0004
0007
FFFF
FFF6
FFFB
000A
FFF7
0008
0007
000A
FFFD
0006
0001
0002
0001
FFFA
FFFF
0002
0002
0003
0001
FFF6
0009
0002
FFFB
0008
0001
0008
0002
FFF8
FFF8
0001
000A
0007
FFFD
0008
0000
0006
0004
0000
FFFC
FFFF
FFFD
0001
FFF6
FFF6
0002
FFFF
FFF8
0001
FFFF
FFFC
FFFF
FFF8
FFFC
0006
FFFD
FFF7
0000
0002
FFF9
FFFB
0009
0005
FFFC
0000
0006
FFFA
0005
FFFF
FFFB
000A
FFFC
000A
0004
FFFB
FFFD
FFF7
0002
000A
FFFA
FFFC
FFFE
0005
FFFE
FFF7
FFFB
0009
FFFA
0005
FFFD
FFF8
FFFF
0000
FFFC
0000
0008
0002
0006
FFFE
0007
FFFB
FFF7
0009
FFF8
0004
0003
0006
FFF9
0008
FFFB
FFF7
0004
FFF7
FFF7
0009
FFF9
0002
FFFA
000A
FFFF
FFF7
0008
0006
FFF9
0002
0000
0001
000A
0006
0006
FFF6
FFF8
000A
0000
FFFA
0006
FFFD
0003
0004
0007
0008
000A
FFFD
0002
0000
FFF7
0005
FFFC
FFFB
0001
0009
FFFE
FFFA
FFF9
FFFF
0007
0007
FFFE
000A
0006
FFF7
0002
FFF8
0000
FFFA
0003
FFFD
0002
FFFC
0003
0009
0008
0003
0002
0001
FFFC
FFF8
FFFC
000B
0008
FFFC
0006
FFF9
0001
FFF9
0008
0006
FFF6
FFFD
FFF7
FFFC
0005
0009
0002
FFFC
0005
FFFF
0004
0005
FFFA
0002
0000
0009
0007
FFF8
0007
0008
0001
FFFD
0005
FFF9
FFF7
0009
FFFF
0000
0004
0005
FFF7
FFF8
FFFF
FFFC
0004
FFF7
0000
0002
0005
FFFF
0008
FFF9
FFF9
FFF8
0001
0002
0005
0000
FFF6
FFFA
0006
FFFF
FFFD
FFF6
0004
FFFA
0001
0007
FFFD
0009
0005
FFF7
FFF9
FFFE
FFF7
0002
0008
FFF7
FFF9
0002
FFFF
0007
0007
FFFF
0002
FFF7
FFFB
0009
FFF8
0000
0000
FFFA
FFFA
0000
FFFC
FFF7
FFF8
0000
0004
FFF6
FFF9
FFF8
FFFD
FFFC
FFFB
0005
0000
FFFA
FFFA
FFFF
0006
FFFB
0009
0003
0006
FFFF
0001
FFFD
FFFE
FFFA
FFFF
FFFE
0003
0000
FFF8
0000
FFF7
0006
0003
0006
0001
0002
FFFA
0000
FFF9
0007
0005
FFFC
FFF8
FFFC
FFFB
0003
0006
FFFB
0006
0003
FFF8
0009
FFFF
FFFF
0007
FFFA
FFFC
0005
FFFD
FFF6
0004
FFFB
FFF7
0006
FFF8
0002
0002
0007
FFFA
0004
0007
0004
FFFF
FFFE
0009
0009
FFF6
0002
FFF6
FFFA
FFFF
0004
FFF8
FFFB
0000
FFF9
0009
FFFA
0005
0009
0000
FFFC
0004
FFFF
FFF7
FFF7
FFFE
FFFD
FFF9
0006
0009
0002
FFFF
0008
FFFF
0007
0000
0008
0006
0001
0009
0005
0003
0003
0009
FFFE
0009
0000
0008
0005
FFF9
FFF8
0006
FFFD
FFFB
0002
0005
0004
FFFB
0007
0009
0006
FFF9
FFFD
000A
0003
FFF8
FFFC
FFFA
FFFE
FFF7
0009
0001
FFFD
0009
FFFA
0000
FFF7
FFF6
0006
FFF8
FFF8
FFF9
0007
FFFB
FFFF
0007
0008
FFFF
0002
FFF9
0001
0006
0008
FFF9
0007
0002
0003
0005
FFFF
FFF8
FFF6
FFF6
FFFA
0006
0005
FFFB
000A
0009
0004
0000
FFFA
FFFD
000A
FFFC
FFF7
0005
0008
FFFA
0000
FFFA
0008
000A
0000
0002
0008
0001
0003
FFF8
FFFC
FFF7
0002
0002
0004
FFFC
FFF7
0002
FFF8
FFF7
FFFB
FFFA
FFF8
0007
FFFC
0006
0002
FFFA
0002
0008
0006
FFFE
0000
0000
0005
FFF9
FFFC
0004
000A
0004
0003
0002
0003
0000
FFF9
0000
0007
0008
FFFF
0009
FFFA
0009
FFF9
0002
FFF8
0002
0008
FFFD
0005
FFFF
0001
FFF7
0009
FFFB
FFFF
FFFB
FFF6
FFFC
0003
FFFF
0004
0001
0000
FFFA
0007
FFFD
FFF9
0004
0006
FFF6
FFF8
000A
FFF9
FFFF
0005
0005
FFFE
0005
0005
0000
0006
0000
FFFE
0009
FFFC
0002
FFF7
0000
FFFE
FFF9
0005
0008
0004
FFFC
0000
0000
FFF7
000A
0003
FFF7
FFFC
0007
0006
0006
000A
FFFF
0008
0005
FFFF
0003
FFF9
FFFC
0006
FFFD
FFFC
0003
FFF6
FFF9
0009
0000
FFFA
0003
0001
0007
FFFC
FFF9
0002
FFF9
FFFB
0000
FFFB
FFFA
FFFA
FFFB
0008
0003
0005
0002
FFFC
FFFB
0003
FFF6
0006
0006
0008
0003
FFF9
0008
FFF8
FFF7
0002
FFF7
0002
0004
FFFD
FFF7
0006
0006
0001
0009
FFF9
FFFA
FFFE
0002
0007
FFF9
0000
0000
FFFE
FFFC
0005
FFF9
FFFA
0002
0007
0003
0007
0003
FFF8
FFFD
FFFB
FFFC
0008
FFF7
FFFF
0003
0004
0009
FFFD
0009
FFFB
FFFF
FFF9
0008
0003
0001
0002
FFFC
0000
FFF6
0002
0002
0000
0005
FFF7
FFF9
FFFF
FFFC
FFF6
FFF6
0007
0000
0004
0006
FFF8
FFFA
FFFE
0004
FFFE
FFFA
0004
FFFB
FFF9
FFF7
0005
0004
FFFA
FFFB
0006
0000
0000
0006
FFF8
0009
0005
FFF8
0005
0000
FFF7
0003
FFF6
0006
FFF6
FFF8
0003
FFF8
FFFC
0003
0004
0003
000B
FFF8
0003
000B
0001
0004
0009
0003
0003
FFFB
0003
FFF6
000A
0002
0001
FFF8
0002
0004
0005
FFFF
FFFE
FFF9
FFF7
FFFB
0000
0003
0000
0007
0003
FFF9
FFFC
000A
FFF9
0003
0008
FFFB
FFFB
FFFD
FFF7
0009
FFFE
FFF6
FFFE
FFF7
FFF8
FFF6
FFFA
0008
FFF8
FFF9
0000
FFFD
FFFC
FFFD
0002
000A
0000
0006
FFFC
0003
FFFD
FFFE
FFFA
FFFC
FFF7
FFF8
FFF8
0008
0000
0004
0001
0005
FFF7
FFFB
FFF7
FFFF
000A
0007
0005
000A
0004
0008
FFFF
FFF9
FFFF
FFFC
0007
FFF8
FFFB
0007
0008
0008
FFFB
FFFE
FFFF
0000
FFFB
FFFD
FFFC
0001
FFF9
0001
0006
0006
FFFA
FFFA
0007
0009
FFFD
FFF7
FFF8
0000
0002
FFFC
FFFC
0007
0002
FFFC
FFFF
FFF8
0004
0005
0006
FFFF
0000
FFFF
0004
FFFA
0002
FFFB
FFF9
0009
0005
FFFA
0001
FFFE
FFFF
FFFD
000A
000A
FFF6
FFFC
0004
FFFC
FFFB
0009
FFFC
0004
FFFA
FFFA
FFF7
0002
0006
FFFB
0004
FFF6
FFF9
0008
FFFE
FFFF
0004
0006
FFFF
0003
FFFA
FFFA
0003
FFFA
0008
FFFF
FFF6
0005
0007
0002
0003
FFFD
0000
0006
FFFA
FFF9
FFFE
0002
FFFC
FFF6
FFFB
0006
0009
FFF6
FFF7
0002
0007
0009
FFF7
FFFA
0005
0007
0004
0002
0002
FFFE
FFF6
FFFF
0002
0001
FFFA
FFF9
FFF8
FFFC
FFF6
FFFB
FFF9
0000
0009
0008
0000
0006
FFFC
0006
FFFA
0002
0001
FFFD
0008
0004
FFFF
0001
0001
FFF9
FFFF
0009
0008
0009
0003
FFFE
FFFE
FFFA
FFFB
0005
0008
FFF9
0008
0001
0003
0000
0004
FFF9
FFF7
0001
FFFD
0001
0004
0009
0000
0002
FFF7
0008
0009
0003
0007
0002
0009
FFFF
0003
FFFF
0002
0004
FFFA
0007
FFFD
0006
0000
FFFE
FFFD
FFFA
FFFA
0008
FFFE
FFFA
0002
FFFB
FFFC
0006
FFFA
FFF6
FFF8
FFFD
0004
0007
0002
FFFC
0008
0005
FFFE
FFF9
0009
FFF6
0004
FFF7
FFF9
FFFE
0001
0000
FFF9
FFFE
FFFD
FFFF
0000
0000
0003
FFFD
FFFF
FFFD
FFF7
0005
FFFE
0000
0004
0000
FFFF
FFF9
0001
FFFA
FFFD
0009
FFF7
0007
0003
0005
FFFA
FFF7
FFFA
0009
FFF9
0007
FFFA
0008
FFFD
FFF9
0004
0004
FFFA
0009
FFFC
FFFE
FFFE
000A
FFF6
0007
FFFB
FFFE
FFFC
0007
0006
0000
FFFB
0008
0000
FFFD
0007
0000
0002
0003
FFF8
000A
FFF8
0002
FFFC
0006
0003
0001
0008
0007
0003
0003
FFFF
0007
FFF7
0003
FFFE
0005
FFF8
0009
0000
FFF8
0000
0007
FFFB
FFFF
FFFB
0006
0003
0001
FFFB
0002
FFFF
FFFC
0003
0005
0004
0004
FFFA
0001
FFFC
0007
0001
0008
0002
0002
000A
0009
FFF9
0009
0001
0005
FFF7
FFF9
FFFE
FFFD
FFF8
0003
0005
FFF6
FFFE
0005
FFFE
FFF7
FFFC
FFFA
0001
0005
0006
000A
FFFB
0004
0000
FFFB
FFF7
0005
0008
FFF9
0002
0009
0008
FFFF
FFF8
FFFB
FFF8
FFF7
FFF8
0004
0004
FFFF
0001
FFFF
0001
0007
FFF8
0008
FFFB
0001
000A
000A
0004
0000
000A
0009
0005
FFF8
FFFA
FFFB
FFFA
FFFE
0005
0008
0001
FFF7
FFFB
FFF6
000A
FFFA
FFFF
FFF8
FFF7
0002
FFFB
0001
0001
FFFD
FFF7
FFFC
0003
0006
0008
FFFB
0009
FFFE
FFFB
FFFB
0001
FFFC
0006
FFF6
FFF9
0008
FFFD
FFFC
0009
0005
FFFC
0008
FFF7
FFFE
0006
0005
FFFB
0005
FFFB
FFF6
0001
0009
0005
FFF8
000A
0001
0005
0003
0000
0006
FFF9
FFF8
0003
0005
0006
0009
0002
0005
0005
FFFB
0004
0008
FFFC
FFFE
FFFC
0004
FFFA
0009
FFFB
0005
0006
FFF7
FFFF
FFFC
0007
FFFE
FFF7
FFFD
FFF7
FFFD
FFF7
FFF6
0000
0008
0001
FFFD
000A
FFFB
FFFE
0008
FFFB
FFFF
000A
FFFD
0004
FFF9
FFFE
0009
FFFB
0009
FFFA
0009
0004
0002
0004
FFF9
0004
0004
FFFA
0005
FFFC
0004
FFFB
0004
0003
FFFE
0003
0001
0009
FFF9
000A
FFFB
0004
FFFA
0000
FFFA
FFF9
FFF8
0000
000B
0006
0009
0004
0006
000A
0006
FFFE
FFF9
0003
0000
0005
0003
0003
FFF6
0003
FFFE
0007
000A
000A
0007
0009
FFF8
FFF6
FFF7
FFFE
FFF9
FFFE
0002
0007
0007
FFFC
FFF6
0008
FFF7
FFFE
FFFE
FFF9
0008
0002
0001
FFF7
FFF6
0004
FFFC
FFFA
0004
0008
FFF9
0001
0000
FFFA
FFF8
FFF7
000A
0004
FFFD
0005
FFFC
0005
FFF9
0001
FFFC
0004
0005
FFFC
FFF7
FFF8
0004
0009
0009
0002
FFF7
FFFF
0002
FFFA
FFF9
FFF7
FFF7
0001
0006
0005
FFF7
FFF7
FFFF
0005
FFFC
FFFC
0009
0004
0007
FFFD
0001
0005
0000
0000
FFFF
FFFF
FFFA
0009
FFFD
000A
FFFB
0009
0006
FFFA
000B
FFF6
FFF7
0007
0000
0002
0002
FFFB
0004
0002
0001
FFF7
FFFE
0002
FFFE
000A
0004
0009
000B
FFFC
0001
FFFB
FFF7
FFFD
FFF7
FFFF
FFFD
0001
0000
FFF7
0002
FFFC
FFF7
0004
FFFC
0000
0002
FFF8
0005
0008
FFF8
FFFC
0006
0009
0002
0001
0007
FFF9
FFFF
0007
FFF7
FFFB
0005
0003
0003
FFFC
000A
FFF8
0002
FFFB
FFFC
0003
000A
0000
0005
0003
0003
FFF8
0000
FFF6
FFFF
FFFE
FFFA
0002
FFFC
FFFA
FFFF
FFF8
0000
FFFE
0009
FFFE
FFF8
FFF8
0009
0005
0002
FFFB
0007
000B
0003
FFFF
0004
000B
0006
FFFA
FFF8
FFFD
FFF9
0001
0000
0005
000A
0005
0008
0003
0001
0003
FFFD
FFFA
0008
0007
0008
0000
0001
0006
0000
0006
FFF8
FFF7
0005
FFFA
0001
0000
0006
0004
FFFD
0001
FFFC
FFFA
FFF8
0008
FFF6
FFF8
0009
FFFA
0001
0001
0005
0006
0004
FFF7
0001
FFFE
0003
0009
FFFB
FFFF
0003
0003
FFFE
0002
FFFA
FFFF
0001
0001
FFFF
0005
000A
0006
0007
FFF8
FFFD
FFFE
000A
FFF8
0005
FFF7
FFFD
0001
FFF9
0005
FFFE
0000
0003
000A
0004
0000
FFF7
FFF7
0001
FFF8
0004
FFFD
0009
FFF7
0002
0006
0005
FFFC
FFFE
FFFB
FFFE
FFFC
0004
0009
FFFE
0001
FFFA
0005
FFF8
0005
0005
0000
FFFD
0003
FFF7
FFFA
FFFF
FFFB
FFF6
FFFA
FFF7
0001
0006
FFF7
FFFF
0000
0008
0001
0009
0000
FFF7
0008
0006
FFFF
0005
0000
FFFA
0007
FFFC
FFF7
FFF7
FFFE
FFFB
FFFD
0001
FFFC
FFFB
0008
0007
0000
FFF9
0000
0004
FFFB
000C
FFFE
FFF8
FFFC
0007
0009
0004
0000
FFFE
0001
FFFC
FFFE
FFFC
0001
0002
0002
0001
000A
0005
FFF9
000A
FFFC
FFF8
0001
FFFF
0005
FFFB
FFFB
0003
0006
FFFD
0006
FFF6
0000
0004
FFFA
0009
FFFD
FFFD
0006
0009
FFF8
FFFE
0003
000B
FFFC
FFFA
FFF7
0003
FFF8
0000
FFFE
0008
0003
FFFF
0001
0006
0006
FFF7
0009
FFFF
0004
FFFE
FFFD
FFF7
0002
0005
0002
0001
0000
FFFD
FFFB
FFFC
0002
FFF7
FFF8
0005
FFF7
000A
0006
0001
0000
0008
0005
0009
0003
0008
FFF7
0005
FFFC
0007
FFFA
FFFA
FFFA
0004
0004
000B
FFFD
0000
0005
FFF6
0001
FFFD
0000
FFF7
0000
000A
0000
0004
FFFA
FFF7
FFFA
0007
0007
0009
0008
0004
FFFD
FFF8
FFF7
0000
0004
FFFA
0005
FFFA
0002
FFF9
0003
FFF8
FFFC
0006
FFF9
0007
FFF8
0003
0000
FFFE
0003
FFFF
0009
FFFA
0000
0007
FFF9
0002
0006
0007
FFF8
FFFE
0007
0008
FFFB
FFFC
0007
FFFA
FFFB
FFFC
0006
FFFB
FFFA
0006
FFF8
0004
0007
000A
0000
FFFE
FFFD
FFFF
000A
FFFF
FFFE
0003
FFFD
0006
000A
000A
000A
0008
FFFA
FFF6
FFF9
FFF7
0005
FFFF
0006
0001
0004
0005
FFFE
0001
FFFD
FFFD
0003
FFF6
FFFC
FFF8
0007
0000
FFF8
0004
FFF9
FFFC
FFFF
0009
0009
FFFE
000A
0004
FFF9
0002
0009
FFFB
FFF7
FFFE
FFFF
0006
0005
FFF8
0002
FFFD
0005
0000
000A
FFF7
0008
FFF9
0008
0002
0002
0001
FFFB
0005
0001
FFFA
000A
FFF7
FFFC
0004
FFF7
FFFF
000A
0008
FFFC
FFFB
FFFF
FFF8
0004
FFFB
FFFE
FFFF
FFF9
0005
0008
000A
FFFA
FFFE
0003
0000
FFF9
FFF8
FFFF
FFFA
FFF8
0001
0000
0000
FFF6
0007
FFFA
0003
FFFD
0009
FFFC
FFFC
0001
0000
FFFF
FFF8
000A
FFF7
0008
FFFF
0007
FFFB
0006
FFF7
0000
FFFE
0009
0000
FFFA
0005
0005
FFF9
FFF8
FFF7
0001
FFF6
FFF7
0005
0003
0006
FFFD
0003
0008
FFF8
0008
0005
0009
FFF6
0002
FFFE
0004
FFF9
FFFA
FFFB
FFF8
FFF6
FFFB
0005
FFFD
0000
0000
0001
FFF8
FFF7
FFFD
0006
FFF7
FFFB
FFF8
000A
0001
FFF8
0008
FFF9
0004
FFF7
0003
FFF8
0005
0007
0008
0004
FFFE
FFFE
0008
0004
0004
FFF7
0004
0004
0005
FFF8
FFFF
FFFC
FFFD
FFFE
0006
000A
0000
0003
FFF9
FFF9
FFF7
FFFD
000A
FFF7
FFF9
0004
FFF9
FFF8
0001
0007
FFFA
0002
0006
FFFD
FFFB
FFFD
0000
FFF7
FFF9
FFFC
FFFA
FFF8
FFFD
FFF8
0009
000A
0005
0004
FFF7
0005
0006
0003
FFFA
0007
FFFA
0005
0001
FFFC
0004
FFF7
FFFF
0008
0003
FFF8
0004
0005
FFFE
0005
0004
0000
0004
FFFC
0006
FFFF
0007
0003
0005
0001
0003
FFF8
FFFB
FFF5
0002
0001
0009
FFF9
FFF9
0006
0009
FFFF
0002
0000
FFF7
0004
FFFF
FFFC
FFFB
0007
FFFF
FFFD
FFF9
0005
0008
0004
0004
FFFF
0002
0006
0009
0006
0007
FFFB
FFF8
FFFF
0006
0000
0000
0003
0009
FFFB
0000
0002
0006
FFF8
0009
FFFA
0007
0002
0001
0001
0002
FFFF
0008
0009
0009
FFFE
0006
FFFF
0008
0008
0002
FFFA
000A
FFFB
0008
FFFA
FFF9
FFFE
FFF9
FFFA
FFFE
0001
FFFE
0004
FFFE
FFF7
0002
0006
0003
FFFE
FFFE
FFF7
FFFE
FFFC
FFFE
FFFD
0009
FFFA
FFFC
FFF9
FFFB
FFFD
0004
FFF8
FFF8
0007
0007
0003
0007
FFFD
0001
FFF8
0004
FFFB
FFF7
0002
FFF8
FFFC
FFFA
FFF7
FFFB
000A
FFFF
0004
FFF6
FFFD
FFFC
0004
FFFA
0009
FFFA
FFFC
0001
FFFD
FFF9
0003
FFF6
0001
FFF6
FFF6
0003
0008
FFFE
0007
FFF9
FFFB
FFFD
0000
FFF7
FFF9
FFFD
FFFA
0000
FFF8
0006
0008
FFFE
FFFF
FFFF
000A
FFFE
000A
FFFF
0008
FFF7
0009
0002
0002
FFF6
0006
FFFF
FFFE
0007
FFFF
0005
0003
FFF8
FFFA
FFFA
FFF9
0004
FFFF
000B
0006
0006
0007
FFF6
0007
0007
FFF9
0008
FFFA
0000
FFFF
0008
0005
0006
FFFE
FFF8
FFF6
FFFC
FFFF
FFFD
0004
0001
FFFE
0009
0006
0007
0005
0004
FFFA
FFFA
000A
0003
000A
FFFA
0007
FFFE
FFFC
FFFD
FFF8
0002
000B
FFFE
FFF7
0006
FFFD
0002
FFF9
0004
0007
0006
0004
FFFD
FFFF
0005
FFFF
FFFD
0004
0001
0005
0002
FFFF
000A
FFF7
0006
FFFE
0001
FFFD
FFFF
0007
0009
FFFF
FFFF
FFF9
0000
0007
0009
0000
0006
FFFB
FFF7
0008
FFFD
0002
FFFB
FFFD
0004
FFF9
0001
FFF9
FFF9
0007
0004
000C
FFF5
0002
FFFD
FFFD
0007
0009
0006
0004
FFFA
0005
0005
000A
FFFF
FFFD
000A
0000
FFFB
0004
0003
FFFC
FFFD
000A
0001
0006
FFFC
FFFF
0001
FFF8
0000
FFFE
FFF6
0004
0000
0001
0002
0004
FFFF
FFFB
FFF9
FFFC
FFFD
0002
0001
FFFD
0009
0007
0004
FFFF
FFFC
FFFC
FFFF
0009
0008
FFFE
FFF9
0009
0000
FFFA
FFF7
0006
FFF7
0007
0006
0007
FFFA
0003
0009
FFFA
0003
0008
FFF8
FFF9
0003
FFF7
FFFA
FFF9
0009
0004
FFFA
0009
0000
0009
0007
FFFB
0008
FFF6
0008
FFFF
0005
0002
FFFF
FFFD
0007
0008
0004
0009
0000
FFF8
FFFD
FFFF
FFFE
0005
FFFE
0007
FFFB
0006
0005
FFFF
0009
FFFB
FFFD
FFFA
FFF6
0008
0000
0007
FFFE
FFFE
0008
0003
0008
FFFA
FFF9
0002
0001
FFFB
FFF7
0002
0009
0007
FFF9
FFF6
FFF7
FFFF
FFFD
0008
0003
FFFA
FFFC
0006
FFFD
FFF9
FFFE
0008
0008
0005
0001
0004
0006
FFF8
FFFE
FFFA
0005
0006
0000
0003
FFF6
FFF9
0009
0009
0008
0000
0009
0002
FFFF
0007
0005
FFFF
0007
0009
FFF9
FFFC
FFF8
FFF5
FFF7
0007
FFFD
0000
FFFE
FFFA
0003
FFFE
FFFE
0002
0004
FFF9
FFFF
FFFB
FFF9
FFFC
0003
0001
0006
0000
0009
FFF7
0000
000A
FFFD
FFFF
0002
FFF8
0006
FFFC
FFFA
FFF8
0006
0007
FFFD
0006
FFFB
FFF9
0007
000A
FFF7
0003
FFFF
FFFA
FFFA
FFFC
0001
FFFB
0009
0009
0007
0005
FFFE
0000
0002
FFFE
FFFA
FFFB
000B
0008
FFFA
FFFF
FFFC
0003
0007
FFFE
0009
FFFF
0008
FFF7
0000
0002
0005
FFF6
FFFD
FFF6
0002
FFFE
000A
0008
FFF9
FFFC
0002
0002
0009
0002
0006
0000
FFFF
000A
0002
FFFC
FFF8
0001
FFF8
FFF8
FFF5
0007
FFF8
FFFD
FFF6
000B
FFFB
0002
0002
FFFA
FFF7
0007
0007
FFFA
FFFB
0008
FFFA
0000
FFF9
FFFA
0006
FFF7
0004
0003
0003
FFF6
0002
FFF9
0006
FFFF
FFFF
0002
0007
0003
FFFF
FFF7
FFF6
FFFE
0002
0002
0000
0001
0005
FFF8
FFF9
0002
FFFE
0006
0009
0009
0001
FFF8
FFFB
FFFB
FFFC
0001
FFF6
FFFB
0009
FFFE
FFFE
0004
0004
0001
FFFE
0002
0008
0008
FFF6
0003
0007
0002
0007
FFFA
FFFA
FFFB
FFFE
0009
000A
FFFF
0000
0009
0002
FFFB
FFFD
FFFC
0004
FFFB
FFFC
FFFF
0002
0000
FFFC
0001
FFFA
0003
0006
0004
0004
0003
0007
FFFC
0000
FFFC
0007
0008
0005
FFFB
0008
FFFD
FFFB
FFFC
FFFB
FFFC
0004
0007
FFFA
0003
FFF7
0003
0009
0007
FFFF
FFFE
0003
000A
FFFB
FFF7
FFFE
0009
0006
0008
FFFE
0000
0001
FFF8
0004
0003
FFFE
0003
0004
FFF8
FFFB
0003
FFF8
FFFE
FFF7
000A
FFFC
0008
FFF6
FFF9
FFFB
0002
FFF7
0006
FFF5
FFFF
FFF8
FFFB
0004
0008
0009
0000
FFFA
0004
FFF7
0000
0003
0009
0008
0002
FFFA
0007
FFF7
0004
0006
FFFF
FFFE
FFF9
0008
0005
FFFE
0002
000A
FFFD
0008
FFFC
FFFD
0008
FFFD
FFFF
FFFC
0006
FFF7
000A
0005
0003
0002
FFFE
FFFE
FFFC
FFFD
FFFF
FFFB
0005
FFF8
0008
0007
FFFC
FFF9
000A
FFFE
FFF6
FFF9
0003
0000
FFFD
FFFF
FFF9
FFFC
FFFB
0009
0001
0000
0006
FFFA
0007
0006
FFF7
000A
FFFD
FFFA
0000
0002
FFFB
FFFE
FFF6
FFF8
FFFF
FFFC
FFFB
0001
0008
FFFC
FFF6
FFFD
FFFC
FFFE
0001
FFFA
FFFF
0005
FFF8
0000
FFFC
FFFD
0005
FFFB
0004
FFFA
FFFC
FFFD
FFFD
FFF6
0007
FFFB
0005
0009
FFF9
FFF8
0002
FFFD
0001
FFF7
0001
0001
FFFB
FFFA
FFF6
FFFB
FFFB
0007
FFF6
FFF6
FFFB
0000
0004
FFFC
0008
FFFD
0008
0006
FFFA
FFF8
FFFE
000A
FFF7
0005
FFFE
0001
0001
FFF7
FFFB
0006
FFFC
0008
000B
0000
0000
FFFD
FFFF
0002
0003
FFF7
0005
0004
000A
0007
0004
0006
0002
FFF6
FFF8
0000
0002
FFFE
FFFF
0000
0005
FFF7
000A
0009
0009
FFFA
FFF8
0008
0002
FFF7
0001
0002
FFF9
0004
FFFA
0008
0008
0007
0008
0000
0008
0000
0003
FFF8
FFF9
FFF5
0008
0004
FFF7
0007
0001
FFF9
0009
FFF5
FFF8
0009
FFFB
0007
FFFD
0007
0003
FFFF
FFFE
0002
FFFB
FFFC
FFFF
0003
FFF9
FFFF
FFFC
FFFE
FFFF
0002
0008
FFFB
FFFF
FFFD
FFFB
FFFF
FFFE
FFFB
FFFF
FFF9
FFF9
000A
FFF9
0004
0006
FFFE
0007
FFF9
0007
FFFC
0006
0004
0006
FFFE
FFFE
0000
0004
0005
0000
0004
FFFF
FFF8
FFFD
0002
0003
0007
FFFB
0002
FFFA
FFFE
FFF8
FFFF
0001
0000
FFFE
FFFC
FFFF
FFFD
FFF9
0008
FFFC
FFFC
0007
0002
0005
FFFE
FFFF
FFFC
FFFC
FFFA
0009
FFFF
0001
0008
0004
0009
0007
FFF9
0006
0002
FFFE
FFFE
0008
0004
0009
FFF7
FFFA
0000
FFF6
0000
FFF7
0006
FFF7
0004
FFF7
FFFE
FFFA
0005
FFFA
000A
FFFA
FFF7
0000
FFFA
0001
FFFD
0001
0006
FFF7
0000
0008
000A
FFFF
0001
0008
0007
FFFC
0000
0004
FFF9
0003
FFFB
FFFF
0006
0009
0007
0005
FFF7
0005
FFFE
FFFD
FFF8
0004
0005
FFFB
FFF6
FFFF
0002
0008
0002
FFF8
0002
FFFA
000A
FFFB
FFF6
0005
0002
FFFE
0008
FFFB
0000
0002
FFFC
0005
FFF9
FFFC
FFFB
FFF9
0001
0000
FFF8
0005
FFFB
FFF6
FFF8
0005
0005
0004
0003
0006
FFF9
0009
0009
FFFF
0000
FFFF
FFFB
0006
FFFD
0001
0007
FFF9
0002
0002
FFFF
0006
0007
0007
FFFD
0002
FFFE
FFF8
0009
FFFE
0003
FFFE
0004
FFFD
FFFA
FFF7
FFFC
000A
0000
FFF7
0004
0000
0005
FFF7
FFF7
FFFF
0009
FFFD
0004
FFFA
0000
FFF7
FFF7
FFF7
0001
0002
0008
0001
0007
0003
0004
FFFA
FFFD
FFFC
0004
FFFF
0000
0008
000A
FFFC
FFF9
0004
0009
0000
0004
0001
0002
FFFB
0003
FFFD
0000
FFFC
FFFD
0002
0002
000A
FFF9
0003
FFFA
0009
0005
FFFF
0008
FFF6
FFF9
FFFD
FFF9
0008
0008
0006
0001
FFF6
FFFD
FFFA
000A
0002
FFFE
0008
FFFD
0009
FFF8
000A
FFFD
FFF9
FFFE
FFFC
FFF6
0001
FFFE
0005
0001
0005
FFF7
FFF9
FFF8
FFFE
0004
FFFF
0004
FFFF
0007
0001
FFFF
FFFF
0007
FFF8
0004
FFF8
FFFE
FFFF
0006
FFF7
0000
FFF7
0006
FFFD
0005
0000
FFF8
0000
0005
0001
0006
0001
0000
FFFF
FFF6
FFFD
0005
0001
0004
FFF8
0008
0004
FFF7
FFF8
FFF6
FFFD
FFFF
FFFE
0000
FFF9
FFFB
0003
0004
FFFA
FFFD
FFFC
FFFA
FFF9
FFF6
FFF9
FFFB
FFF9
FFFC
FFFE
FFFB
0005
0004
FFFD
FFF9
0005
0008
FFF9
000A
0002
000A
0003
0001
FFFC
FFF8
0007
0002
FFF8
0005
0009
0003
0001
FFF6
FFFD
0007
0000
FFFC
000A
FFFC
FFFF
0006
000A
FFFE
0006
0009
0006
0004
0002
FFF8
FFFB
0000
FFFB
0007
0004
0000
FFFF
0003
FFF9
000A
FFF8
0007
0003
0004
FFFE
0004
FFFB
0005
000B
0000
0002
FFFD
0002
FFF6
0001
0004
0009
0004
0002
0004
0005
FFFB
0004
000A
0002
FFF8
0001
0004
FFFD
FFF7
0001
FFFD
FFF8
0006
FFFC
FFF7
000A
FFFA
FFF8
0004
0003
0008
0002
FFF7
0001
FFF9
FFFF
000A
0002
0008
FFFC
FFF7
0008
FFFC
0008
FFFF
0005
FFF9
0004
FFF6
0002
FFFC
0008
000A
FFF9
FFFF
0006
FFFE
0005
0009
0003
FFFD
FFF7
0000
FFF9
0000
FFF6
FFFE
FFF6
FFFF
FFF6
0003
FFFE
FFFE
0006
0000
0006
0008
0003
FFFC
0001
FFF6
0005
FFFA
FFF6
FFFA
0002
0009
0002
0004
FFFA
FFF9
0000
FFF6
FFF7
0004
FFF8
0005
0006
0005
0007
FFFF
FFF9
FFFF
0007
FFFF
FFFD
0002
0007
FFF7
FFF9
0007
FFF6
FFF5
0009
FFF9
FFF6
0003
0009
FFFC
FFFA
FFFC
0003
0008
0008
FFF7
FFF9
0006
FFF7
FFFA
FFFB
0003
0009
0006
0000
0003
FFFF
FFFF
FFF9
0006
FFF6
0008
FFFA
0002
FFFD
0001
0000
0001
0005
FFFD
0001
FFFF
FFF9
FFFE
0002
FFFF
0004
FFF8
FFFE
0004
FFFC
0003
FFFE
0008
FFFB
0005
0007
0000
0005
FFF6
FFF7
0009
0000
0007
0008
FFF9
0000
FFFD
FFFE
FFFA
FFF9
FFF7
FFFE
0000
0004
FFFC
0008
FFFB
0009
0005
FFFB
000A
FFF9
000A
0004
0008
0001
FFF8
0006
FFF7
0008
0000
0008
FFFA
0006
0003
0008
0008
0009
0002
FFF9
0000
FFFE
0000
0007
0000
FFFD
FFFE
0000
FFF8
FFFE
0002
FFF6
0006
0002
0001
0005
0003
0002
0003
0007
FFF8
FFF8
0001
FFF7
FFFB
FFF7
FFFC
FFFA
FFFB
0007
FFFF
FFFE
FFF8
000A
FFFC
0002
0001
0008
0008
FFFF
0003
FFFA
FFF8
0003
FFF9
FFFE
FFFE
FFF6
FFF6
FFFD
FFF7
0005
FFFA
0007
FFFC
0003
0003
0006
FFFE
0006
0006
FFF6
FFFE
FFFD
FFF8
0005
0007
FFF7
FFFB
0003
FFF9
FFFB
0007
0002
FFFE
0009
FFFA
FFFE
FFFC
FFFB
0009
0005
0008
FFFA
FFFB
FFFB
FFFC
0006
FFFD
FFF6
0008
0004
000A
FFF6
FFFC
0008
FFFB
000A
FFFD
0000
FFFA
0006
FFF9
0006
FFF8
000A
FFFD
0003
FFFE
0005
0008
FFFC
0006
0008
FFFC
FFFC
0001
0009
0009
0005
FFFA
FFF9
FFF7
FFFA
0000
FFFD
FFFA
FFFE
FFFD
0009
000A
0001
FFF7
FFFD
FFF6
FFF7
0003
0001
0003
0000
0008
FFFC
FFF9
0003
0002
FFFD
FFF9
0009
FFFF
0006
FFFE
FFFE
FFF7
0000
0008
0008
0000
FFFB
0004
FFFA
0003
FFF6
0006
0007
FFF6
0002
FFFF
FFF9
FFFA
FFFC
000A
0009
FFF8
FFFE
FFFF
FFFA
0004
FFFA
0009
FFFA
FFFE
FFFB
0007
FFF6
0008
FFFE
FFFE
0004
000A
FFF9
0003
0004
FFF7
FFFF
FFF6
FFF6
0002
FFFA
FFFC
0005
0004
0000
0003
0003
0001
0003
0002
FFFF
FFF6
0007
0007
0000
0003
0008
FFF8
0006
FFFE
FFF7
FFFC
0003
FFF8
FFFC
FFFD
FFF7
0003
FFFD
0006
FFFD
FFF8
FFFF
FFF8
FFFB
FFFB
0007
FFFC
FFF7
FFFF
000A
FFF7
0007
0009
FFF8
FFFB
FFF9
FFF7
0008
0003
FFF8
0007
0007
0004
0007
0000
0001
FFF9
FFF8
0007
FFFE
0005
0004
FFFC
000A
0009
FFFF
0006
0001
FFF7
FFFE
FFF5
0004
FFFF
0007
0006
FFFF
0007
FFF7
0004
0005
0001
0008
FFF7
0007
FFF7
FFFD
000A
FFF7
FFFC
FFFB
000A
FFF6
0006
0006
FFF7
0007
0002
FFFB
FFF6
0006
FFFA
0001
0002
FFFB
0002
0000
FFFA
000A
0005
0005
0004
0007
0006
FFFD
0008
0006
FFFE
0000
FFFA
FFFF
0002
000A
0007
FFFB
FFF5
0003
0001
FFF7
FFFB
FFF9
0003
0008
FFFC
FFFD
0000
0000
FFF7
FFFB
0000
0000
FFFF
0001
FFFE
FFF7
0006
FFF7
0008
0007
0000
000A
000B
0009
0006
FFF9
0007
FFFE
0000
0004
FFF8
0002
FFFD
FFF9
FFFA
FFFB
FFFB
000A
0007
FFFC
0005
FFFF
0009
0008
0004
0007
0008
0004
0007
FFF8
FFFF
FFF6
0002
FFFE
0003
FFFE
FFFB
0001
0004
0008
FFFB
0005
0008
FFFA
FFFB
0003
FFF7
0001
FFFE
0004
FFF6
FFFF
FFF7
FFFC
FFF9
FFF8
FFFD
0004
FFFF
0004
0007
FFF7
0001
0008
FFF6
0004
0009
0009
FFF8
FFFD
FFFA
FFFF
FFF9
0000
FFF7
0005
FFFE
FFFC
0001
0003
FFFF
FFFC
FFFA
FFFF
0005
0000
FFFC
0005
0007
0004
0000
FFFF
0006
FFF8
FFFE
0001
FFFB
FFFD
FFFC
0009
FFF9
FFFA
FFFE
FFFF
0001
FFFC
FFFC
FFF8
0009
0001
0002
0004
FFF6
FFFE
FFF7
FFFB
FFF9
FFF8
0008
FFFE
0007
FFFF
FFFA
FFF8
FFFC
0008
0004
0009
FFFA
0004
FFFE
0004
000B
FFF7
0005
0005
FFF7
FFF7
FFFD
0000
0004
0000
0003
0004
FFFB
0004
0000
FFFD
FFFB
0004
FFFE
0000
0005
FFFD
0006
0009
FFFA
0001
0003
0000
FFFA
FFFD
FFFF
0005
0008
FFFC
0000
0006
0001
FFFE
FFF5
FFF7
FFF8
FFFE
FFFA
0003
FFF7
FFF8
0000
FFFE
0006
FFF7
FFF6
0009
FFF8
0009
0003
0006
0005
0005
0004
0003
FFFE
FFF6
0002
FFFD
0005
0009
FFF9
0003
FFF8
0006
FFF8
0003
0007
FFF9
FFFC
0005
0006
000A
FFFA
0001
FFFD
FFFC
0008
0004
0006
FFFF
FFFB
FFFD
FFFB
0001
FFFA
FFFD
0006
FFFB
000A
FFFF
0001
0000
0000
FFFE
000A
FFFB
FFFF
FFFC
0004
0003
0006
FFF8
0002
000A
FFF8
0004
FFFD
0007
FFF8
FFF9
0007
0006
0003
FFFA
0006
0009
FFF7
FFFD
0009
FFF9
0004
FFFA
000A
FFFE
FFF9
FFFC
0001
FFFF
0001
FFFF
0005
0009
000A
FFFD
FFF7
FFFC
FFFD
0004
FFF6
FFF7
FFFC
0009
000A
FFFA
FFF6
0007
0002
FFFF
0002
0002
0005
FFF7
0002
FFF6
0007
0002
FFF8
0003
FFFF
0007
FFFE
FFFE
0006
FFF7
FFF7
FFFF
FFF9
0004
0004
FFFB
0001
0005
0008
0002
0001
0006
FFF7
FFFB
0008
FFFD
0000
FFFC
0008
0008
0008
0000
FFF8
0007
0004
FFFD
FFF7
FFF6
0007
FFF7
FFFC
0005
0001
0006
FFF9
FFFF
0004
0005
0009
0009
0007
FFFC
0000
0005
0003
FFF8
0001
0005
0007
FFFC
FFF6
0006
0000
FFFF
FFFF
0004
FFFE
0007
FFFE
FFFC
0001
FFFA
FFFF
FFFE
FFF7
0008
FFFA
FFFA
FFFD
FFFD
FFFB
0001
000A
FFF8
0003
0007
FFFF
0009
0003
FFF9
0002
0006
FFFA
0006
0009
0009
FFF7
0007
FFF6
FFFA
0001
FFFC
0000
FFF8
FFFC
FFFB
0005
0007
0000
0001
0007
0006
FFFB
0009
FFFA
0007
FFFA
FFFB
0003
FFF7
0000
0002
0007
FFFA
FFFD
FFFC
000A
FFFF
FFFB
FFF9
FFFA
0008
FFFE
0006
0007
FFFF
0009
FFF8
0004
0000
0005
0003
0004
0007
0000
FFF7
0009
0003
0002
FFFD
0009
0004
000A
FFFA
FFFF
FFFA
FFFC
0000
FFF7
FFF8
FFF7
FFFF
0008
FFFB
FFFD
FFF9
0008
FFFC
FFFF
FFF6
0006
0007
0003
0002
FFFA
FFFA
0001
FFF7
0008
0006
0006
0007
0007
0000
0002
FFFB
0006
0009
0008
FFFB
FFFC
FFF8
0004
FFF9
0005
FFFB
0006
0007
0004
0002
FFF9
0004
FFF9
0004
0000
0007
FFF8
000A
0005
FFFD
FFFB
FFFB
FFFE
000A
FFFC
0005
FFFE
0003
000A
0001
0002
0004
000A
FFFA
FFFC
0008
0005
0000
0002
FFFF
0005
FFF9
0005
0007
FFF9
0009
FFFB
FFF9
FFFE
FFF8
FFFC
0000
FFFF
FFF9
0005
000B
FFF7
0004
FFF8
0003
0009
0004
000A
FFF8
0003
0009
0006
FFFF
0002
0009
FFFD
0006
FFFA
000B
FFFF
FFFC
FFFD
0007
FFFB
FFF7
FFF9
0008
0003
0008
0005
FFF7
0005
0003
FFFD
0004
0007
0001
0007
0006
0005
FFF9
0005
FFF9
FFFA
FFF7
0006
0001
0006
FFFB
0004
FFF7
FFFE
0004
FFFA
0004
0000
FFF6
0003
0002
FFFB
0006
FFFA
0007
0006
0007
FFFE
0007
FFFC
FFFD
0002
FFFF
FFFC
0009
FFFC
FFF7
0006
0009
0000
0004
0005
0006
0009
0009
FFFB
0001
FFFF
FFF6
FFF7
0000
0008
0005
0000
FFF9
FFFE
FFF8
0005
0006
0000
FFF6
FFFB
FFF9
FFF9
0007
0006
FFF9
FFF6
FFFB
0002
FFF8
0000
FFFB
FFFF
0001
FFFD
FFFC
0007
FFFD
0000
FFFC
FFFF
0005
FFFA
0004
0000
0003
0006
FFFF
0005
FFFE
0000
0001
FFFA
FFFE
0005
FFFF
0004
FFFF
FFFE
0007
FFF7
FFFC
0006
0002
FFFB
0003
0006
FFF6
0001
FFF8
0001
FFF8
0002
FFFB
0002
FFFE
0004
0007
0005
0007
FFFA
FFF7
0006
0001
0000
0005
FFF8
0003
FFFD
0001
FFFD
0004
0005
FFFE
FFFE
FFFF
FFFD
FFF8
0000
FFF8
FFF9
000A
0007
FFF6
FFFA
000A
FFF8
0003
FFFF
000A
FFFA
FFFA
0000
FFF9
FFFC
0002
FFF6
FFF7
FFFB
0003
0009
FFFA
0005
0007
0007
0007
0001
000B
0004
FFFB
0005
FFF8
0004
FFF8
FFF8
0009
0007
FFFB
FFFA
FFF7
0006
FFFA
FFFA
FFFB
FFFD
FFFB
0003
0009
0000
0003
0004
FFF8
FFFF
FFF6
FFF9
000A
FFFC
FFF7
0000
FFFF
0005
FFF5
0007
0002
0004
0001
FFFC
FFFD
0008
FFFB
FFF7
FFFD
FFF9
0002
0006
0009
0001
0000
FFFB
0004
0006
0000
FFFA
0007
0008
0009
0001
FFF7
000A
FFF7
0009
0003
0008
FFFA
0004
0005
0006
FFF8
0003
FFFA
0007
FFFC
FFFF
FFF5
FFF6
000A
FFFA
FFFF
0002
FFFA
FFFF
FFFE
FFF7
FFF5
FFFA
0002
0001
0008
0008
FFFD
0009
0005
FFF6
FFFB
FFF7
0009
FFFC
FFFA
FFF9
0005
FFFD
FFFD
0005
0007
000B
0006
FFF9
0001
0003
FFFF
0007
0006
0006
0009
0006
0004
0005
FFFB
0005
FFF7
0005
FFFE
FFF9
0008
0006
FFF7
FFFA
FFFC
FFF7
0007
0000
0000
0002
FFFC
FFF9
0005
0003
FFFC
FFFA
0002
FFFB
0009
FFF8
FFFE
0004
FFF7
0003
FFFC
0006
0001
FFFE
0006
FFF7
0003
0008
0008
FFFB
0006
0005
FFFF
0000
FFF6
FFFF
0006
0001
0001
FFFB
0004
FFFF
FFF8
0003
FFF7
0006
0001
0000
0007
0005
0009
0008
FFF7
FFF6
0002
FFFB
FFFE
FFF9
0000
FFF6
0004
FFFB
0005
FFFA
FFFC
FFF7
FFFF
FFF9
FFFA
FFF8
0008
FFFE
0005
FFFF
0005
FFF9
0001
0000
0003
0003
0004
0001
0007
FFFF
0000
0000
0009
0000
FFF8
FFFA
FFFC
FFFF
FFFF
FFF7
0002
FFFB
000A
FFFB
FFF9
0009
0007
0006
FFF9
FFF7
0006
FFF6
0005
0000
FFFF
0002
0001
FFFE
0001
FFF9
0005
0004
0003
FFFA
FFFA
FFFE
0005
0006
0008
0003
FFFF
FFFE
0001
0006
0004
0008
FFF8
FFF9
0006
0003
0002
FFF9
FFF6
FFF9
FFFE
0001
FFF6
0005
0000
0008
FFF8
0005
FFFE
FFFA
0004
0005
0002
FFFC
0006
0003
FFFB
000A
0000
0004
FFFD
000A
0009
0008
FFFF
FFFC
FFFD
0003
0007
FFFE
FFF7
0009
0000
0006
FFF5
0009
FFF8
FFFC
FFFD
0008
0001
0009
0009
FFFB
0002
0001
FFFC
0001
FFF8
0000
0000
0008
FFFA
0009
0004
0006
FFF8
0009
000A
000A
0006
0004
FFF9
0009
0007
0008
0007
FFFE
0002
FFFB
0000
0009
FFF8
0008
0005
0003
FFFF
0008
000A
FFF7
FFFB
0000
0001
0009
0006
FFF8
0004
FFFE
0006
0004
FFFD
0009
FFF7
0009
FFF9
0000
FFF9
FFFB
0000
FFFE
FFF7
0000
FFF8
FFFA
0008
FFFE
FFFC
0004
0004
FFF8
0009
FFFD
0006
0008
0000
FFF6
FFF7
FFFD
0008
FFF8
000A
0002
FFFD
FFFD
0009
0007
0001
FFF7
0006
FFFB
0001
FFF7
0003
0004
FFFD
FFFD
FFFC
0008
FFFA
0000
000A
FFFB
0001
0006
FFF8
0001
FFFF
0003
0003
0001
0000
0009
0005
0001
0000
FFFE
FFF8
FFFC
0005
0000
0006
0006
0005
0006
0004
0004
0006
FFFF
0006
FFFF
FFFB
0008
0009
0005
0003
0007
FFF7
FFF8
0003
0004
0003
FFFF
0007
0006
0003
FFFF
FFF6
0006
FFF8
FFFE
FFFA
FFFF
0001
FFFB
0006
FFF8
FFF7
FFFA
FFFC
0004
0001
FFF9
FFF9
FFFC
0005
FFFE
0007
0006
0001
FFFE
0005
0000
FFFB
0007
0000
FFF7
0005
FFF7
FFFC
0005
0004
FFF9
0005
0002
FFF9
0006
0004
0006
0005
FFFE
0007
FFFA
FFFD
0004
0005
FFFF
0003
0006
0001
0004
FFFB
FFFD
0003
FFF8
000A
FFF7
FFFD
FFFD
FFFC
FFFC
0006
FFFB
FFFD
0001
FFF8
FFF9
FFFC
FFFA
0001
0005
0003
FFFC
0009
FFFF
0004
0004
FFFF
FFFD
FFFF
FFF9
FFFC
0003
FFFF
0007
FFFB
0008
0005
0003
0007
0008
0004
FFF9
FFF6
0002
FFFA
FFFD
0003
FFF9
0003
FFFA
FFFB
0005
FFFF
0009
0000
FFFC
0006
FFFF
0007
FFFC
000A
FFF7
FFFD
0003
FFF9
0007
0000
FFF9
0001
FFFA
FFF9
FFF6
FFF7
FFF8
FFF7
FFF6
FFF8
0000
0009
FFFE
0009
FFF7
0009
