FFFE
FFFF
0003
0002
0003
FFFE
0001
0000
FFF9
FFFB
0004
FFFA
FFFE
0003
FFF9
0003
0006
0001
0000
0000
FFFF
0004
0000
0001
0000
0004
FFF9
0007
FFFC
FFFA
0006
0001
FFFB
0000
FFFD
FFFF
0006
FFF9
0002
FFFB
FFF9
FFFF
FFF9
0005
FFFB
0000
FFF9
FFFA
0006
0000
FFFB
0000
0006
FFFA
0002
0003
0000
0001
0007
FFFC
0002
FFF8
0005
FFFC
FFFA
FFFC
FFFC
FFFC
FFF9
FFFA
FFFF
FFFB
0002
FFFE
0000
0007
0004
0002
FFFC
0004
0006
0002
FFFE
FFFF
FFF8
0001
0000
0006
0001
0005
0003
FFFE
FFF9
FFFC
FFFC
0004
0005
0001
FFFC
0001
0000
0002
0001
0004
FFFC
0005
0001
FFFC
0001
FFF9
FFF8
0005
FFFB
0006
0002
0007
FFFD
0001
0002
FFFA
FFFB
0000
0000
0002
FFFF
0005
FFFE
FFF9
FFFF
0006
FFFF
FFFF
0001
0001
FFF9
FFFC
FFFF
FFFE
FFFD
0005
FFFD
0002
0004
FFFB
0003
FFFE
FFF9
FFFD
0002
FFF9
0003
FFFF
FFFF
FFFD
0003
0007
0006
0000
0001
0006
FFFB
FFFE
FFFB
FFFF
0003
FFFF
FFFE
FFFD
0003
FFFF
FFFB
FFFB
FFF9
FFFB
0000
0005
FFFB
FFFA
FFFA
FFF8
0005
0005
0000
FFF9
0001
0006
FFFA
FFFE
0002
0005
0004
0001
0006
0003
FFFF
0006
FFFB
0003
FFFF
FFFB
FFF9
FFFF
FFFB
FFFD
FFFF
0003
FFFD
FFFA
0004
0002
FFFB
0005
0002
FFFD
0001
0003
0002
FFFA
0002
0001
0002
FFFF
0005
0004
0005
FFFE
0002
0005
FFFA
0006
FFFC
0007
FFFA
0004
FFFA
FFFA
FFFE
0003
FFFF
FFFF
0004
0003
FFFD
FFFE
0000
0001
0001
FFFE
0003
0004
0002
FFFB
0003
FFFA
FFFA
FFFE
0006
FFFB
FFFC
FFFE
FFFE
FFFA
0003
0003
FFFD
0003
FFFE
FFF8
0005
0001
0001
0004
FFFA
0000
0003
FFFF
FFFC
0006
FFFB
FFFA
0000
0000
FFFA
FFFE
0000
0002
0002
FFFB
FFFB
0005
0005
FFFF
0003
FFFE
0001
0004
0001
0001
FFF9
0000
0003
FFFA
0002
FFFD
0001
0000
0002
FFFC
0007
FFFB
FFFF
0004
0005
FFFB
0000
FFFB
FFFE
FFFA
FFFE
0007
FFFB
FFFD
FFFC
0006
FFFA
FFF9
0001
FFFD
0005
0000
0001
FFFF
FFFE
FFFC
0005
0001
0001
FFFE
0003
FFFD
FFFA
FFFE
0002
0002
FFFD
0003
0003
0004
FFF9
0004
0001
0007
FFFF
FFF9
FFFC
0006
0002
0002
0006
FFFB
0006
FFFD
0003
FFFB
FFFC
FFFB
0004
0001
0007
0004
FFFE
0006
FFFD
0006
0005
0006
0006
FFFE
0004
FFFB
FFF8
FFFB
0003
0003
FFFF
0005
FFFA
FFFE
FFFF
0004
FFFC
FFFA
0003
0002
FFFB
FFFA
0002
FFFE
FFFD
FFFF
FFFE
0001
0002
FFFB
FFFB
0003
FFF9
0000
0000
FFF9
0000
0005
0003
0002
0000
0003
0000
0001
FFFC
0003
FFF8
FFFF
0007
0000
FFFD
FFFF
0002
FFF9
0002
0006
0004
0004
0000
0003
0004
FFFB
0001
0007
0003
FFFE
0007
FFFC
0000
0006
FFFD
0001
FFFF
0007
FFFD
0002
0001
0002
0002
0001
0001
FFFD
FFFB
FFFC
FFF7
FFFC
0005
FFFB
0001
FFF9
0006
FFFD
FFFA
0003
FFFD
FFFE
FFF9
0006
0005
FFFF
0002
0003
FFF9
FFFF
FFFC
FFFD
0001
0004
0000
FFFD
0004
0000
FFFB
FFFE
0007
0003
FFFC
FFFF
0000
0000
0003
FFF9
FFFF
FFF8
0000
FFFB
0004
0000
FFF9
FFFA
FFFF
FFF9
0005
FFFD
FFFC
0003
FFFD
0001
FFFC
0002
0005
0003
FFFC
FFFA
0005
0000
FFFE
0000
0003
FFFB
0003
0007
0003
0002
0001
FFFE
0007
0002
FFFB
FFFB
0006
0001
0007
FFF8
0000
0007
0002
FFFE
0005
FFFF
0002
0001
0005
0003
0002
FFFE
0001
FFFF
0003
FFFF
FFF9
FFF8
FFFD
0004
0004
FFFB
FFF9
0001
FFFC
0001
0002
0002
FFFA
0005
0000
0004
0006
FFFC
0005
FFFC
0003
FFFB
FFFC
FFFF
0002
FFFD
0006
FFFF
0003
0001
0001
FFFF
0002
FFFF
FFFB
FFFC
0001
FFFC
FFFC
0002
0004
0005
FFFF
0006
FFFD
FFFB
FFFE
0005
FFFB
0006
0003
FFFE
FFFB
0003
0005
FFFD
FFFE
0001
FFF9
FFFD
FFFA
0004
FFFF
0004
0000
FFFB
FFFB
0001
0000
FFFC
0002
0001
0002
FFFF
0004
0000
0000
0005
0003
FFFE
0001
0005
0005
FFFC
FFFE
FFFB
0004
0001
0001
0001
0000
0000
0006
0006
FFFA
FFFA
0002
0006
0005
0006
FFFD
FFFB
0005
0002
FFFE
FFFC
FFFB
FFFE
0000
FFFF
0007
0006
0003
FFFF
FFFF
FFFE
FFFA
FFFD
0003
0003
0001
0004
FFF9
0003
0007
FFFB
FFFD
0001
FFFA
0002
FFFB
FFFA
FFFC
0005
FFFA
0000
FFFA
0004
FFFF
0003
0006
FFFA
FFFD
FFFD
FFFA
FFFD
0003
FFFB
FFFE
FFFB
0005
FFFA
FFFE
0001
FFFD
0002
FFF9
FFFC
0006
FFFC
FFFD
FFFE
FFFB
FFFC
0005
FFFA
0004
FFFA
FFFD
FFFA
0004
FFFC
FFFE
0000
FFFD
FFFE
0004
0000
FFFE
FFFB
0002
0002
FFFB
FFFF
0004
0000
FFFC
FFFE
0005
0003
0003
0002
0006
0005
FFFF
0006
0000
FFFA
FFFE
FFFD
0004
FFFA
FFF9
FFFF
0000
0001
FFFB
0004
0007
0002
0006
0004
0005
0004
FFFC
FFFC
0004
0006
0005
FFFA
0005
0000
0004
FFFC
0003
FFFF
FFFC
0001
0000
0000
0001
FFF9
0003
0000
0002
FFFF
0004
FFFA
0004
0000
0005
0000
FFFF
0004
0000
FFFD
0003
FFFB
FFFF
0000
0003
0004
FFFA
FFFF
FFF9
0000
0000
0006
0003
0001
FFFF
FFFB
FFFF
0006
0001
0001
FFF9
0002
0001
FFFE
0003
0003
FFFD
0004
FFFF
0003
0006
0002
FFFA
FFFE
0001
0002
0003
0004
0002
FFFA
0004
FFFE
FFFA
0000
0003
0007
FFFD
0000
0004
0004
FFFF
0005
FFFD
0005
FFFF
FFFE
0003
0002
0003
0001
FFFE
FFFD
0002
FFFB
0004
0001
FFFB
FFFE
0007
FFFD
FFFA
FFFB
FFFD
FFFE
FFFA
0000
FFFC
FFFC
FFFC
0004
FFFA
FFFB
FFFA
0000
FFFF
0001
FFFD
0002
FFFA
0002
0003
FFF9
FFFF
0004
0001
FFFF
0004
0002
FFFB
0002
0003
0004
0001
0001
FFFC
0000
0006
0001
0002
0005
FFFE
0002
0002
FFFE
FFF9
0003
0003
0002
FFFB
FFFE
0005
FFFD
FFFC
0001
0005
0000
FFFD
0000
FFFC
0006
0004
FFFE
0001
FFFC
FFFE
0001
0006
0005
FFFA
FFFA
FFFD
0000
FFFE
0005
0001
FFFC
FFFE
FFFD
0000
FFFC
0003
0002
FFFB
0002
FFFF
0001
0003
0000
FFFC
0002
0002
0003
FFFC
FFF8
FFFF
0004
FFFC
0001
FFFD
0005
0000
0004
0003
FFFB
FFFE
FFFE
FFFA
FFFE
FFFE
0000
0003
FFFC
FFFD
FFFF
0003
0006
0000
0003
FFFA
0007
0000
FFF9
0001
FFFE
0006
0004
0000
0004
0002
FFFB
0002
0005
0005
0003
0005
0001
0000
FFFA
0004
FFFE
FFFD
0000
FFFD
0006
0002
0000
0001
FFFF
0001
0000
0003
0007
0001
FFFC
0001
0005
0001
0000
FFFB
0003
0001
FFFB
FFFA
FFFB
FFFA
FFFA
0004
FFFA
0006
0002
FFFF
0003
FFFC
0006
0000
0000
FFFC
0003
0001
FFFE
FFFD
0001
0000
0007
FFFF
0002
FFFC
0001
FFFA
0005
FFFF
FFFD
0003
0006
0006
FFFC
0002
0000
FFFF
FFFF
0003
FFFB
FFFB
FFFF
FFFE
FFFC
0002
0000
FFFF
0002
0001
FFFF
0006
0003
0000
0001
FFFB
FFFC
0002
FFFC
0003
FFFD
FFFB
0004
FFFD
0005
FFFB
0001
0000
FFFC
FFFA
FFFB
0007
FFFA
FFFB
0007
FFFB
FFFC
FFFE
FFFB
FFFB
FFFE
FFF9
FFFB
FFFE
FFFB
FFFA
0000
FFFE
FFFE
0000
0003
0003
FFFE
FFFC
FFFC
FFFD
FFFA
FFFB
FFFC
FFFF
FFFF
0004
FFFC
0002
FFFD
FFFF
FFFF
0006
FFFE
FFFE
0006
0004
FFFC
FFFE
0005
0001
FFFA
FFFA
FFFC
0002
0000
0006
FFFF
0000
0005
FFFB
FFFC
0005
0007
0005
FFFE
FFFD
0004
FFF9
0004
FFFB
FFFB
FFFF
FFFC
0004
FFFD
0007
0007
FFFC
FFFA
0003
0003
FFFC
FFFD
0003
0000
0006
0005
0007
FFFF
0002
FFF9
FFF9
0004
FFFD
FFFE
0004
0000
FFFE
0003
0006
FFFA
0000
0004
0007
FFFB
FFFB
0001
0004
0000
0000
FFFE
FFFC
0001
0006
FFFB
FFF9
0006
0001
FFFB
FFF8
0001
FFFA
FFF9
FFFC
0003
0003
0002
FFFA
0000
FFFD
FFFA
0000
0002
FFFC
FFFC
0004
0002
FFFB
FFF9
FFFB
FFFC
FFFD
0000
FFFC
0000
FFF9
FFFC
0004
0001
0004
0004
0000
0007
0008
FFFC
FFFA
FFFF
0005
0005
0000
0001
FFFE
FFFC
0002
FFF9
0000
0004
0005
0004
0006
FFFD
FFFC
0000
0001
0005
0006
0000
FFFC
0001
0002
0003
FFFB
FFFD
0003
0002
FFFC
FFFC
FFF8
0002
0003
0004
0000
FFFF
0000
0004
FFFB
FFFB
FFFA
0004
0001
FFFA
0000
FFFA
0003
0002
0004
FFFC
0003
FFFA
0006
FFFB
0002
0005
FFFF
FFFB
0006
0005
FFF9
0003
0002
0002
FFFC
FFFB
0004
FFFA
FFFC
0006
0006
FFFA
0001
0005
0002
FFFE
0000
FFFD
FFFF
FFFB
0001
FFFF
FFFF
0005
FFFA
FFF8
0003
0004
0005
FFF9
0002
0003
0003
0005
0001
0000
0003
FFFE
FFFF
0003
0006
FFF9
FFFB
0001
FFFC
FFFE
FFF9
0002
0006
0003
FFFA
FFF9
FFFD
FFFA
0003
FFFF
FFFC
FFFD
0005
0000
FFFB
0007
0003
0001
FFF9
0002
0003
0005
0001
FFF9
0002
0000
0006
0004
FFFA
0000
FFFD
FFFD
0001
FFFC
0004
0002
FFFA
FFFF
0006
0000
0002
0004
0004
FFFB
0001
0005
FFFE
0003
FFF8
FFFE
FFFB
0004
FFFD
FFFF
0001
0006
0006
FFFD
FFFD
FFFA
FFFD
FFFB
0002
FFFC
0007
0006
FFFC
FFFA
FFFC
0005
0002
FFFB
FFFF
0004
0002
FFFD
0000
FFFB
0001
0000
0002
FFFD
0006
FFFD
0000
0003
FFFD
FFFE
0001
FFFF
FFFD
FFFF
0003
0006
FFFE
0006
FFFD
0005
FFFE
0004
0002
0000
0006
FFFB
FFFB
0001
FFFC
0005
0002
FFFB
FFFB
FFF9
0006
FFFF
0004
FFFA
0004
0003
FFFD
FFFC
FFF8
FFF9
FFFE
FFFD
0000
FFFE
0000
FFFA
FFFF
FFFB
FFFD
0003
FFF9
0004
FFFD
0005
0002
0005
0005
0006
0003
0003
FFFF
0000
FFFA
0005
0005
0003
0001
FFF9
FFFD
FFF9
FFFB
FFFB
FFFC
0001
FFFB
0007
0001
0004
0003
FFFA
FFF9
0006
FFFE
0005
FFF9
FFFF
FFFA
FFFD
0007
FFFF
FFFD
FFFA
FFFE
FFFE
FFFE
0003
FFF9
FFFC
FFFD
FFF9
0005
0003
FFFF
0000
0006
FFFE
FFFA
0002
0002
FFF8
FFFA
FFFB
0006
FFFE
0005
FFFB
0001
FFFF
FFFD
FFFE
FFFB
FFF9
FFFE
0002
0001
0007
FFFF
FFF9
0007
FFF9
FFFA
FFFB
FFFC
FFFE
FFFC
FFF9
0004
0002
FFFB
FFFE
FFFD
0001
0005
FFFB
0004
0004
0005
FFF9
FFFA
0006
0002
FFFC
FFFB
FFFA
FFFE
0005
0008
FFFD
FFFA
FFFD
0001
FFFF
FFFF
0005
FFFD
0006
0006
FFFD
FFFD
FFFF
0006
FFFC
0005
FFFE
0005
FFFD
0005
0000
0000
0004
FFF9
FFFF
0005
FFFE
0000
FFFE
0001
0003
FFFC
0007
FFFC
FFF8
FFFB
FFFA
0004
0005
FFFF
0006
FFFC
0002
FFFB
0002
0004
0005
0003
FFF9
0003
FFFE
0005
FFFB
FFFB
FFFB
0003
0001
0004
0002
FFFA
0002
FFF9
FFFD
0002
FFF9
0000
0003
FFFC
0001
0005
0000
0002
FFFA
FFF9
0003
FFFA
0005
FFFD
FFFF
FFFC
0007
FFFD
FFFA
0002
0001
0004
FFF9
0000
FFFC
FFFB
FFFC
FFFD
FFFF
FFFD
0003
FFFB
0000
0003
0007
0002
0000
0006
FFFF
0007
FFFB
0000
0000
0002
0006
FFFE
0006
FFFB
FFFE
0001
0005
FFFA
FFFB
FFF9
0001
FFFA
FFFC
FFFB
0006
FFFF
0005
0005
FFFD
FFFE
0006
FFFE
0004
FFFE
0003
FFFD
0001
0002
FFFA
FFFA
0004
FFFC
0001
0001
0000
FFFD
0007
FFFD
0005
FFFC
0003
0000
FFFD
0003
0007
0003
FFFD
FFF9
FFF9
FFF9
FFFC
0002
FFFF
0008
0004
0000
0005
FFF9
0006
0006
0006
FFFA
0000
0002
FFFC
FFF9
0003
0006
0000
0005
FFFB
FFFB
0000
0001
FFFE
0004
FFFD
0001
FFFC
0004
0001
0003
0002
0004
FFFD
FFFB
FFFD
0007
FFFC
FFFF
FFFB
FFFC
0007
0002
FFFB
FFFB
0001
0002
0001
FFF9
FFFB
FFF9
0007
0006
0002
0006
0001
FFFC
FFFA
0004
FFF9
FFFF
FFF9
FFFC
0004
FFFA
FFFA
FFF9
0001
FFFB
FFFE
0007
FFFF
FFF9
0000
FFFA
0007
0004
0007
0005
0003
0002
0006
0002
0000
0005
0003
FFFB
FFFA
FFFE
FFFF
0001
FFFF
FFFE
0004
FFF9
FFFC
FFFD
0003
FFFA
FFF9
FFFA
0001
0005
FFFF
FFFF
FFFF
FFFE
FFFB
0000
0004
0001
FFFB
FFFF
0000
FFFB
FFFD
0003
FFFF
FFF9
FFFD
0003
FFF9
FFFD
0001
FFFA
FFFD
0003
FFF9
0004
FFF9
0003
0006
FFFB
FFF9
0005
FFFC
0005
0001
0002
0006
FFFD
FFFA
0003
0005
FFF9
FFFD
0007
0000
FFFD
FFFC
FFFD
FFFD
0000
FFFB
FFFC
0005
FFFD
FFFC
0005
FFFA
0005
0005
0000
FFFA
FFF9
FFFA
0000
0006
FFF9
0000
0001
FFFF
0004
0003
FFFF
FFFB
0001
FFFF
0003
FFFC
FFFE
FFFE
0005
0007
FFFE
FFFB
FFFF
0000
FFF9
0004
0002
0001
FFFB
0006
FFFC
FFF9
0006
0000
0000
FFFD
FFFD
0001
FFFE
FFFD
FFFA
FFFD
FFFA
0005
0000
0003
FFFF
0006
FFFE
0000
0000
FFFF
0006
0005
0005
FFFA
0005
0003
FFFB
0007
FFFC
FFFB
FFFA
0003
0007
0001
0006
0001
0004
FFFD
FFFF
0006
0004
0007
0002
FFFB
FFFF
FFF9
0000
FFFA
0007
0000
0002
FFFD
FFFE
0003
FFFC
FFFB
0005
FFFF
0007
FFFD
FFFA
FFFE
0001
FFFE
0002
FFFF
FFFD
FFFC
0004
0000
FFF9
0006
FFFF
FFFA
0001
FFFC
0002
0007
0000
FFFE
0004
FFFC
FFFB
0002
FFFC
FFFD
0005
0007
0003
FFFB
0003
FFFA
0007
FFFA
FFFB
0001
0004
FFFD
0003
0001
0006
FFFF
0000
0005
0000
FFFD
FFFA
0001
FFFC
0005
FFFA
0003
FFFE
FFFF
0007
0004
FFFB
0003
0006
FFFA
0003
0003
0001
0004
0001
0004
FFFD
0005
0007
FFFB
0005
0006
FFFA
0001
0001
0000
FFFE
0004
FFFD
FFFF
FFFE
FFFC
0002
0004
0006
0000
0006
0007
0006
0007
0005
FFFA
0002
FFFC
FFFE
0002
FFFF
FFFE
0000
FFFE
0007
0006
FFF9
0002
0002
FFFE
FFFC
FFFD
FFFA
0007
FFFC
FFFC
0005
FFFE
0004
FFFB
FFFD
FFFF
0002
0005
0003
0002
0000
FFF8
0000
0001
FFFE
FFFD
FFFB
FFFE
FFFF
0003
FFFF
FFFA
0005
FFFC
0001
0004
FFF8
0002
0000
0004
FFFA
FFFF
FFFE
0006
0006
FFFB
0005
0000
FFF9
0000
FFFB
0003
FFFB
0002
0007
0004
FFF9
0002
0002
0006
FFFA
0000
0004
0000
FFFF
FFFB
FFFE
FFFE
0002
FFFE
FFFF
0000
0005
0003
0007
FFF9
0001
0004
0005
0008
0002
FFF9
0002
FFFE
0003
0000
0003
FFFA
FFFA
FFFF
FFFC
0003
FFF9
0002
FFFB
0006
0005
0000
0005
0002
FFFA
0005
0006
0007
FFF9
0005
FFFD
0002
FFFB
0002
0000
0003
FFFD
FFFF
FFFC
FFF9
0006
0002
0003
FFFE
0001
FFF9
0001
FFFD
0004
0003
FFFA
0007
FFFB
0000
0002
0008
FFFF
0004
FFFC
FFFB
0006
FFFD
FFFC
FFFA
0002
FFFA
FFFA
0002
0006
FFFE
FFFB
0001
0001
0006
0005
0005
FFFF
FFFC
FFFB
0004
0001
FFFE
0003
0003
FFFB
FFFC
FFFE
0002
FFFC
0001
0000
FFFC
0005
0002
0004
FFFF
0006
FFFE
0001
FFFF
0001
0004
FFFE
0002
0006
FFFE
0006
0001
FFFE
0006
0003
0007
0000
0006
0003
FFFD
FFFE
0002
0000
0001
0002
FFFE
0002
FFFA
0002
FFFF
FFFC
0004
0003
0003
FFFD
FFFF
FFFB
FFFA
FFFE
0001
0004
FFFF
0004
FFF9
0006
FFFE
FFFD
FFFC
0002
0000
FFFC
0003
FFFB
FFFD
FFFF
FFFC
FFF8
FFFC
FFFD
0003
0001
FFFC
FFFF
FFFD
0004
0004
FFFC
FFFA
FFFF
FFFF
0001
FFFB
FFFE
FFFE
FFFA
FFFB
FFFD
FFFB
0003
0004
0003
0005
0002
FFF9
0005
FFFC
FFFC
FFFD
FFF9
0003
0002
FFFB
FFFD
0002
0001
FFFE
0000
FFFD
0001
FFFC
FFFB
FFFF
FFFF
FFFE
FFFA
FFFC
0007
0001
0000
FFFB
FFFA
FFF6
0001
0004
FFFA
000A
FFFF
0003
0002
0003
FFF9
0008
FFFF
FFFC
0002
FFFE
FFFF
0007
FFFB
FFFB
FFFE
0002
FFFA
0006
FFFE
FFFB
FFFE
0004
FFFD
0005
0001
0002
FFFE
0009
0006
0007
0008
0007
FFFD
FFF5
FFFB
FFFD
FFFF
FFFD
FFFF
FFFF
0003
0000
FFFD
0001
0002
FFFD
0001
FFFF
FFFD
0005
FFFD
0006
0007
0006
FFFC
0004
FFFD
FFFF
0004
0008
FFFF
0008
FFFD
0001
0000
0005
FFFD
FFFF
FFFD
0003
0000
0001
0005
0003
FFFE
0008
0000
0003
0004
0003
0005
FFFF
0005
FFFF
0003
FFFD
0007
FFFA
FFFC
FFFD
0002
0002
0002
0001
FFFB
FFFC
FFFF
FFF9
0001
0003
0000
0001
FFFE
0008
0002
FFFD
0005
0001
FFFC
0005
0000
FFFC
0008
0002
FFFD
0002
FFFE
FFFE
FFFD
FFFC
0003
FFF8
FFFF
0006
FFFC
FFFE
0003
0004
FFFF
0002
FFFF
0000
0001
0004
FFFD
FFFB
0001
0001
0000
FFFE
0003
FFFE
FFFE
0006
0002
FFFC
FFFD
FFFC
0000
0007
FFFE
0002
FFFF
FFFE
FFFB
FFFD
0004
0000
FFF9
FFFC
0003
0007
FFFF
0003
0000
0002
0001
0001
0002
0008
0001
FFFB
FFFE
0000
0006
FFFE
FFFE
FFFC
FFFC
FFFD
0006
FFFF
FFFE
FFFA
0004
0000
FFFD
0008
0003
0005
0001
FFFD
FFFB
0002
FFFC
FFF7
0004
0000
FFFE
FFFC
FFFC
FFFB
0004
0001
0001
0002
0007
0004
FFFE
FFFC
FFFB
0001
0008
0006
FFFA
0004
0000
0002
FFFB
FFFD
FFFE
FFFA
0000
FFFB
FFFB
FFFE
0002
FFFE
0003
0008
0001
0007
0006
FFFE
0003
FFF8
FFFF
0000
FFF8
0002
FFFE
0003
FFFD
FFFE
FFFB
0000
0000
FFFC
0005
0001
FFFE
0001
0005
0003
0003
0003
FFFB
FFFA
FFFD
0000
0001
0008
FFF9
0002
0004
FFFA
0003
0000
0001
0000
FFFE
FFFA
0001
FFFD
FFFF
0004
FFFB
0004
0004
FFFB
0006
0001
0003
FFF7
0006
0000
FFFC
0001
FFFE
FFF8
FFFF
FFFD
FFFB
0003
0001
FFFD
0004
0005
FFFC
0002
FFFE
0005
FFFE
0003
0000
0003
0005
FFFD
FFFB
FFFF
0001
FFFD
0002
FFFE
FFF9
0000
0004
0006
FFFF
FFFC
0003
0000
0005
FFFB
FFFC
FFFD
FFFF
0003
FFFE
0000
0000
FFFF
0006
0002
FFFC
0001
FFFD
FFFB
FFFF
FFFE
0003
0002
0002
FFF9
0004
0004
0001
FFFB
0006
FFFF
0001
0001
FFFB
0002
0000
FFFF
FFFF
FFFE
0002
0004
FFFA
FFFF
0004
0002
0005
FFFE
0007
0005
0000
FFFA
FFFF
0001
FFFA
FFF9
0006
FFFD
0007
0006
0001
FFFD
0004
0005
FFFF
0004
FFFD
0004
FFFB
FFFE
0000
FFFD
0000
0007
0006
FFFE
FFFE
0006
0007
FFFD
0004
FFF8
0000
FFFE
0002
FFFD
FFFD
0002
FFFC
0003
0001
FFFE
FFF9
FFFC
0000
FFF9
0004
0001
0000
0004
0007
FFFD
0005
FFFF
FFFB
FFFB
0003
0007
0004
FFFE
FFFE
FFF8
FFFB
0000
FFFF
0004
0000
FFFE
0001
FFFF
0001
0000
0000
0002
FFF9
0002
FFFD
FFF3
FFFE
0000
FFF7
0005
FFFB
FFFD
0002
FFFE
FFFE
0007
FFFF
0000
0006
0002
0006
FFFF
0005
0003
0008
0004
0003
FFFD
FFFD
0005
0009
FFFD
FFF9
0001
0003
FFFD
FFFE
0001
FFFD
FFFE
0003
FFFB
0000
FFFB
0003
FFFD
FFFD
FFFF
0001
FFFF
0002
0002
0003
FFFD
0003
0003
0001
0001
FFFB
0001
0007
0001
0006
0005
0001
0001
0002
0003
0001
FFFD
0002
FFFD
FFFD
0006
FFFE
FFFB
0004
FFFC
FFFD
0000
0003
0005
FFFC
0001
FFFD
0003
0003
FFFB
0000
0001
0002
0001
0005
FFFB
0000
0003
FFFC
0004
FFFC
0005
FFFF
FFF9
0003
FFFD
FFFE
0000
FFFD
0002
FFFC
0000
0004
0005
0002
0003
FFF9
0000
0000
0000
0004
FFFA
0003
FFFD
FFFE
FFFE
FFFA
FFFA
FFFD
0004
FFFE
0001
0001
0000
0002
0001
FFF7
0003
0003
0002
FFFD
0005
FFFB
0004
0002
FFFB
0002
0000
FFFB
FFFC
0002
0005
FFFC
0001
0001
0005
0001
0001
0001
0005
FFFC
FFFF
0001
0005
FFFE
FFFF
0005
FFFB
0004
0000
FFFF
0000
FFFB
FFFC
0001
FFFC
0006
FFFD
FFFF
FFFF
FFFD
FFFE
0005
0006
FFFC
0000
0005
FFFB
FFFE
FFFD
0000
0005
FFFE
FFFE
0003
0004
FFFE
0001
0003
FFFE
0006
0001
0001
FFFD
0003
0003
FFFD
0006
FFFE
0002
0005
FFFF
FFFC
FFFA
FFFD
FFFA
FFFC
FFFC
FFFC
FFFA
FFFD
FFFB
0005
FFFB
FFFF
FFFF
0004
0003
0000
0003
FFFE
FFFF
0007
0000
0005
0003
FFFD
FFFD
0003
0001
0003
FFFD
0003
0000
0001
0002
FFFE
FFFF
0004
FFFD
0001
FFFD
FFFB
FFFE
FFF9
0005
FFFF
0002
0004
FFFD
0006
0005
FFFE
0002
FFFF
FFFE
0006
FFFD
0002
0002
FFFF
0000
FFFB
FFFE
FFFD
FFFF
0001
0000
0001
0000
0001
0004
FFFE
0002
0005
0001
FFFF
FFFC
FFFB
FFFF
FFFC
0002
0003
FFFB
0001
0005
0002
0000
FFFE
FFFE
0003
0005
0003
0000
0004
0000
FFFD
0003
0001
FFFE
FFFE
0003
0006
FFFF
0004
0000
FFFB
0002
0005
0007
FFFC
0006
0008
0000
FFFA
0001
0003
FFFB
0001
FFFC
0003
0001
0003
0004
0004
FFFF
FFFE
FFFE
FFFA
0004
0003
0003
0003
FFFE
0000
FFFD
FFFD
FFFE
FFFF
FFFF
0001
FFF9
0000
0004
0001
0003
0005
0003
0000
0004
0002
FFFB
0000
0000
FFFE
FFFB
FFFE
FFFC
FFFF
FFFE
0007
0001
0000
FFFE
FFFF
0001
0000
0000
0004
FFFC
FFFB
FFFD
FFFD
FFFC
FFFD
0002
0002
FFFE
FFFE
FFFD
0000
0003
FFFA
0005
0001
0004
0000
FFFB
FFFA
0005
FFFC
0000
0004
FFFA
0002
FFFF
0000
FFFC
FFFD
0004
FFFE
FFFF
FFFC
0000
0004
0008
0001
0000
0003
FFFD
FFFF
FFFC
0001
FFFE
FFF7
0000
0002
FFF8
0001
0001
0002
0001
0006
0002
0004
FFFE
FFFD
FFFB
0001
FFFE
FFFD
0000
0000
FFFE
0001
0000
0001
0009
0003
0005
0001
0006
0003
0004
0000
0002
FFFA
FFF9
FFFC
FFF8
FFF3
0004
0005
0004
0000
FFFC
FFFF
FFFE
FFFD
FFFE
0004
FFFB
0003
0009
FFFE
0006
FFFD
FFFB
FFFD
FFFE
0005
FFFD
0002
0001
0005
FFFC
FFF7
FFFE
0000
0002
0006
0003
0000
FFFD
FFFF
0000
0001
0004
FFFC
FFFF
0001
FFFB
0000
FFF7
0003
FFFC
0004
FFFB
0005
FFFC
FFFF
FFFD
0001
0002
FFFD
FFFC
0004
0003
0002
0002
0005
0001
FFFD
0002
0000
FFFF
FFFC
FFFF
FFFB
FFF8
FFFB
FFFB
FFFD
FFFC
0007
0000
0002
0002
FFFE
0006
FFFE
FFFF
0006
FFFE
FFFA
FFFC
FFFF
0001
0006
0003
FFFA
0002
FFFF
0004
0000
0001
0000
0002
FFFC
FFFD
FFFC
FFFF
FFFE
FFFD
FFFF
0003
0001
0001
FFFC
FFFB
0001
0004
FFFF
FFFF
0005
0001
0006
0001
0000
FFFB
0004
0006
0000
FFFF
0003
FFFB
FFFB
0004
FFFF
0002
0004
FFFD
FFFC
FFFF
FFFF
0002
0003
0002
FFFF
0003
0007
0000
FFFB
0003
FFFC
0006
FFFC
0004
0000
0000
0005
FFFB
0001
FFFE
0003
0001
0002
0006
0007
0001
0004
FFFF
0001
0001
FFFB
FFFD
0004
0006
0002
0002
FFFA
0004
0002
FFF9
0007
FFFB
FFFD
0005
FFF9
0006
FFFE
FFFF
0006
0004
FFFA
FFFF
FFFC
FFFE
FFFF
0003
FFF9
FFFC
FFFA
0001
FFF9
0005
FFF8
0003
FFFD
FFFA
FFFC
FFFF
0007
0006
FFFC
0001
0004
0007
FFFA
FFFA
FFFC
FFFD
0000
0000
0001
FFFD
0003
FFFD
FFFA
0001
FFFD
FFFE
0001
0002
FFFE
0006
FFF9
0006
0001
FFF9
0006
0003
0006
0005
0006
0005
FFFE
FFFC
0007
FFFB
FFFE
0004
0006
FFFD
FFFC
FFF8
0002
FFFF
0005
FFFD
FFFC
0000
0004
FFF7
0001
FFFC
FFFD
0003
0000
0001
FFFF
FFFC
FFFF
FFFF
0005
FFFD
0004
0007
FFF9
0004
FFFC
0000
0003
0006
FFFD
FFFC
0002
0005
FFF9
0000
FFFD
0001
0005
FFF9
FFFE
FFFC
FFF9
0006
0007
0002
0000
FFFD
0003
0006
FFFD
0005
0004
0004
FFFD
FFFC
0005
FFFC
0001
FFFD
0006
0003
0008
0005
0000
0001
0003
0008
FFFD
0001
FFFB
0003
0002
FFFE
FFF9
FFFF
0000
FFFC
0001
FFFC
0004
FFFC
0004
FFFA
0001
FFFB
FFFF
0007
0001
0000
0000
FFFE
FFFF
FFFC
FFFE
0008
FFFA
0006
FFFF
0006
0004
FFFB
0001
FFFD
0005
0004
0007
0002
0003
0007
FFFB
FFFB
FFFA
0006
0004
0004
0001
FFFA
0002
FFFF
0003
0003
0005
FFF9
FFFF
FFFA
0002
FFFD
FFFB
0005
0002
FFFE
0000
0003
0002
0002
FFF9
0007
0003
0000
0004
FFFE
FFF9
FFFA
0004
FFFF
FFF9
FFFF
FFFE
0004
FFF9
0005
0000
0002
0004
FFFE
FFFD
FFFC
0000
0007
FFFF
0002
0002
FFFB
0005
FFFB
0002
FFFE
FFFE
0006
FFFE
0005
0004
0001
0002
FFFF
0008
FFFF
FFF9
FFFA
FFF9
0004
FFFC
0004
0004
FFFD
FFFD
FFFF
FFFD
0000
0006
FFF9
0004
0003
0006
FFF8
FFFA
FFFA
FFFB
FFFD
FFFC
0003
FFF9
FFFD
FFF9
0003
FFF9
FFFE
0001
FFFB
0006
FFFA
0001
FFFE
FFF9
FFFD
FFFA
0006
FFF9
0005
FFFE
0005
0007
FFFF
FFFB
FFFB
0004
FFFB
0003
FFFB
0002
FFFF
0003
FFFB
0006
0002
0000
FFFA
0003
FFFD
FFFF
0006
0000
FFFE
0001
FFFC
FFFD
0006
FFFE
FFFB
0001
0005
FFFB
FFFC
0006
0001
FFFE
FFFE
0004
FFFE
FFFD
0007
FFFD
FFFC
0003
FFFC
FFFA
0003
0003
FFFB
0003
FFF8
0000
0002
0000
0004
0002
0001
0004
FFFD
0006
FFFD
FFFA
FFFC
0003
FFF8
0000
0001
0004
0004
0001
FFFF
FFFF
0001
0006
0003
0005
FFFD
FFFB
0002
FFFC
0002
0007
FFFF
FFFF
FFFA
0000
0001
0003
FFFC
0001
0001
0004
FFFE
FFFE
FFFE
FFFB
0005
FFFC
FFFC
0001
0001
0003
0000
0003
FFF9
FFFD
0005
0007
0004
FFFB
FFF9
FFFC
0001
FFFC
FFF8
0002
0004
FFFC
0007
0001
FFFE
0000
FFFD
FFFC
0004
FFFF
0006
0004
0001
FFFE
0002
FFFE
0003
0002
FFFF
FFFA
FFFA
FFFF
0002
0005
0005
FFFA
FFFA
FFFB
0003
FFFC
FFFD
0003
0006
FFF8
0002
FFFA
FFF9
FFFA
FFFA
0008
0003
FFFF
FFFC
FFFE
FFFD
0006
0001
0005
0000
FFF9
FFFF
0001
0006
FFFA
0006
0002
0003
FFFC
0000
0001
FFF9
0003
FFFD
0002
FFF9
0005
FFF9
FFFE
0000
FFF9
FFFE
FFFF
FFFC
FFFA
0001
FFFB
0001
0000
0003
0007
FFFC
FFFE
0003
0000
0001
FFF9
FFF9
0001
FFF7
FFFB
FFFE
FFFB
0003
0001
0007
0004
0004
0003
0002
FFF9
0006
FFFA
FFF8
0007
FFFA
0001
FFFC
0003
0001
FFFE
FFFB
0001
0004
0004
0001
0004
FFF8
0003
FFFD
0002
FFFD
0007
0005
0002
FFF9
0003
0006
0002
0007
0005
0004
0005
0004
FFFC
FFFE
FFFF
FFFA
FFFA
0007
0005
0005
FFFF
0000
0004
FFFE
FFFF
0006
FFFE
FFFF
FFFE
FFFC
0004
0000
0004
FFFD
FFFA
0003
0006
FFFD
0004
FFFC
FFFB
FFFC
FFFC
0003
0000
0002
0002
FFFC
FFFB
0005
0000
FFFD
FFFB
FFFB
FFFD
0001
0000
FFFD
FFFA
0004
0000
FFFD
FFFF
FFFA
0003
0001
FFFB
0001
0003
0001
FFFA
0004
FFFD
0001
0000
FFFE
0000
0005
0000
FFFA
0003
FFFE
0006
FFF9
0007
0005
0003
FFFF
0000
0004
0000
FFFB
FFFF
FFFA
0004
0005
0002
FFFB
0003
FFFB
0004
FFFB
0003
0003
0005
FFFF
FFFA
FFFF
0004
FFFC
FFFB
0005
FFFF
0003
0005
FFFF
FFFB
0002
0005
0002
0005
FFFC
0004
FFFD
0005
FFFF
FFFE
0005
FFFA
0003
0002
FFFB
FFFD
FFF9
FFFC
0006
0006
0001
FFFA
FFFA
0004
0006
FFFF
0003
0004
0000
FFFA
0004
0003
FFF9
0001
0002
0000
0000
FFFB
0005
0004
0002
FFFB
FFF9
FFFC
FFFE
0005
FFFC
0005
FFFC
FFFE
0004
0001
0001
FFF9
0000
0005
0003
0004
FFFF
0002
0007
0001
0005
FFFA
0001
FFFD
0000
0006
FFFB
FFFB
0002
0001
0001
FFF8
0004
FFFD
FFFA
0000
0003
0005
FFFA
0004
0006
0001
0005
FFFD
0000
FFFF
0000
FFFC
0004
FFFC
0006
FFFC
0007
FFFE
0005
FFFB
FFFB
FFFC
0003
FFFB
0006
0002
FFFE
0005
0005
0001
FFFF
FFFB
0001
0002
FFFD
FFFE
0000
FFFF
0006
0006
0004
0004
FFFB
FFFF
0006
FFFF
0008
FFFB
FFFE
FFFD
0002
0003
0002
FFFC
0002
FFFC
0002
FFFE
0001
0005
FFFA
0006
FFFC
0004
0006
0002
FFFD
0003
0005
FFFD
FFFE
0006
0001
FFF9
FFFB
0004
0002
FFFB
0006
FFFB
FFFB
FFFB
FFFB
0007
0000
FFFC
FFF9
0004
0003
FFFD
0005
FFFD
0002
FFFE
0001
0008
0003
0005
FFFB
0001
0000
0006
FFFA
0006
0000
0001
FFFB
0005
FFF9
FFFD
FFFE
0004
0003
FFFC
FFFB
0006
FFF9
FFFC
FFFE
0001
FFFA
FFFB
FFFE
FFFF
0001
FFFD
0003
0003
0001
0002
FFFB
FFFE
FFFC
0006
0001
0007
FFFE
FFFE
0002
0002
0004
FFFC
FFFA
FFFA
FFFE
0003
0006
FFFE
FFFC
FFFE
FFF9
FFFC
0005
0005
0003
FFFD
0006
0000
0007
FFFC
FFFD
0003
FFFB
FFFA
FFFB
0004
0004
FFFE
FFF9
0000
0002
FFFC
FFFF
FFFF
0000
0004
FFFC
FFFB
0002
0006
0003
FFFF
0004
0000
0003
0002
0003
0000
0000
FFFF
FFFB
0004
0001
0006
FFFA
0006
0003
0002
FFFF
0002
FFFA
FFFF
0000
0004
0006
0004
0002
FFFB
0003
0005
FFFA
0001
FFFD
FFFA
0001
FFFE
0005
FFF9
FFFA
0003
FFFA
0003
0000
0003
0003
0006
FFFD
0004
0000
FFFC
0004
FFFE
FFFA
FFFB
0000
0003
FFFD
FFFD
0006
0001
0004
FFFA
0005
0006
FFFB
0000
0000
0005
0004
FFFB
FFFC
FFFF
FFFF
FFF8
FFFD
0000
0001
FFFF
FFFA
0002
0006
FFFC
0006
0004
0003
FFFB
0003
0006
0002
0000
FFFE
0000
0004
0004
FFF9
FFF9
0004
FFFD
FFFF
FFFF
0006
0004
FFFE
0007
0001
0000
0005
FFFF
FFF9
FFFA
0005
0000
FFFE
0000
FFFC
FFF9
0005
0001
FFFA
0001
0007
FFFB
0000
FFFD
0000
0000
0003
FFFC
FFFF
FFFA
0007
FFFC
0005
0001
0003
FFFD
FFFE
0006
FFFB
FFFF
FFF9
FFFF
0005
FFFF
0001
FFFE
0005
0002
0002
0000
0007
FFFC
0004
FFFF
FFFD
0007
FFFF
FFFD
0005
0003
FFFC
0001
FFFB
FFFD
0000
FFFA
0000
0005
0002
FFFD
FFFA
FFFC
0001
0005
0005
FFFF
0006
FFFA
FFFF
FFF9
FFFA
0004
FFFA
0008
0000
0004
FFFC
0001
0002
FFFC
FFFB
FFFF
0006
0007
0000
FFFD
FFFE
FFF9
0005
FFFD
FFFB
FFFB
FFFC
FFFC
FFFB
0000
0003
FFFA
FFFF
FFFC
FFFB
0000
0004
FFFA
0000
0000
0000
FFFD
0005
FFFD
FFFE
0007
0006
0003
FFFB
0001
FFFA
FFFF
FFFB
FFF8
0006
FFFD
0007
0007
FFFC
0007
FFFE
0007
0005
FFFC
FFF9
0003
0004
0003
0007
0001
0003
FFFB
FFFD
FFF9
FFFA
0002
FFFC
0003
0007
FFFC
0001
FFFE
FFFA
0006
FFFC
0005
0006
0007
FFFD
FFFE
0000
0000
FFFE
0007
FFFA
FFFA
0000
FFFE
FFF9
FFFC
0003
FFFF
FFFE
FFFB
FFFC
0005
FFFC
FFF8
FFFC
FFF9
0006
FFFF
FFFF
0003
FFFA
0003
0004
FFFD
0003
FFFD
0000
0004
0004
FFFF
FFFD
0004
FFFE
0004
0000
0002
FFFD
FFFE
FFFB
FFF9
0006
FFFC
FFF9
0007
FFFD
0005
0002
FFFA
0003
0003
FFFB
0004
0003
0005
0007
FFFD
FFFD
FFFF
0001
FFFD
0000
0007
FFFD
0003
FFFC
FFFB
0001
FFFF
0007
0002
FFFB
0002
0005
0005
0006
0003
FFF8
FFFF
FFFF
FFF9
0006
0002
0004
FFFE
FFFB
0000
FFF8
FFFE
0006
0006
FFFE
0000
0004
FFFF
FFFE
FFF9
FFFE
0002
0006
0003
FFFA
FFFC
FFFB
FFFD
0006
FFFE
0006
FFFD
0003
0002
0002
0005
FFFA
FFFF
0002
FFFE
FFFA
FFFA
0004
0005
0003
0001
FFFD
FFFF
0006
FFFC
0001
0004
0001
FFFB
FFFA
FFFD
0003
0006
0000
FFFC
0002
FFFD
FFFB
FFF9
FFF8
FFFC
FFFD
FFFB
0007
0007
FFFA
0003
0004
FFFC
0005
0004
FFFA
0007
FFFC
0000
0006
FFFA
FFF9
0001
0000
0002
0000
FFFB
FFF9
FFFD
0006
0001
0006
0000
FFFB
FFFE
FFFF
0001
0004
0001
FFFA
FFFC
0006
0007
0006
FFFE
FFFE
0004
0000
0004
FFFC
FFFF
0003
0002
0007
FFFC
0002
FFFC
FFF9
FFFA
FFFE
FFFF
0004
0006
0005
0001
FFFF
FFFD
FFF9
0005
0006
FFFB
0005
0000
FFFA
FFFF
FFF9
0004
FFFB
0000
FFFA
FFFD
FFFF
FFFF
FFFD
FFFB
FFFF
FFFB
FFFE
FFFF
FFFF
FFF9
0003
0003
0005
0006
FFFF
0000
0000
FFFA
FFFC
0001
0000
0001
0001
FFFD
0002
FFFD
FFFE
0001
0000
0003
0004
0005
0002
FFFF
0004
0002
FFFA
0006
0002
FFFD
0003
FFFC
0006
0002
0005
FFFE
FFFB
0005
FFFD
0004
0005
0002
0006
FFFC
FFFF
FFFF
0002
0001
0003
FFF9
0007
0003
0005
FFFD
0002
0001
FFFD
FFFE
0006
0007
0002
0008
FFFA
0007
FFFF
0004
FFFC
FFF9
0000
0001
0004
0002
FFF9
0003
FFFC
FFFA
0003
FFFF
FFFA
0000
0004
0002
FFFA
0006
0003
0002
0004
0001
FFFA
0003
0003
0004
FFFF
FFFC
0002
0007
FFFA
FFFF
FFFB
FFFB
FFFD
FFFD
0005
0001
FFF9
0004
0002
0002
0004
0005
0002
FFFD
FFFD
0006
0002
0002
0000
FFFC
FFFC
0004
0000
FFFA
FFFC
0005
0005
0007
FFFD
0004
0003
0003
FFFD
FFFE
0006
0002
FFFD
0007
0004
FFF8
0003
0004
FFFB
FFFF
FFFC
FFFE
0005
FFF9
FFFA
0004
0006
0001
FFFE
0000
0005
FFFE
0006
0006
0007
FFFB
0007
0000
FFFF
0004
FFFA
0005
0005
0002
0001
FFFB
0002
0002
0005
FFFF
FFFE
0004
FFF9
FFFC
FFFB
0006
FFFF
0003
0002
FFF9
FFFC
FFFD
FFFB
0000
FFF9
FFFD
FFF9
0006
FFFA
FFF9
FFFD
FFF9
0002
FFF9
0003
FFF8
0007
FFFF
FFFF
0001
FFFD
0006
0000
0001
0003
0006
0002
FFFD
FFFB
FFFD
0007
0006
FFFD
0002
0006
0000
FFF8
FFFB
FFF9
0005
0002
FFFD
FFFE
FFFD
FFF9
FFFC
FFFB
0005
0000
FFFC
FFFE
0004
FFFE
0003
0003
FFFD
0001
FFFB
0007
0005
0004
0002
FFFB
FFFD
FFFE
FFFE
0002
0000
FFFA
FFFC
0001
0000
FFFD
FFF8
FFFA
0006
0004
0001
FFFF
FFFC
FFFF
FFF9
0003
FFFF
FFFC
FFFE
0005
FFFB
FFFE
0003
0003
0003
FFFB
FFFF
0000
FFFC
0000
FFFC
FFFD
FFFE
FFFE
0000
FFFF
0005
FFFC
0000
FFFF
FFFF
0000
0006
0005
FFFE
FFFE
0004
FFFE
FFFC
FFFD
0004
FFFD
FFFA
FFFF
0005
FFFA
0007
0005
0002
0006
FFFD
FFF9
0007
0005
FFFB
0003
FFFC
0004
0006
FFF9
FFFB
0004
0000
FFFB
FFFF
0005
0002
FFF9
0000
FFFF
FFFD
0003
0001
FFFD
0002
FFFB
0000
FFFA
FFFB
0001
FFFD
FFFC
0003
0005
FFFD
FFFE
0000
0005
FFFE
FFFC
FFFF
FFFF
0002
0004
0000
FFFA
FFFE
0003
0002
FFFB
0007
FFFD
FFFF
FFFF
FFF9
FFFB
FFFA
0001
FFFD
FFFE
FFFD
FFFB
FFFB
FFF9
0003
0006
FFF9
0002
0001
0000
0005
FFFF
FFFD
FFFF
0006
0002
FFFC
FFF8
FFFE
FFFC
0006
0002
0000
FFFC
FFFE
0000
FFFB
0004
FFFF
0004
0002
FFFF
FFFC
FFFF
0006
FFFD
FFF9
0005
FFF8
FFFD
0000
FFFA
FFFA
FFF9
FFFF
FFF9
FFFF
0004
0002
0004
0006
0001
0004
0005
0005
FFF9
FFFA
0002
0005
FFFC
FFFA
FFFE
FFF9
FFF9
0002
FFFF
FFFF
FFFF
0001
0003
FFFF
FFFB
0007
FFFD
FFFC
0003
0004
0005
FFFF
FFFD
FFFE
FFFC
FFFB
0001
FFFB
FFFE
0000
FFFD
0003
0002
0002
0006
FFFB
FFFC
FFFA
0001
FFFC
FFFE
0006
FFFB
0000
0004
FFF9
0000
0004
0001
FFFA
FFFF
FFFD
0001
FFFB
FFFE
0006
0007
0003
FFFB
0001
0003
0005
FFFB
0003
FFFF
FFFF
FFFD
FFFD
FFFB
0001
0002
0001
FFFB
0004
FFF9
FFFE
0001
FFFD
0004
0002
0006
FFF9
FFFD
FFFD
0004
0000
FFFD
FFFF
FFFC
0006
0000
0005
FFFF
FFFD
0005
0005
FFFF
FFFF
FFFF
0006
FFFD
FFFF
0006
0003
0000
FFF9
0000
FFFD
0004
FFFD
FFFF
FFFB
0001
0005
FFF8
0004
0003
FFFA
FFFD
FFFC
0003
FFFC
0007
FFF9
FFFE
0002
FFFF
FFF8
FFFF
0000
FFFD
FFF9
0007
0001
0002
FFFE
0004
0002
0004
FFFC
0000
0004
0001
0005
0003
0007
0003
0002
FFFF
0006
FFF9
0000
0004
0007
0005
0001
0002
0000
FFFC
FFFC
0004
FFFB
0006
0006
FFFB
FFFD
FFFB
FFFF
FFFF
FFFA
0001
0007
0001
0004
FFFB
0007
0001
FFFE
0003
FFFB
FFFE
FFFF
FFFF
0002
0005
0005
FFFF
0005
0002
FFFB
FFFB
0005
0003
0002
FFFF
0007
FFFB
FFF9
FFFF
0001
0004
0001
0001
0001
0005
FFF9
0005
FFFE
0002
0003
0005
0000
FFFF
FFFB
0001
0005
0000
FFFC
FFF9
0007
0002
0006
FFFF
0002
0003
0002
FFFD
FFFE
FFFB
FFFF
0006
0002
0004
0003
FFFB
0006
FFFA
0006
FFFC
FFFD
FFFC
FFFC
FFFB
0000
FFFF
0003
FFFD
0004
FFFA
FFFE
FFFC
0002
0006
FFFF
FFFF
0003
FFFE
0000
0005
0000
0006
FFFD
0005
FFFB
0001
0006
0004
0004
FFFE
0000
0004
0000
0007
FFF9
FFFB
0002
0003
0004
0006
FFFE
FFFE
0002
0004
FFFD
0004
FFFA
0005
FFFF
FFF9
0005
0003
0000
FFFB
FFFE
FFFE
FFFB
0004
FFFD
0001
0004
0001
FFFD
0000
FFF9
0005
FFF9
0003
0000
FFFD
FFFE
0005
0005
FFFC
FFFE
FFFC
FFFD
FFFF
FFF9
0003
0006
0004
FFFC
0004
FFFA
FFFB
0001
FFFB
FFFB
0008
0004
0002
FFFA
FFFF
FFFD
0002
0006
FFFF
0003
0006
0000
FFF8
FFFF
FFFE
0002
0002
FFFA
FFFF
FFFB
0002
0003
0004
FFFE
FFFE
FFFA
0003
FFFA
FFFB
FFFF
0004
FFFE
0005
FFFF
FFF9
FFFA
0003
0002
0000
0005
FFFB
0001
0001
0001
FFFF
0002
0004
FFFD
0002
0001
FFFF
0001
FFF9
0002
0006
0007
FFFF
0005
0002
FFFF
FFFB
0004
FFFE
FFFB
FFFE
0001
0005
0005
FFF9
0003
0003
FFFC
FFF9
FFF9
0006
FFFF
FFFC
FFFB
0002
0006
0004
0002
0001
0000
0007
FFF9
0006
FFFC
FFFB
FFFE
FFFA
0003
0003
FFFD
0001
0003
FFFD
FFFD
0005
0007
FFFD
0004
FFFD
0000
0007
0006
0003
FFFD
0001
FFFF
0004
FFFB
0000
0003
0000
0007
FFF9
FFFB
FFFB
FFFA
FFFF
FFFC
FFFB
0003
0006
0000
FFFA
0002
0001
0006
0002
0002
FFFE
FFFC
0005
FFFB
FFFB
0003
FFFD
0003
FFFB
0007
0003
0006
FFFF
FFFB
FFFF
FFFB
0005
FFFC
0001
FFFB
0002
FFFD
FFFA
0002
FFFD
FFFC
FFFD
0003
0003
0004
FFFE
0004
0004
0005
0002
FFFF
FFFF
FFF9
0000
0000
FFFB
FFFE
0002
0002
0000
0004
FFFD
FFFB
FFFA
0001
0000
0004
0006
FFFF
FFFA
0006
FFFA
0006
FFFB
0002
0002
FFFB
0005
0000
0004
0000
FFFB
FFFC
0000
FFFC
0007
FFFD
FFF9
FFFF
FFFB
FFFE
0004
FFFE
FFFC
0002
FFFE
FFFB
FFFD
FFFD
0003
FFFD
0004
0004
0004
0000
FFFF
FFFC
0002
0003
FFFE
FFFC
FFFB
0002
0003
0003
FFFC
FFFC
FFFD
FFFF
0005
0003
FFFE
0002
FFFC
0005
0003
0005
FFFE
FFFE
FFF9
FFFD
FFFC
FFFA
0004
0003
0001
FFFC
FFFB
FFFE
0004
0007
0001
FFFB
FFFE
FFFD
0000
0002
FFFD
0004
FFFC
0001
FFFE
0004
FFFD
0004
0002
0005
FFFF
FFFB
0004
FFFF
0004
0006
FFFC
FFFF
FFFE
0003
FFF9
FFFE
0002
FFFC
0001
FFFB
FFFB
FFFC
0001
FFFE
FFFD
0006
FFFA
0006
0001
0003
0004
FFFA
0001
0000
FFFC
FFFC
0004
FFF9
0004
FFFE
FFF9
FFFF
FFFC
0003
FFFB
FFFD
FFFB
FFFB
FFF9
0001
FFFD
FFFC
FFFA
0005
FFFB
FFFB
0007
FFFE
0007
0001
FFFA
0005
FFFD
FFFC
0006
FFFA
0004
FFFB
FFFD
0001
0006
FFFD
FFFF
0007
0005
0000
FFF9
0007
0003
FFF9
FFFB
FFFE
FFFD
0001
0002
FFFD
FFF9
0006
FFFE
FFFF
0007
FFFE
0001
FFFC
FFFD
FFFC
FFFD
FFFA
FFFC
FFF9
0001
0004
FFFB
0001
0001
FFFE
0001
FFF9
FFFB
0002
0004
0004
0007
FFFD
FFFB
0006
0002
FFFE
0004
FFFF
0006
FFFC
0002
0003
0006
FFFE
FFF8
FFFB
FFFD
FFFC
0006
FFFC
0004
FFFD
0004
FFFC
0001
0003
0002
FFFE
0005
0005
0005
0003
0005
0000
0001
0000
FFFF
0001
FFF9
0005
FFFD
FFFF
0004
FFFC
FFFF
FFFD
FFFD
FFFC
0005
FFFD
FFFB
0000
0006
FFFC
0003
0003
FFFC
FFFD
0003
FFFC
0006
0004
FFFE
FFFB
0001
0003
FFF9
FFFA
FFF8
FFFC
FFFE
0001
FFFD
FFFB
FFFF
0001
0005
FFFD
0004
FFFE
FFFA
FFFC
0001
0002
FFFF
0003
0002
FFFF
FFFE
FFFD
FFFD
0001
FFFF
0000
FFFE
FFFA
FFF9
0004
FFFA
0007
0001
0006
FFFD
0006
0000
FFFD
FFF9
FFFC
0004
0000
FFFA
0004
0006
0003
0007
0002
FFFA
0001
FFFC
FFFD
0006
FFFD
FFFB
FFFE
0005
FFFF
FFF9
FFFB
FFFD
0005
FFFE
FFFC
FFFE
FFFC
0000
FFFF
0003
0000
FFFC
FFFA
0001
0003
FFFF
0006
FFFA
0006
0007
0007
0003
FFF9
FFFD
FFFA
FFFA
0007
0004
FFFD
0003
FFFA
0003
0004
0006
FFFB
FFFC
FFFE
FFFC
FFFD
0003
0002
0005
0003
0003
FFFB
0000
FFFF
0006
0003
FFFD
FFFC
FFFE
FFFC
0003
0005
0005
0007
FFFB
0003
FFFA
FFFA
0000
FFF9
FFFE
FFFA
0005
0003
0000
FFFB
FFFF
0006
FFFA
0006
FFFF
FFFD
FFFE
0000
FFFF
FFFE
FFFB
FFFA
FFFB
FFFE
FFFB
0003
FFFA
0003
0001
FFFF
0006
FFFF
0002
0006
FFFA
FFFC
FFFA
0000
0003
0006
FFFD
FFFE
0000
0001
FFFB
0001
0003
FFFF
FFFC
0002
FFFF
0003
0006
0006
0003
0001
FFFC
FFFE
FFFB
FFFB
FFFE
FFFF
0002
FFFD
0000
FFFE
0005
FFFA
0000
FFFE
FFF9
FFFC
FFF9
0001
FFFD
0006
0001
0002
FFF9
0004
0002
FFF8
FFFD
0006
FFFD
FFFB
FFFA
0001
FFFC
0000
FFF9
0004
0003
0003
FFFD
FFFA
FFFD
FFFB
0002
FFFE
FFFA
FFFD
FFFA
FFFB
FFFD
FFFD
0005
0003
0004
0007
0001
0000
0004
FFFB
0002
0003
FFFE
0002
0000
0004
FFF9
FFFD
FFFE
FFFC
FFFA
0004
0004
FFFC
0001
FFFE
FFFC
FFFD
FFFA
FFFF
0002
FFFB
FFFA
0002
0007
FFFB
0003
0005
FFFC
FFFD
0003
0004
0003
FFFF
0006
FFFD
0002
0002
FFFD
FFFE
0000
0003
0002
FFFD
FFFA
0002
0004
FFFF
FFFD
0005
0002
0004
0002
FFFF
0003
0006
FFFE
0003
0002
0003
FFFC
0001
0004
FFFC
0006
FFFE
0007
0001
0004
0005
0000
0002
FFFE
FFFE
0002
0005
FFFB
FFFC
0004
FFFC
FFFE
FFFE
0006
FFFC
FFFB
0002
0005
FFFB
FFFE
0003
0004
FFFD
0000
0006
0005
0005
FFFA
0004
FFFD
0006
0006
FFFC
FFFD
0006
0000
FFFE
0003
FFFF
FFFE
FFFB
FFFD
FFFA
0001
FFFB
0001
FFFE
FFFE
0004
FFFF
FFFF
0001
FFFE
0001
0001
FFFC
FFFC
0003
0003
FFFA
0005
0004
0000
FFFA
0003
FFFB
0005
FFFD
0003
FFFD
0001
0003
0006
0006
FFFF
FFF9
FFFE
FFFF
0007
FFFE
0004
0004
0003
FFFA
FFFA
FFFC
0006
0001
0001
FFFA
FFFD
0004
0006
0006
FFFB
FFFD
0006
FFFC
0005
0000
0000
0000
FFFF
0006
FFFE
0003
0005
FFFC
0001
FFFB
0002
FFFB
FFFF
0000
0000
FFFF
FFFB
0000
FFFC
0002
FFFD
0002
0004
FFFE
FFFE
0007
0005
FFFB
0001
FFFC
FFFE
FFFC
FFFD
0004
0005
FFFD
0005
0003
0002
0001
0006
FFFE
FFFB
FFFC
0004
FFFE
0005
0007
FFFF
FFFE
0006
FFFC
FFFF
0001
0004
0000
0004
FFFD
0004
FFFF
0005
FFFB
0002
0000
0006
0000
0003
0001
FFFA
0000
0003
FFFB
FFFB
0002
FFFA
FFFE
0004
FFFA
0005
FFFD
0002
FFFF
0007
FFFF
FFFF
0004
FFFC
FFFD
FFF9
FFFA
0005
0003
FFFE
FFFE
FFFE
FFFD
FFFF
FFFC
0004
0000
0000
FFFC
FFFA
0006
0000
0006
0006
0002
0005
FFFB
FFFB
0006
0004
0001
0005
FFFD
FFFE
0003
FFFD
FFFE
FFFF
FFFD
0003
0004
0006
0005
FFFF
0002
0004
FFF9
0002
0001
FFFF
0004
FFF9
0001
0006
0005
FFFE
FFFD
0004
FFFB
FFFA
0003
0002
FFFC
FFFD
FFFE
0005
FFFF
FFFD
0001
0000
FFFF
FFFF
FFFF
0001
0001
0002
FFFB
FFFE
0002
FFFF
0004
FFFD
FFFA
0002
FFFF
FFFD
0006
0000
FFFA
0006
0005
0003
0001
FFF9
FFFB
FFFF
FFF9
FFFA
FFFB
FFFD
0001
0005
0001
0001
FFFC
0004
0002
0004
0005
0003
FFFF
FFFA
FFFD
FFFE
FFFA
FFFC
0005
FFFB
FFFB
0006
FFFE
FFFB
0004
0005
FFFB
0001
FFFE
FFFD
0004
0002
0002
0002
0001
0006
FFFE
FFFF
0000
FFFA
FFFD
0000
FFFC
FFF9
0004
FFFE
FFFF
0006
0003
FFFA
0001
FFFE
0005
0000
0005
0002
0004
FFFF
0002
FFFE
0005
0007
0003
FFFC
0004
0003
0007
0001
0003
0000
0005
0002
0006
0003
FFFB
0004
FFFE
FFFC
FFFF
FFFC
0002
FFFE
0003
FFFA
FFFC
FFFD
FFFB
0001
0003
0002
0002
0004
FFFC
FFFD
0001
FFFD
0000
FFFC
0005
0006
FFFC
FFFA
FFFD
0000
0006
0006
FFFE
0002
FFFC
FFF9
FFFD
0004
FFFB
0005
FFFC
FFFF
0006
FFFB
0001
0006
FFFE
0006
0005
0001
FFFA
0001
0003
0004
0006
FFFD
FFFB
0000
0000
FFFE
FFFB
0003
0001
FFFD
0006
0000
FFFF
0000
FFFB
FFFE
0004
0003
0005
FFFC
0000
FFFB
0001
0004
0003
FFFF
FFFA
FFF9
0004
0000
0006
FFFC
FFFD
FFFD
FFFC
0001
0000
0002
0005
FFFC
0002
0006
FFFA
FFFE
FFFC
FFFE
0001
FFFE
FFFC
0004
FFFE
0005
FFFB
0006
FFFB
0002
FFFE
FFFD
0001
FFFD
0004
FFFE
FFFB
0004
0000
FFFA
FFFD
0000
FFFD
0005
0005
0007
0000
0001
0003
FFFC
0000
0000
0000
0004
0000
FFFC
0003
0004
FFFE
0002
FFFA
0004
0001
FFFC
FFFE
0004
0004
0000
0004
FFFB
FFFE
0003
FFFD
FFFF
FFFD
FFFD
0000
0005
FFFF
0000
FFFE
FFF9
FFFE
0004
0005
FFFC
FFFE
0004
0003
0004
FFF9
FFFF
FFFC
0005
FFFF
FFFD
0002
0001
FFFF
FFFA
0004
0000
FFFC
FFFA
0006
0006
FFFB
FFFE
0004
FFF9
0006
0002
FFF9
FFFA
FFFE
0002
FFF8
FFF9
0001
FFF9
FFFD
FFFA
FFF8
0005
FFFF
0003
FFFA
FFF9
0002
FFF9
FFFE
0007
FFFB
0005
FFFE
FFFB
FFFA
0004
FFF9
FFFB
0004
FFF9
FFF9
FFFB
0001
FFFF
FFFB
0004
0005
FFFE
FFFD
FFFF
FFF9
0007
0003
0003
FFFE
0005
FFF9
0003
0003
0004
FFF9
0007
0003
0005
0005
0007
0006
0005
FFFF
0005
0002
0006
FFFD
0001
FFFF
FFF9
0002
0000
0006
FFFA
0000
FFFB
FFFD
FFFC
FFFB
0001
FFFA
0005
0001
FFFF
FFFD
0003
FFFC
FFFB
0000
0000
FFFC
0002
FFFD
0002
0000
0000
0007
FFFD
0002
0007
0002
0001
0000
FFF8
0006
FFF9
FFFD
0002
0005
0001
FFFE
0002
FFFD
FFFC
0002
FFFD
0005
0007
0007
0002
FFFD
0006
FFFE
FFFA
0001
0005
0005
0006
FFFE
0001
FFFE
0007
FFFD
FFFD
FFFF
FFFF
FFF9
FFFF
FFFE
FFFC
0004
FFF9
FFFB
0006
0007
0006
FFFE
0003
FFFA
FFFC
0002
0002
0006
FFFD
FFFE
0001
0004
FFFD
0002
0003
FFFE
0004
FFFB
0000
FFFD
0006
FFFD
0003
FFFA
FFFB
FFFB
FFFC
FFFB
0006
0006
0004
FFFA
0001
FFF8
FFFF
0001
0005
FFFB
0006
FFF8
0001
0004
FFFE
FFFE
0002
0004
FFFE
0001
0004
FFF9
0003
0004
0005
0002
FFFA
FFFB
0007
0002
FFFE
0001
FFFF
FFF9
0003
0007
0000
0001
0007
0002
0006
0005
FFFD
0001
FFFF
FFFE
0000
FFFF
0005
0005
FFFC
0005
FFFC
0005
0002
FFFC
0003
FFFB
FFF8
FFFE
0005
0000
0001
FFF9
0006
FFFC
FFF8
FFFD
FFF9
FFFA
0000
FFF8
0000
FFFF
0004
0001
FFFC
0005
0004
0000
0000
FFFB
0006
FFFC
0006
FFFF
FFFE
0003
FFFB
0001
0001
0006
FFF9
FFFA
0002
0003
FFFA
FFFC
0005
0003
0001
FFFF
0000
0000
0006
0006
0006
FFFC
0006
0006
0002
0006
FFFB
FFFF
0001
0007
FFFF
0005
0001
FFFB
0000
0006
FFFF
FFFF
0006
0001
0006
0006
FFFF
0002
FFFF
0004
FFFC
FFFF
0001
FFF9
FFFE
0002
FFFB
FFFD
0000
0002
0005
0005
0006
FFFE
0005
FFF9
0004
FFFF
0006
0001
0004
0000
0000
0006
0004
0006
FFF9
0004
FFFE
FFFA
0005
FFFC
0000
FFFA
FFFA
0002
FFFB
FFFE
FFFA
FFFB
0000
FFF9
FFFA
0000
FFFC
FFFD
FFFE
FFF8
FFFD
0000
FFFC
FFFA
FFFB
FFFD
0001
FFFB
0005
0003
0000
0006
0000
0005
FFFE
FFFB
0003
FFF8
FFFE
0005
FFFC
FFFD
0000
FFFC
FFFA
0001
FFFC
0005
0006
FFF9
FFFE
FFFE
0002
0003
0001
0002
FFFD
FFFE
0006
FFFB
FFFD
FFFA
0004
0004
FFFC
0005
FFFD
FFFE
FFFA
0003
0001
FFFD
FFFC
FFFB
FFFC
0006
0000
FFFA
0005
FFFB
FFFB
FFFD
FFFD
FFFB
0000
0004
0001
0000
FFF9
0006
FFFF
0007
FFFE
0001
FFFB
FFFE
FFFB
0002
FFFD
FFFD
FFF9
FFFD
0001
FFF8
FFF9
FFFE
FFF7
FFFA
FFFD
FFFE
FFFC
FFF9
0000
0004
FFFB
FFFA
FFFD
FFF9
FFFF
FFFE
0004
FFF9
FFFF
0006
0003
0005
0002
0000
FFFD
0003
FFFE
FFFC
FFFA
FFFA
0006
FFFE
0006
0008
FFFF
FFFC
0005
FFFF
0001
0003
FFFE
FFFC
FFFD
0000
0000
FFFD
0004
FFFE
FFFD
FFFA
FFFB
0005
0003
FFF8
FFFC
FFFE
FFFB
0007
0006
0005
FFFF
0005
FFFD
0003
FFFE
0002
0003
0006
FFFA
0005
0001
FFFE
0000
FFFD
0002
0002
0001
0005
0000
0005
FFFC
0000
FFFC
FFFA
0004
0006
0007
0005
0005
0006
0007
0005
0002
FFFA
FFF9
0002
0000
0003
0003
FFFC
0006
0001
FFFE
FFFC
FFFB
FFFD
0003
0005
0002
FFFF
0001
0003
0002
0004
FFFD
FFFB
FFFE
0002
0006
FFFA
0007
0004
FFFE
FFFD
FFF9
0000
0002
0004
0004
FFFF
FFFF
0003
FFFA
0006
FFFB
FFFA
0000
0003
0001
0006
FFFD
FFFF
0002
0000
0002
0006
0004
FFFF
FFFC
FFFF
0000
FFF9
FFFE
FFFB
0006
0005
0001
0002
0005
0007
FFFE
0006
FFFD
0007
FFFA
0001
0006
0001
0001
0001
0006
FFFD
0006
0000
0006
0005
0002
FFFE
FFFA
0005
FFFA
0006
0005
FFFA
FFFF
0006
FFFD
FFFC
0007
0003
0007
0007
0004
FFFD
0001
FFFD
0000
0005
FFFB
FFFB
0005
0000
0000
0005
0007
0004
0000
0000
FFF9
FFFF
0001
FFFD
FFFA
FFFA
FFFC
0006
0000
0003
FFFB
FFFE
FFFE
FFFC
FFFF
0003
FFFE
FFFF
0004
FFFD
0005
0000
FFFE
FFFC
FFFF
0004
0000
FFF9
0000
FFFF
FFFD
FFFF
FFFE
FFFD
FFFB
0006
FFFF
0004
0005
0002
FFFE
0007
0000
FFFD
FFFE
FFFF
FFFA
0004
FFFC
0004
0001
FFFF
FFFF
0004
0005
0001
0004
FFFA
FFFB
0004
0001
FFFF
FFFE
FFFD
FFFF
FFFC
0003
0006
0000
0004
0001
FFFB
0007
FFFD
0006
FFFE
0001
FFFD
0001
0000
0000
FFFB
FFFC
0000
FFFB
FFFB
FFF9
0002
0004
FFFF
0000
FFFA
0001
0001
FFF9
FFFE
0006
FFFC
0001
FFFE
0001
0005
FFFC
0004
0006
FFFA
FFFB
FFF9
0006
0005
FFFE
FFFE
FFFE
FFFA
FFFB
0002
0002
FFFF
FFF9
FFF9
0000
0005
FFFF
0003
FFFC
FFFA
FFFE
FFFC
FFFA
0001
0007
FFFD
FFFA
0000
FFFF
0007
0003
FFFA
0005
FFFD
FFFC
0002
0006
FFFA
0002
0002
FFFA
FFFF
FFFE
0001
0006
0000
FFFB
FFFD
0001
0002
0002
0003
FFF9
FFFA
0000
0000
0001
FFFC
0006
FFFB
0004
FFFB
FFFB
FFFE
0005
0003
FFFE
FFFE
0000
0003
FFFE
FFFD
0002
FFFF
0006
0007
FFFE
0001
0002
FFFF
0006
0005
0004
0007
FFFF
FFFE
0005
0002
0007
0001
0005
0001
0003
FFFD
0002
FFFF
FFFF
FFFF
FFFB
0006
0003
0002
FFFF
0005
FFFF
0005
0005
FFFA
0004
FFFA
FFFC
0004
FFFC
0002
0001
0004
0007
0003
FFFE
0003
0006
0005
0005
FFF9
FFFC
FFFC
0001
FFF9
FFFB
0004
0001
0006
FFFE
0004
FFFE
FFFA
FFFE
0003
0001
0002
FFF9
FFFD
0001
FFF9
0002
0004
0002
0003
FFFF
FFFC
0004
FFFF
0004
FFFF
0004
FFFE
0000
0005
0001
FFFF
FFFC
0005
0000
0001
FFFF
0001
0001
0001
0001
0004
0000
0002
0001
0006
FFFE
0003
FFFC
FFFB
0004
FFFF
0002
0002
0006
FFFA
0006
0007
0006
0003
FFFA
FFF9
FFFD
FFFE
FFFD
0005
FFFD
0001
FFFF
0003
0000
0006
0002
0005
FFFD
0007
0001
0004
FFFD
0002
0001
FFFC
FFFF
0005
FFFE
FFFF
0005
0004
0006
FFFC
FFF9
0003
FFF9
FFFB
FFFC
0004
FFFB
FFF9
0004
FFFF
FFFB
FFFB
0006
FFFB
0003
0003
0004
0007
0000
FFFF
0002
FFF9
FFFB
0000
0000
0000
FFFE
FFFE
FFFD
0001
0006
0005
0007
0000
0004
FFFE
FFF9
0000
FFFA
FFFF
FFFD
0005
FFFA
FFFD
FFFC
FFFE
0003
0006
0004
FFFE
FFFF
FFFE
FFF9
0006
FFFA
0004
0004
0001
0005
0002
FFFA
FFFE
0004
FFFA
0001
0000
FFF9
FFFC
0004
FFFD
FFFF
FFFC
0007
0000
0006
0002
0000
FFFC
0000
0004
FFFB
FFFD
0006
0005
0000
FFFD
0004
FFFF
0007
FFFF
0002
FFFC
0005
0001
0003
0001
0006
FFFF
0000
0004
0000
0007
0005
0002
0001
FFFA
0003
FFFE
0003
FFFF
0001
FFFB
0002
FFFA
FFF9
FFFE
0000
0004
0004
FFFD
FFFA
0002
FFFD
FFFD
FFFE
0002
FFFB
FFF9
0002
0002
FFFA
0007
0005
FFFF
0003
FFFD
0004
FFFF
0006
0002
FFF8
0004
0007
FFFE
FFFB
FFFF
0001
FFFE
0004
FFFC
0001
FFFF
FFFB
0006
0003
0006
0003
FFFA
0003
0004
0003
FFFB
FFFF
FFFC
0000
FFFC
0002
0006
0001
FFFA
0004
FFFF
FFFE
0005
0002
0004
FFFA
0000
FFFB
FFFC
0007
0007
FFFC
0002
0000
0006
FFFE
0000
0003
0006
FFFE
FFFF
0002
FFFF
0000
FFF9
FFFD
0003
FFFE
0006
FFFB
FFFB
0005
FFFE
FFFA
FFFE
0004
FFF9
FFFA
0001
0001
0004
FFFD
FFFF
FFFB
0001
FFFE
FFFC
FFFB
0000
0003
0001
FFFE
FFFF
0002
0002
0005
FFFF
FFFA
FFFC
FFF9
FFFE
FFFB
FFFF
0006
0000
0005
FFFC
0005
0004
FFFA
FFFA
0004
0006
FFFB
0006
FFFF
FFFD
0005
FFFC
0003
0004
0001
0006
0007
FFFC
FFFB
0000
FFFE
0001
0002
FFFB
0000
0000
0001
FFFC
0004
0001
0000
0001
FFFB
FFFA
FFFE
FFFD
FFFF
0000
FFFF
0000
0000
FFFF
FFFC
0002
0004
FFFB
0004
FFFF
0004
FFFF
FFFF
0003
FFFA
FFFC
FFFA
0001
0000
0004
FFFC
0001
0004
0001
0003
FFFC
0005
FFFA
FFFC
0003
0002
0001
0005
0007
FFFC
FFFD
0001
FFFC
0001
FFFD
FFFB
FFFC
FFFD
FFFB
0000
FFFE
0005
FFFB
FFFF
FFFF
0000
0002
FFFB
FFFF
FFFF
0001
0000
FFF9
FFFA
0005
FFF9
0003
FFFC
0001
FFFB
0001
FFF9
FFFF
FFFA
FFFB
FFFF
0001
0001
FFF9
0006
FFF9
0001
0001
FFFF
0004
0000
FFFB
0000
0004
0003
0003
FFFE
0002
FFFC
FFF9
FFFA
0002
FFFA
FFFB
0002
0002
FFFB
0005
0005
FFFB
FFFE
FFFB
FFFC
FFFB
FFFF
0003
FFFC
FFFE
0002
0006
0000
FFFB
0005
FFFF
FFFD
0005
FFFB
FFFE
FFF9
0004
FFFF
0003
0006
FFFA
0003
0002
0004
0005
0002
0004
FFFA
FFFF
FFFE
0004
FFFB
0004
FFFD
FFFC
0003
0001
0001
0003
0003
0005
FFF8
FFFB
FFFC
FFFB
0005
FFFE
0007
0001
0003
0004
0005
FFFB
FFFD
FFFA
FFFD
0006
0003
0002
0003
0003
FFFE
FFFB
0000
FFFD
FFFD
0003
FFFF
FFFF
FFFF
FFF9
0002
0002
0006
0001
0000
FFF9
FFFA
FFFC
0002
FFFD
0003
0000
0006
0002
FFFE
0004
0001
0002
FFFC
0000
FFFF
FFFE
0005
0001
0005
FFFD
FFFD
0006
0005
FFFD
0005
0003
FFFB
FFFF
0005
0000
FFFB
FFFA
0000
0005
0002
0000
FFFE
FFFD
0004
FFFF
0005
0000
FFFB
0001
0001
FFFF
0000
0002
0000
FFFE
0006
0004
FFFD
0001
FFFE
0004
FFF9
0005
0000
0001
FFF9
FFFA
FFFC
0004
0004
FFFF
0004
FFFB
FFFA
FFFE
FFF9
0004
0006
FFFA
0002
0001
FFFD
FFFD
0000
0002
0002
0000
FFFC
0003
FFFC
0002
FFFE
0005
FFFE
FFFA
FFFF
FFFD
FFFE
FFFB
FFFE
0003
FFFA
0006
FFFF
0000
0000
0001
0000
FFFD
FFFC
FFFE
0001
FFFC
FFFF
FFFC
0007
FFFD
0004
FFFC
FFFC
0005
FFFC
FFFC
0007
0001
0002
FFFF
0002
FFFA
FFFA
0000
FFFC
FFF9
FFFB
0006
FFFA
FFF9
FFF9
FFFB
0004
FFFA
0004
0002
0002
0004
FFFA
FFFC
0003
FFFF
FFFE
FFFB
FFFC
FFFA
FFFB
0007
0002
0002
FFFF
0005
FFFD
FFFA
FFFC
0001
0003
0002
FFFA
0003
0003
FFFD
FFFB
FFFC
0000
FFFA
0000
FFFC
0001
FFFE
FFFB
FFFC
FFFF
0006
0004
FFFD
FFFB
FFFC
FFFD
0005
0002
FFFB
FFFF
0000
FFFC
0005
0000
0004
0000
0006
FFFC
0003
FFFC
0005
FFFC
FFFD
FFFA
FFFB
0006
0004
0001
FFFC
FFFF
FFFF
0006
FFFE
FFFB
0003
FFF9
0005
0004
0002
0006
0006
FFFE
0004
FFF9
0000
0001
0005
0004
0004
0002
FFFA
FFFA
0002
0002
FFFD
0006
0001
FFFC
FFFC
FFFE
FFFC
0006
FFFA
0006
0001
0002
0002
0006
0004
FFF9
0002
0003
FFFD
FFFA
FFF9
0002
FFF9
FFFF
FFFE
0005
FFFF
FFF7
FFFD
FFFB
FFF9
0002
0002
FFFB
FFFD
0003
FFFC
0001
FFFD
FFFF
0007
FFFA
0004
FFFE
0000
0001
0001
0006
0004
FFFC
FFFD
FFFE
0003
FFFD
FFFC
0006
FFFA
FFFB
0006
FFFB
0004
FFFC
FFFF
0004
FFFA
FFFE
FFFD
FFFC
FFFE
FFFA
FFFC
FFFC
0005
FFFE
FFFB
0001
0003
0006
0005
0002
FFFE
FFFE
0002
FFFB
0001
FFFE
FFFA
0000
FFFC
0000
FFFE
0002
FFFF
FFFD
0005
0005
FFFF
0002
0000
0002
0005
0001
0003
FFFF
0005
FFFE
FFFC
FFFD
FFF9
FFFA
0005
FFFF
0005
0000
FFFB
FFFE
FFFF
FFFD
0001
FFFA
0000
FFFE
0004
FFFE
0000
0005
FFFD
0002
0000
0004
FFFC
0002
FFFD
FFFF
FFFD
FFFB
0004
0004
0000
FFFF
FFFB
0003
0001
FFFD
0002
0001
FFFE
0002
0002
FFFF
FFFF
0002
FFFB
0004
FFFF
0004
FFFD
0001
FFFD
FFFC
0002
0004
FFFD
0006
0001
0004
0005
0002
FFFB
FFFA
0000
FFFC
0003
0003
0005
0003
FFFC
FFFE
0005
0006
FFFB
0000
0004
0001
0004
FFFE
FFFB
0006
FFFC
0005
FFFA
0001
FFFD
0005
0003
FFFF
FFFA
0001
FFFF
FFFD
0003
0004
0004
0005
FFFA
FFFF
0000
FFFF
FFFC
FFFA
FFFE
FFFC
0007
FFFC
FFFA
0001
FFFF
0002
FFFD
0001
0006
0001
FFFF
FFFB
FFFA
FFFD
FFFC
FFFA
FFFD
FFFB
FFFC
FFFD
0006
0005
0003
FFFC
0003
0000
FFF9
0004
0003
0001
0001
0003
0004
FFF9
FFFD
0004
FFFE
0005
FFFB
FFFA
0001
FFFC
FFFD
FFFA
FFFE
FFFB
FFFD
FFFE
0000
0003
0001
FFFE
0004
0000
FFFA
0004
0005
0002
0000
0004
FFFD
FFFB
0002
0004
FFFC
FFFE
0000
FFFD
0002
FFFF
0003
0001
FFFD
FFFE
FFFC
0002
0003
FFFC
0003
FFFD
0006
0005
FFFB
0000
FFFD
FFFB
0003
0002
0001
FFFD
FFFA
0002
0004
0004
FFFC
0004
FFFB
FFFE
FFFF
FFFB
FFFF
0005
FFFD
0003
0006
0001
0000
FFFA
FFFB
0002
0000
0001
0001
FFFA
FFFB
0001
0000
FFFD
FFF9
FFFB
FFFB
FFFF
FFFB
FFFD
FFFB
0005
FFFF
FFFF
FFFF
FFFB
0000
FFFF
FFFE
FFFB
0006
0006
FFFB
0003
0000
FFFD
FFFD
0001
0001
0005
FFFD
0002
FFF9
FFFD
0003
0000
0003
0001
FFFA
0000
FFFD
FFFA
0003
FFFE
FFFF
FFFE
0006
FFFB
FFFE
0001
FFFD
0001
FFFE
FFFF
FFFD
0002
0003
0001
FFFC
0003
FFFF
0004
FFFB
FFFE
FFFE
FFFD
FFFC
0005
0004
0002
FFFE
0002
FFFF
0000
0005
0003
0005
0000
0005
FFFB
FFFC
0000
FFFC
0001
FFFD
FFFA
0002
FFFD
0001
0005
0005
FFFD
0006
0000
FFFD
0001
0006
0000
0005
FFFE
FFF9
0001
0004
FFFE
FFFD
0002
0000
0000
0001
FFFF
FFFA
FFFB
0003
FFFF
0000
0001
0001
0000
FFFE
0000
0003
FFFC
0006
FFFC
FFFB
0002
0000
FFFB
0000
FFFB
FFFB
FFFC
FFFD
FFFB
FFFE
FFFE
0001
0005
FFFB
FFFD
FFFC
FFFC
0000
0003
0003
0005
FFFC
0004
0002
FFFD
FFFC
0001
0001
0003
FFFF
0000
FFFF
0004
0004
FFFA
FFFD
FFFB
FFFD
0002
0003
FFFA
0004
FFFA
0002
0001
FFFD
0002
0000
0004
FFFE
0004
0005
0001
0002
0000
0002
0005
0004
0005
FFFA
FFFD
FFFC
0004
FFFF
0006
0002
FFFF
0004
0002
FFFE
FFFD
0003
FFFA
FFFE
FFFE
0002
0001
FFFF
0006
FFFE
FFFD
0006
0000
FFFC
0004
0004
FFFF
0002
FFFA
0002
0000
FFFC
FFFE
FFFE
0003
FFFE
0005
FFFD
0002
FFFD
0001
0003
0001
FFFA
0005
FFFA
0003
FFFD
FFFA
0006
0000
0005
0003
0006
0004
0005
FFFE
0000
0000
FFFE
0001
FFF9
FFFD
0004
FFFD
FFFD
FFFD
FFFD
0003
0000
FFFC
FFFB
FFFF
FFFB
FFFE
FFFF
0003
FFFF
FFFA
0006
0004
0005
FFFA
0002
0005
FFFC
0001
0003
0006
FFFA
0006
0005
0005
FFFD
0004
FFFA
0005
FFFF
0003
0003
0000
FFFF
FFFD
0003
0002
FFFE
FFFD
0001
0005
0006
0002
FFFB
FFFB
0000
0003
0006
FFFB
0000
0003
0000
0003
0005
FFFD
FFFE
FFFE
0003
0001
0008
0001
0003
0006
0004
FFFA
0002
0003
0002
FFFE
0005
0004
0003
FFF9
FFFA
FFFE
0004
FFFE
FFFA
FFFE
0001
FFFA
0007
0000
FFFC
FFFA
0005
0006
0004
0005
0007
FFFC
0007
0005
0000
FFFE
FFFC
0001
0005
FFFB
0002
0002
0007
0001
0003
FFFB
0000
FFFC
FFFA
0004
0006
FFFC
FFFB
0007
FFFD
0004
0004
0006
FFFA
FFFC
FFFA
0004
0005
0005
FFFB
FFFC
0003
FFFC
0005
FFFD
FFFA
FFFF
FFFA
0006
0004
FFFA
FFF9
0004
FFF9
FFFE
0001
FFFD
0002
FFFF
FFFC
0004
0007
0002
0006
0005
FFFD
FFFB
0000
0000
FFFE
0003
0002
FFF9
0004
FFF6
0003
FFF8
FFFB
FFFB
0001
FFFA
0000
0002
0005
FFFB
FFFB
0003
FFFE
FFFE
FFFB
FFFA
0004
0002
0003
0002
FFFF
FFF9
0007
0000
0003
0001
FFFD
0005
FFFE
FFFA
FFFF
FFFB
FFFA
FFFA
FFFD
FFFD
0005
0007
0000
0001
FFFE
0003
FFFD
0009
0004
0000
0002
0006
0006
FFFF
0000
0003
0007
0004
0004
FFFB
0001
FFFC
0001
0002
FFFD
0001
0000
0000
0004
FFFE
0005
FFFB
0003
0002
0002
0004
0009
0000
FFFC
0005
FFFF
0005
0004
0001
FFFC
0008
0001
0007
FFFF
0000
FFFC
0001
0008
0000
0006
FFFE
0002
0003
0006
0004
0003
FFFB
FFFA
0000
FFFA
0000
FFFE
FFF8
0000
0006
FFFD
FFFE
0005
FFFF
0006
0004
FFF8
0004
0001
FFF9
FFFD
0003
FFFD
0007
0008
0000
0000
0000
FFFA
FFF9
0002
FFF9
FFF8
FFFE
FFFB
FFFB
FFFC
FFFD
0000
0002
0005
0003
0007
0008
0000
0003
0002
0004
0003
0003
0002
0000
0002
FFFF
0001
0003
FFFA
0003
0003
0002
FFFB
FFFE
FFFF
0005
FFF9
FFFE
0000
0004
FFFF
0007
0001
FFFF
0007
FFFC
0003
0001
0006
0004
FFF9
0006
FFFC
FFFB
FFFC
0005
0003
FFFC
0002
FFFA
0000
FFFE
FFFF
0002
FFFE
FFFD
FFFF
FFFE
0006
0006
0004
FFFF
FFF9
0007
0000
0005
0003
FFFA
FFFC
0001
FFFE
0007
0003
FFF9
0000
0003
FFFF
0000
FFFA
0003
0002
FFFE
0006
0006
0005
0004
0001
FFFF
0001
0001
0004
0006
0002
FFFA
0004
0008
0002
0003
FFFF
0001
0002
0007
FFFB
0007
0005
FFFD
FFF9
0007
0000
FFFC
0001
0000
0004
0003
0001
FFFF
0002
FFFB
FFFE
0001
0007
0007
FFFB
FFFE
0005
FFFC
0006
FFFE
FFF8
0004
0001
FFFD
FFFA
0001
FFFE
FFFC
0005
FFFA
0000
FFFD
0008
FFF9
0006
0008
0001
0000
FFFE
FFFB
FFFD
0007
0007
0001
FFFE
FFFB
0006
0004
FFFE
0006
FFFA
FFFE
0004
FFFB
0004
FFFD
FFFB
FFFA
FFFF
FFFE
FFFA
FFFF
FFFF
FFFE
0006
0000
0003
FFFC
FFFE
FFFC
FFFC
0003
0006
FFFF
FFFA
FFFC
0007
0008
FFF9
0001
0007
0008
0001
FFFE
0003
FFFF
FFFA
FFFF
0002
0006
0002
FFFC
0007
FFFF
0000
0001
FFFD
0007
FFFD
0003
0005
FFFB
0006
0002
FFFA
FFFE
0000
0000
FFFF
0005
0008
FFFF
0008
FFFB
FFFE
0000
0002
0006
0004
FFFC
0000
FFFA
FFFE
FFFD
FFF9
0000
FFFB
0007
0000
0002
FFFE
0004
0000
FFFE
0004
0002
FFFB
FFFD
0001
0002
0005
FFFD
0003
0000
FFFB
0005
FFFF
FFFD
0001
0006
0005
FFFA
0007
FFFC
FFFC
FFFB
0000
FFFF
0006
0004
0004
FFF9
0004
0002
0004
FFFE
FFFB
FFFD
0006
0001
0006
FFFC
0006
FFFE
0003
FFFB
FFFD
0005
FFFF
0006
FFFD
0006
0004
0006
0005
0002
FFFB
FFFA
FFFA
0007
0002
0003
0007
0005
FFFC
FFFF
FFFB
FFFE
0002
FFFC
FFF9
0000
FFFE
0003
FFFF
0002
FFFC
0003
FFFC
0001
FFFF
0005
0007
FFF9
FFFF
FFFB
FFFC
FFF8
0006
0005
FFFF
0000
0001
FFFE
FFFF
FFFB
0005
FFFC
FFF9
0002
0001
FFFE
FFFA
FFFB
0005
FFFB
0001
FFF9
FFF9
0002
0006
0000
0004
FFFB
0005
0006
FFF8
FFFF
0004
FFF9
FFFB
FFFA
FFFE
0006
FFFF
0007
0003
0005
0000
0000
0003
FFF9
0000
FFFC
0003
0003
0006
FFF9
FFFF
0004
FFFA
0000
0004
0006
0002
FFFE
FFFE
FFF9
FFFB
0007
0000
FFF9
0003
FFFB
FFFC
FFFD
FFFB
FFFC
0000
FFFD
0000
FFFA
0004
0006
FFF9
0000
0007
0004
FFFB
0000
0007
0007
FFFB
0000
FFFC
FFFF
0005
FFFA
FFFE
0002
0006
0001
0000
0000
0002
0005
FFFC
FFFC
0005
0003
FFFA
0001
0006
0000
0004
FFFF
FFFF
FFF9
FFFC
FFFD
FFFC
FFFB
FFFD
0002
0005
FFFE
0005
FFFF
0007
0004
0004
0005
0005
0003
FFFA
0001
FFF9
FFF9
FFFB
FFFC
FFFA
FFFE
0007
0004
0005
0000
0007
FFFD
0003
FFF9
0000
FFFC
FFFE
FFFE
0008
FFF9
0005
0005
0007
0001
FFFE
FFFC
FFFA
FFFB
FFFA
0003
FFFC
FFFE
FFFE
0001
0006
FFFA
0002
FFF9
0006
0006
0001
FFFD
FFFE
0007
0005
0005
0004
FFF9
FFFA
0007
0001
0007
FFFF
0007
FFFB
0002
FFFB
FFFC
0003
0002
FFFC
FFFB
0005
FFFC
0003
0004
FFFC
FFFF
0000
0001
FFFF
0001
FFFC
0006
FFFA
0003
FFFF
0002
0004
0001
FFFB
FFFF
0005
0002
FFFE
0007
0000
0002
0001
0001
FFFA
0002
FFFB
FFFB
0000
0003
0007
FFFB
FFFD
0003
FFFE
0001
FFFF
FFFE
FFFC
0004
0006
0002
FFFA
FFFC
FFFB
FFFE
FFFF
0002
0005
FFFE
0005
0006
0007
FFFF
FFFF
0006
FFFC
0002
0000
0000
0001
FFFE
0002
0004
0006
0005
0006
FFFD
FFFD
0002
0005
0006
0007
FFFC
FFFB
0005
FFFC
0001
0000
FFFC
FFFD
0006
0003
0002
FFFE
0001
0005
FFFB
0004
0006
FFFB
0005
FFFF
FFF9
FFF9
0007
FFFE
FFFD
0004
FFFA
0006
0001
0004
FFFF
FFFD
FFFC
FFFB
FFF9
0001
0001
0004
0006
0002
0005
0002
0003
FFFA
FFFB
FFFA
FFFA
FFF9
FFFE
FFFA
FFF9
FFFB
FFFE
0002
0006
0002
0005
FFF9
FFFE
FFFB
FFFA
0001
FFFD
0000
0005
FFFE
0005
0005
0007
0002
0004
FFF9
0000
FFFE
FFFF
0004
FFFC
0001
FFFF
0006
0007
0005
FFFD
FFFD
0000
0004
0005
0006
0006
0002
FFFE
0002
FFFA
FFFD
FFFF
FFFB
FFFF
0005
FFFE
0004
0006
FFFB
FFF9
0001
0000
FFFE
0002
FFFA
0006
FFFF
0000
FFFE
FFFE
0000
FFFB
FFFB
0004
0002
0006
FFFF
0003
0000
0006
FFF9
FFFE
0004
FFF9
FFFA
0001
FFF9
FFFC
FFF9
0003
0002
0004
0002
FFFD
0003
0004
0003
0002
0004
FFFA
FFFB
0002
0007
0002
0003
FFFF
0005
FFFF
FFFA
FFF9
0006
0003
FFFA
FFFD
0006
FFFC
FFFC
FFFB
0000
0002
FFF9
FFFB
0001
0002
FFFD
0004
0003
0003
FFFA
FFFE
FFFE
0006
0000
0007
FFFA
0006
FFFC
0002
0006
FFFD
FFFD
FFFC
0002
FFFD
0004
0005
0003
FFFD
0003
0006
0002
0001
0000
FFFE
0003
0006
0003
0002
0000
0003
FFFF
0001
FFFE
FFFB
FFFE
0000
FFFE
FFF9
FFFA
FFFE
0007
FFFA
0003
FFFE
0005
0005
0004
FFFC
0003
FFFD
FFFF
FFFF
0002
0001
0007
0002
0007
FFFC
0003
0005
FFF9
0002
FFFE
FFFB
0001
0007
0000
0002
0006
FFFE
0000
0006
0000
0007
FFFE
FFFE
FFFE
0007
0004
0007
FFFF
FFFE
0003
0005
0005
0000
FFFD
0003
0002
0005
FFF9
FFFE
FFFD
FFFA
0003
0004
0002
FFFF
0005
FFFE
0004
0005
0001
FFFB
FFFF
FFFF
FFFA
FFF9
0006
0004
0000
FFF9
FFFB
0004
FFFA
0006
0002
FFFD
FFFE
FFFA
0006
0000
FFFC
0006
0005
0002
FFFD
0003
0000
FFFA
FFFD
FFF9
FFFA
FFFF
0006
FFFD
FFFD
0007
0001
FFFC
0005
0001
0007
FFFC
FFFF
FFFC
FFFB
FFFF
0008
0004
FFFD
FFFD
0000
0006
FFF9
FFFB
0006
FFFC
FFFF
FFFA
0004
FFF9
0007
0005
FFFE
0001
0003
FFFA
0006
0004
0000
FFFC
FFFE
FFFE
FFFB
FFF9
FFFA
0004
0006
FFFE
FFFA
FFFB
0004
FFFA
FFF9
0003
FFFE
FFFA
0000
0001
0002
0002
0000
0000
0006
0004
FFFB
FFFD
FFFC
0001
0001
0006
FFFD
0006
FFFF
FFFF
FFFF
0001
0000
0000
0006
FFFC
0007
0002
0001
FFFC
0002
0004
FFFC
0007
FFFE
FFFE
FFF8
FFFA
0000
0000
0003
FFFF
0005
0001
0002
FFF8
FFF9
FFFA
0002
FFFF
0001
0002
FFFE
FFFF
0006
0003
0003
FFFE
0006
0003
FFFF
0001
0001
FFFA
FFFB
0003
0004
0007
FFFA
0005
FFFE
0001
0004
0000
FFFC
0005
0006
0000
0002
0003
FFFC
FFFF
FFFA
FFFC
0005
0006
FFF9
0002
0002
0001
FFFB
0005
FFFF
0002
0004
0003
FFFB
FFFC
FFFF
FFFC
FFFB
0001
FFFD
FFFC
0000
0003
0006
0006
FFFB
0007
FFF9
0002
FFFE
FFFE
FFFB
FFFB
0005
FFFA
0004
0000
FFFE
0007
FFFC
0002
0006
0007
0005
0004
FFFC
FFFA
FFFC
0003
FFFF
FFFF
0001
0005
0005
FFFA
0000
0005
0001
0005
FFFA
0004
FFF9
FFFC
FFF9
0000
FFFF
FFFD
0000
0004
0000
FFFC
0005
FFFF
0001
0006
FFFA
0002
0004
0000
FFF9
0004
0002
FFFF
FFFB
FFFE
FFFB
FFFB
0000
FFFD
0005
0004
FFFF
0006
0005
0001
0001
0002
0006
0007
0001
FFFF
FFF9
0000
FFFE
0003
0002
FFFA
0001
0002
FFFB
FFFD
0002
FFFC
0007
0002
FFFC
0004
FFFA
0003
FFFC
FFF9
FFFC
0004
0006
0004
0000
0001
FFFA
0001
FFFB
FFFA
0000
0005
FFFF
FFF8
FFFF
FFFB
FFFC
0007
0007
FFFC
FFFC
0004
0001
0004
FFFE
0004
FFFF
0005
0002
FFFD
FFFC
0003
0002
0004
0004
0003
0005
FFF9
0004
0006
0003
0006
FFFD
0002
0007
FFFA
0001
0001
0004
0006
0004
0005
FFFC
FFFD
0000
FFFC
0006
FFFB
FFFC
0000
FFFF
FFFD
0000
0003
0007
0001
FFFA
0004
0001
FFFC
FFFF
FFFE
FFFA
0004
FFFC
FFFD
0006
0005
FFFE
FFF9
FFFB
FFFD
0005
0004
FFF9
0002
FFFE
FFFC
0002
FFF9
0003
FFFD
0004
0003
FFFB
FFFB
FFFF
FFFB
FFF9
0003
FFF9
0006
FFFC
FFFD
FFFD
0006
FFFD
0002
FFF9
FFFF
0004
FFFF
FFF9
0001
0000
FFFB
0005
0005
FFFB
FFFD
0007
0004
0003
FFFC
FFFE
FFFF
FFFC
FFFB
FFFF
FFFF
0000
FFFD
FFFB
0004
FFFD
FFFC
0002
FFFF
FFFE
FFFB
0003
FFFC
0004
0004
FFFD
FFFD
FFFC
FFFE
0003
0000
FFFB
FFFC
FFFA
FFFD
FFFA
FFFA
0004
FFFF
0000
FFFB
0004
0006
FFFB
0000
FFF9
0000
0005
FFFD
0005
0002
FFFD
FFFA
0003
FFFA
0003
FFFA
0002
0005
FFFB
FFFA
FFFC
0000
FFFA
0005
0000
0006
FFFC
FFFF
0007
FFFC
FFFE
0005
0006
0002
FFF9
0006
FFFB
0000
0001
0002
FFFC
FFFB
FFFC
0004
FFFB
FFFC
0002
0004
FFFC
0002
FFFF
FFFA
FFFC
0001
FFFB
0001
FFFA
FFF9
FFFE
0003
0005
0003
FFFC
FFFC
0006
FFFF
0006
FFFC
0003
0001
FFFC
0002
0004
FFFC
0004
FFF9
0003
FFFA
0005
0001
FFFE
0006
0005
FFFC
0000
0004
FFFF
FFFB
FFFA
FFFA
0001
FFF9
FFFB
0000
FFF9
0001
FFFF
0005
FFFA
0006
FFFD
FFF8
0006
FFF9
FFF9
FFFC
0000
0007
0007
FFFD
FFFA
0001
0005
FFF9
FFFE
0005
FFFC
FFFE
0006
FFFD
0000
FFFF
0001
FFFA
FFFA
FFFD
0000
FFF9
0004
0006
FFF9
FFFF
FFFA
0001
FFF9
0006
FFFD
0000
0007
FFFF
FFFF
0003
0003
0000
0003
FFFB
0001
FFFF
0006
0005
FFFC
0001
0001
0006
0005
0002
FFFA
0000
FFFE
0004
FFFB
FFFB
FFFD
0000
FFFB
FFFC
FFFB
0003
FFFD
FFFA
0002
FFFE
FFFE
0003
FFFF
FFFE
0005
0001
0000
FFFC
FFFD
FFFE
0004
FFFC
0004
0001
0001
0002
0004
FFFA
FFFB
FFFC
0003
FFFD
FFFD
FFFC
FFF9
0005
FFFA
0000
0003
0006
FFF9
0002
0004
0001
0000
FFFF
0001
FFFC
0003
FFFF
0002
0004
0005
FFFE
0003
0004
0002
FFFA
0003
FFFC
FFFA
0001
0003
FFFF
0004
0000
FFFF
FFF9
FFFB
0001
FFFA
0003
0004
0003
FFFD
FFFE
0006
0000
FFFA
FFFD
FFFF
FFFD
FFFD
0006
FFFE
0001
0003
FFFA
FFFC
FFFE
FFFB
FFFF
FFFA
0002
0001
0002
0007
0006
0000
0002
FFFB
0001
0005
0004
0007
0001
0002
FFFA
FFFC
0001
FFFB
FFF9
0000
0004
FFFD
FFFB
0005
FFFC
0001
FFF9
FFFE
FFFB
0000
FFFD
0000
FFFA
0001
0002
0005
0001
FFFC
0000
0005
0003
FFFF
0000
0004
FFFF
0005
0000
FFFB
FFFF
0001
0001
FFFC
FFF9
FFFC
0000
0001
0006
FFFD
FFFE
FFFF
0004
0003
0000
0001
0006
FFFC
0004
0003
FFFE
FFF9
FFFD
FFF9
0000
0003
0005
FFFE
0003
FFFC
0002
FFFA
0003
FFFD
FFFE
FFFF
FFF9
0005
FFFD
0000
0006
0001
0002
0002
FFFD
FFF9
0000
FFFE
0001
0003
0004
FFF9
0000
0004
0000
FFFD
FFFC
FFFB
0005
0002
0003
0005
FFFE
0000
FFFE
FFFF
FFF8
FFFA
0000
0000
0003
FFFA
FFFA
FFFB
FFFC
0002
0007
0002
0000
0003
FFFF
0004
FFFC
0004
FFF9
0002
FFFA
0005
0000
0001
FFFF
0004
FFFC
FFF9
0004
FFFA
0005
FFFC
FFFF
FFFE
0006
FFFD
FFFF
FFFA
FFFA
0002
FFF9
FFFC
0006
FFFE
0004
0004
0000
FFFF
0006
0001
0001
FFFE
FFFC
FFFB
0001
FFF9
0003
FFFF
0005
0001
FFFF
FFFB
0005
FFFE
0005
0003
FFFC
FFFF
FFFC
0000
0002
0004
0004
FFFF
FFFC
0003
0005
FFFF
0000
0000
FFFA
FFFF
0002
0005
0000
0006
0004
FFFC
0002
FFFE
0002
FFFC
FFFE
0000
FFFE
0000
0006
0002
0006
0001
FFFF
FFFF
0003
0000
0005
0000
0000
FFFB
0002
0006
FFFF
0003
0005
FFFB
FFFD
FFFC
FFFE
FFFE
FFFE
0005
FFFD
FFFF
0005
0005
0001
FFFD
FFFE
FFFF
FFFE
0003
FFFB
0006
0000
0004
0006
0001
FFFD
0001
0002
0002
FFFC
FFFB
FFFA
FFFC
0001
0000
0000
FFFB
0002
0001
0006
0007
0002
0000
FFF9
0003
FFFB
FFFD
FFFE
0002
0002
0003
FFFE
FFFE
0000
FFFE
FFFA
0006
FFFC
0006
0005
FFFE
0003
0000
0004
FFFB
0003
FFF9
FFFE
FFFC
0001
0002
0001
0000
0003
0006
FFFE
0000
0004
0002
0003
0000
0003
0000
FFFC
0007
FFFB
FFFC
0005
FFFD
FFFB
0003
FFFC
FFFF
0003
FFFF
0004
FFFF
0003
0005
0003
0006
0005
0004
0004
FFFC
FFFC
FFFB
0000
FFFB
0003
FFFE
0004
0000
FFFA
FFFF
0004
0000
0004
0002
0003
FFFA
0003
0006
0007
0000
0005
0003
0005
0003
0003
0005
FFFB
0003
FFF9
FFFA
0000
0002
FFFD
FFFE
FFF9
FFF9
0001
FFFC
0005
0006
0004
FFFE
0002
0005
FFFF
0001
0000
0000
0002
FFFC
FFFE
0004
0001
0000
FFFB
FFFE
0002
FFFA
FFFD
FFFC
0000
FFFF
FFFE
FFFC
FFFC
FFFB
FFFB
0005
0002
0002
FFFC
0006
FFFE
FFFC
0006
0000
FFFA
0001
FFFD
0007
0000
0001
FFFF
FFFD
0007
FFFA
FFFC
FFFC
FFFF
0003
FFFE
FFFE
0001
0005
0007
FFFD
FFFE
FFFC
FFFD
FFFA
FFFB
0004
0001
FFFD
FFFC
FFFA
0005
FFFC
0003
0003
FFFA
0006
0001
FFFD
0000
0003
FFFA
0001
0005
0005
FFFF
0006
FFFB
FFFC
0001
0001
FFFF
FFFD
FFFF
0001
0005
0003
FFFE
FFFF
0002
0006
FFFF
0003
FFFF
0006
0002
0001
0004
FFFF
0004
FFFB
FFFD
0002
0003
FFFC
0006
FFFC
0001
0000
0000
0004
0000
0000
0003
FFF9
0000
0004
FFFC
FFFC
0003
FFF8
0000
0000
0006
FFFC
0003
0003
FFFE
0006
FFFB
0004
FFFE
0001
FFFC
0006
FFFF
0006
FFFD
0001
FFFA
FFFE
FFFD
0004
FFFE
FFFF
FFFB
FFFC
FFFE
FFFD
0005
0005
0001
FFFC
0003
0004
FFFC
FFFB
FFFA
FFFE
FFFD
0001
0000
FFFE
0004
0004
0000
0007
FFFB
0002
FFFF
FFFA
0005
FFFA
FFFB
0002
FFFC
0006
0005
0001
0001
FFFE
FFF8
FFFC
FFFD
0004
FFFF
0001
FFF9
0000
FFFE
0001
0002
FFFE
FFFF
0000
0005
0003
0005
FFFD
FFF9
FFFB
0002
0002
FFFD
FFFA
FFFF
0001
0000
FFFF
FFF9
FFFB
FFFF
FFF9
FFFD
0002
FFFC
0002
0002
0004
0002
0007
0000
0001
FFFE
FFFF
0000
0002
0004
0006
FFFC
0005
FFFF
0007
0001
FFFD
0007
FFFC
FFFB
FFFA
0000
FFFE
0003
FFFC
FFFD
FFFE
0003
FFF9
FFFE
0004
FFFB
FFF9
FFFF
0001
0001
0003
0003
FFFE
0005
0000
0000
0007
0001
0000
FFFB
0000
FFF9
FFFA
0001
0003
0008
0005
FFFF
0000
FFFB
0000
0007
0000
FFFD
FFFD
0007
FFF9
0001
0002
0002
0003
0003
0001
FFFE
0004
FFFE
0006
0004
0002
0001
0001
0005
0002
0007
0005
FFFA
FFFD
FFF8
0001
FFFA
0005
FFFF
0006
0004
FFFE
FFFD
FFFC
FFFE
0002
0000
FFFF
0002
0003
0004
0004
0002
FFF9
0002
FFFF
FFFD
FFFF
FFFD
FFFD
0003
FFFA
FFF8
0005
0004
0006
FFFD
FFFA
FFFA
0005
0007
0000
0006
0002
0001
0002
FFFB
FFF9
0004
FFF9
0007
0003
0007
0000
FFF9
0002
0000
0003
FFFF
0002
0004
0004
0001
FFFD
0006
FFFC
0006
FFFC
FFFC
0007
FFF9
0007
0005
0002
0000
0003
0006
FFFA
FFFB
0004
FFFA
0006
FFFA
0004
FFFE
0000
FFFA
0003
FFFC
FFFB
FFFA
FFFD
FFFE
0001
0003
FFFE
0003
FFFB
0000
0000
0005
FFFD
0004
0006
FFFF
0003
0000
FFFD
0002
0003
FFFF
FFFF
0005
FFFB
0000
FFFA
FFFD
0000
FFFC
0006
FFFD
FFF9
FFFD
FFFE
0002
FFFE
FFFD
FFF9
0003
FFFE
0004
0005
FFFF
0001
0004
FFF9
FFFB
FFFF
FFFE
FFFD
0003
0006
FFFE
FFFD
FFF9
0006
FFF8
FFFD
FFFB
FFFE
FFFC
0004
0001
0004
0006
FFF9
FFFA
0004
FFF9
FFFE
0000
FFFC
0004
0005
0007
FFFC
0002
FFFE
FFFF
FFFC
FFFE
FFF9
FFFC
FFFE
FFFC
0005
0002
0003
0002
0002
0001
0000
FFFF
FFF9
FFFF
0005
0002
0006
FFFF
0006
0003
0007
FFFD
FFFA
FFFC
FFFD
0007
FFFD
FFFA
FFFD
FFFB
0000
FFFF
FFFC
0006
0005
FFFA
0004
0007
FFFE
0000
FFFC
0000
FFFD
FFFF
0007
0007
0005
0003
0003
FFFB
FFFE
FFF9
0004
0006
0005
FFFF
FFFD
0002
0000
FFFC
FFFD
0002
FFF9
0006
FFFB
FFF8
0002
0003
FFFC
0003
0006
0000
FFF8
0002
FFFC
FFF9
FFFA
0003
0002
FFF9
0005
FFFF
FFFC
0001
FFFD
FFFB
0002
FFFC
FFFF
FFFF
0000
FFFB
FFF8
0005
0002
0001
FFFB
0004
0007
FFFE
0005
FFF9
0007
0003
0006
0002
FFFD
0005
FFFC
0000
FFFF
FFF9
0006
0000
FFFA
FFFD
0007
0005
FFFC
0005
FFFC
FFFE
0004
0002
0003
0001
FFFF
FFFD
0004
0004
FFFB
FFFF
FFFB
FFFB
FFFF
0002
FFFD
0004
0003
0001
0003
0004
FFF9
0001
0001
0003
0001
0003
FFFE
FFFE
FFFA
FFFD
FFF9
0004
0002
FFF9
FFFD
0007
FFF9
FFFE
FFFC
0002
FFFA
0001
FFFE
0000
0000
0004
FFFF
FFFB
0006
0002
FFF9
FFFE
FFFF
FFFE
0002
FFFD
0006
FFFA
FFFD
0003
FFFD
0003
FFFD
0007
FFF9
0004
0003
FFFB
FFFD
FFFE
FFFD
FFFE
0000
0005
0004
0006
0000
0003
0001
0002
FFFA
0005
0006
FFFE
0001
0002
0002
FFFE
FFFB
0003
FFFE
0005
FFFF
0003
FFFD
0002
0007
FFFF
FFFC
0003
FFFA
0002
FFFB
0006
FFFD
0001
0004
0003
FFFB
FFFC
FFFC
0002
FFFC
0004
0003
FFFB
FFFD
0004
0004
FFFB
0005
0006
FFFC
0002
FFFB
FFFF
0004
FFFA
FFFA
0004
FFFA
FFFD
0000
0001
0005
0002
FFFB
0001
0004
FFFB
FFFB
0003
FFFB
FFFD
0007
FFFE
FFFE
0005
FFFE
0001
FFFE
FFFF
0002
0005
0001
FFFE
FFFF
0000
FFFA
0000
0001
FFF9
0002
FFFD
0001
0006
0003
FFFF
0003
0004
0000
0001
FFFD
FFFF
0000
FFFB
0005
FFF9
0005
FFFF
FFFA
FFFD
FFFA
FFFA
0005
FFFA
0006
FFFF
FFF9
0003
FFFD
0001
FFFF
0006
FFFC
0007
FFFE
FFFC
FFF8
0003
0007
0006
FFF9
FFFA
0000
0006
0004
FFFA
FFFD
FFFE
0003
FFFD
0004
FFFB
0004
0007
0003
0000
0007
FFFC
0002
FFFC
FFFB
FFFF
0001
FFFB
0005
FFFD
FFFF
FFFC
FFFE
0001
0000
FFFE
FFFB
0006
FFFF
FFFC
FFF9
FFFE
FFF8
FFFB
FFF9
FFFD
FFFB
FFF9
0003
FFFA
FFFE
0003
FFFD
FFF9
0003
0007
0007
0000
FFFA
0000
FFFC
FFFD
FFF9
FFFD
FFFC
0004
FFFF
0004
FFFB
0002
0003
0007
0006
FFF8
FFFF
0005
0005
FFFA
0002
0003
FFFF
0001
FFFA
0003
0003
0005
0005
FFFF
FFFF
FFFE
0002
0006
0002
0001
0001
0003
0007
FFFB
FFFA
0002
FFFF
0003
0002
0002
0002
0003
FFFF
FFFB
0003
0005
FFFE
0007
FFFE
FFFB
FFF9
0002
0000
FFFF
0001
0007
0004
FFFA
FFFB
FFFE
0003
FFF9
0000
FFFC
FFFD
FFFC
0006
FFFD
FFFD
FFFE
0004
0002
FFFE
0006
0001
0000
0007
FFFC
FFFD
FFFD
FFFC
0002
FFFD
FFFE
0005
FFFD
FFFB
0005
0004
FFFA
FFFD
FFFB
FFF9
0002
FFFA
0006
0001
FFFB
0005
FFFB
0004
0002
FFFA
0000
0006
0006
0005
0004
0001
FFFF
0006
FFFD
0003
0000
0002
FFFB
0001
0004
0002
FFFE
0004
0004
0005
FFFC
FFFB
FFFE
0000
0000
FFFA
FFFD
0005
0007
0004
FFFC
FFFD
0000
0003
0001
0001
0001
FFFA
FFFD
0003
FFFB
FFFE
0005
FFFA
FFFF
FFFF
FFFB
0000
0005
0000
FFFF
FFFA
FFFA
0005
0002
0000
FFFD
FFFC
FFF9
0005
0007
0003
0002
0006
FFFC
FFFF
0004
0003
0004
FFFF
0000
FFFC
FFFC
0004
0001
0002
FFF9
0007
0007
FFFE
FFFC
FFF9
FFFF
FFF9
0003
0007
0004
FFFC
0003
FFFC
FFFB
FFFF
0004
FFFC
FFFD
FFFB
FFF9
FFFA
0002
0004
FFFB
FFFB
FFFB
0001
0000
0001
FFFA
0003
FFF9
FFFC
FFFB
FFFA
FFFC
FFFF
0004
0006
0000
0004
FFFE
0000
FFFF
0006
FFFB
FFFD
0006
FFFC
0006
0002
0002
0006
0006
0006
FFFD
FFFB
0007
0003
0000
FFFC
0005
0002
FFFB
FFFB
FFFE
FFFE
0004
FFFC
FFFD
0005
0000
0005
0007
0003
FFFD
FFFB
FFFD
FFFB
0000
0005
0001
0001
0003
FFFE
0002
FFFC
0002
FFFA
0004
FFFB
FFFE
0007
0000
FFFA
FFF9
0002
FFF9
FFFA
0005
FFFC
0004
FFFE
FFFC
FFFD
FFFC
FFFE
0006
FFFC
0002
FFFC
FFFB
FFFD
0002
FFFC
0000
FFFF
FFFF
FFFC
0003
FFFD
FFFC
FFFE
0006
0000
FFFE
FFFE
FFFA
FFFA
0001
FFFB
FFFA
FFFA
FFFC
0007
0001
0006
FFFA
0001
FFFF
0003
0001
0005
0006
0004
FFFC
FFFA
0006
FFFC
0005
FFFA
FFFE
FFFC
FFFE
0000
0003
FFFE
0006
FFFF
0006
0004
0002
FFFC
0001
FFFB
0002
0004
0001
FFFC
FFFB
FFFF
0006
0005
0003
FFFE
0000
0000
FFF8
0000
FFFF
FFFC
FFFF
0004
0003
0006
0004
0003
0006
0004
0000
FFFC
FFFA
FFFD
FFFC
FFFB
FFFF
FFFC
FFFD
FFFC
FFFC
0002
FFFC
FFFB
FFFD
FFFA
FFFC
FFF9
0003
FFFD
FFFB
0007
0007
FFFE
0006
FFFB
FFFD
0004
FFFD
FFFD
0005
0000
0000
0003
FFF9
0006
0002
0004
0000
FFFE
0001
FFFB
FFFE
FFFF
0006
FFFF
0006
0000
FFFF
FFFA
0006
FFF9
FFFB
0001
FFFD
FFFB
0002
FFFC
0003
FFFB
0005
0004
FFFC
0000
0000
FFFD
0003
0001
FFFD
0006
FFFB
FFFF
FFFE
FFFD
FFFD
0001
FFFA
FFFD
0002
FFFE
0003
0003
0004
0003
0003
0004
0004
FFFB
0003
FFFF
FFFD
0003
FFFE
0006
0004
FFFD
FFFF
0007
0003
FFFB
0000
FFFD
FFFF
FFFF
0006
FFFD
FFFF
FFFE
0001
0002
FFFB
0000
FFFC
0001
FFFE
FFF9
FFFE
FFFD
FFFE
0002
FFF9
0007
FFFA
0006
FFFA
FFF9
FFFB
FFFB
FFFD
0002
FFFC
FFFD
0004
0005
0005
0000
0006
FFFB
FFFF
0001
FFFB
0001
0002
0005
0000
0000
0003
0001
FFFF
FFFE
0002
FFFB
FFFF
0004
FFFB
FFFB
0001
0000
0003
0005
0006
0001
0005
0003
0000
FFFD
FFFF
FFF9
FFFE
FFFC
FFFA
0002
FFFD
FFFA
0006
0001
0007
FFF9
FFFA
FFFB
FFFE
FFFA
FFFD
0003
FFFD
0004
FFFE
FFFB
FFF9
FFFA
FFF8
0003
FFFE
0006
FFFB
FFFE
FFFA
0006
0002
0005
FFFF
0002
0004
0000
0003
0000
FFFE
0004
0002
FFFD
0002
0004
0003
0006
FFFE
0007
0005
0001
0000
0003
0003
0003
0007
FFF9
FFFA
0001
FFF9
FFFC
FFFE
FFF9
FFFF
0004
FFFB
0005
0003
FFFD
FFFC
0003
FFFE
0003
0002
0005
0000
0000
FFFA
FFFD
0005
0003
FFFE
0004
FFFB
0002
0003
0002
FFFE
0006
0000
FFFA
0003
0005
FFFE
FFFA
FFF9
FFFB
0001
FFFC
FFFF
FFFC
0006
0005
0001
0003
FFFC
FFFB
FFFD
FFFB
0004
0000
FFFD
0004
FFFF
0004
0006
0003
FFFC
0006
FFFF
0002
0000
FFFF
FFFD
0006
0003
FFFB
0004
0002
FFFF
FFF9
0001
0001
0005
FFF8
FFFD
0001
0001
FFFB
0004
FFF9
0007
0001
0003
FFFF
FFFD
0001
FFFF
FFFC
FFFF
FFFB
0005
FFFE
FFFE
FFFA
0000
FFFE
FFFB
FFF9
0004
FFFD
FFFB
FFFF
FFFD
FFFF
FFFE
0005
FFFE
0005
0006
0000
0000
0003
FFFB
0000
0001
0006
0002
FFFD
0003
FFF9
FFFD
0001
0005
FFFF
0001
FFFA
FFFE
FFFC
FFFA
0000
FFFA
FFFE
FFF9
FFFA
0001
FFFD
0005
0001
0004
0006
FFF9
0005
0007
0000
0002
FFFA
0007
FFFD
FFFB
0000
FFFC
FFFE
FFFD
FFFB
FFFD
0003
0000
FFFA
0000
0002
0006
0002
FFFD
FFFD
FFFF
0005
FFF9
FFFB
FFFC
0005
FFFE
FFFE
FFFC
FFFB
FFFD
FFFB
0003
0001
FFFD
FFFE
0000
0002
FFFA
0006
0002
FFFB
0005
0001
0006
FFFB
FFFF
FFFB
FFFA
0001
FFFA
0004
0003
FFF9
FFFF
FFFF
FFFF
FFF9
0002
FFFA
FFFB
FFFF
0002
FFFF
0004
0002
FFFF
FFF9
FFFC
FFFB
0006
0004
0004
0000
FFFC
0006
0001
0006
FFFB
0007
0002
0007
FFF9
FFFD
0000
0005
FFFC
FFFA
FFFC
FFFC
FFFF
0001
FFF9
0004
0002
FFFF
FFFA
0003
FFFD
FFFC
0002
0006
FFFE
0000
FFFD
0002
FFFC
FFFE
FFFA
FFFF
FFFC
FFFD
FFFB
FFFF
FFFD
FFFA
0000
FFFB
0000
FFF9
0005
0004
FFFD
0003
0002
FFF9
0004
FFFF
0002
FFF9
FFFD
0006
FFFD
FFFD
FFFC
0005
FFFD
0006
0003
0006
FFF8
0002
FFFA
FFFA
0006
FFFF
0007
FFF9
0001
FFFC
0002
FFFD
FFFC
FFFD
0002
FFF9
0005
0001
FFFE
FFFA
FFFA
0003
0001
0004
0001
FFFC
0004
0007
0001
FFFF
FFFB
0002
FFFD
0004
0000
0005
FFFC
FFFE
FFFD
FFF9
0001
0006
0001
FFFB
0001
FFFE
0001
0000
FFFD
0003
FFFF
0003
0004
0000
FFFC
FFFE
0007
FFFC
FFFE
0002
0002
0001
0007
0005
0001
0004
FFFE
FFFD
FFF9
FFFA
FFFF
FFFA
FFFB
FFFE
FFFF
FFF9
FFFE
0002
FFF8
FFF8
0003
FFFF
FFFC
0003
0002
0003
0000
0002
0004
0005
0003
0006
0002
0006
FFFB
FFFF
FFF9
0001
0002
FFFE
0002
0002
FFFA
0004
0002
FFFD
0000
FFFD
FFFB
FFFC
0006
0007
0006
0000
FFFF
0006
0004
FFFB
FFFA
0000
0007
FFFD
FFFB
FFFE
0001
0005
FFFF
FFFD
FFFC
FFFF
0000
0002
0000
FFF9
0005
0005
FFFC
0001
0001
0004
FFFE
FFFB
FFFF
0001
0001
FFFF
FFFC
0005
FFFA
0000
FFFC
FFFB
0003
FFFA
0006
0004
FFFC
0003
0004
FFFC
FFFC
FFFA
FFFE
FFFA
FFFE
0003
0005
FFFE
0002
FFFE
0006
FFFE
FFF9
FFFF
FFFC
0005
0001
0003
0004
FFFF
0001
0002
FFFC
FFFE
0003
FFFC
FFFD
FFF9
FFFA
0004
0003
FFFC
FFF9
0005
FFFE
0005
FFFC
FFFF
FFFC
0007
0004
FFFF
FFFE
0001
FFFB
FFFB
FFFB
FFFC
FFFB
0003
0003
0001
0004
0006
0000
FFFD
FFF9
0003
0005
0004
FFFE
0006
0001
0000
FFFE
0000
FFFB
FFFD
FFFE
0003
0004
0005
FFFD
FFFA
FFFE
0006
FFFB
FFFD
0002
FFFC
0000
FFFD
0004
FFFB
0000
FFFA
0001
FFFF
FFFB
0000
FFFE
FFF9
FFFD
FFFF
0004
0002
0000
0000
FFFB
0006
0003
FFFF
0004
FFF9
0004
0001
0000
0003
FFFA
0006
FFFC
FFFD
FFFD
0000
0004
FFFB
FFFD
0000
FFFD
FFF9
0003
0006
FFFD
0000
FFFE
0005
0002
FFFF
FFFD
FFFE
FFFC
0001
0004
0004
FFF9
FFFF
FFFE
0004
FFFA
0004
FFFB
FFFA
FFFA
0006
FFF9
FFFE
FFFD
FFFF
0006
FFF9
0005
0004
FFFD
0006
FFFA
FFF9
FFFE
FFFF
0002
FFF9
0006
0006
0007
FFF9
0004
0002
0006
0003
0002
FFFA
0000
0006
0002
FFFE
FFFF
FFFB
0004
0000
FFFE
0000
0006
0005
FFFA
0005
0001
0006
FFFB
0001
FFFB
0001
0004
FFFC
0004
FFFF
FFFB
0006
0003
0000
FFFD
FFF9
0002
FFFD
FFFA
0000
FFFD
0000
0006
0005
FFFC
0002
0001
0003
0000
0005
FFFE
FFFD
FFFB
FFFE
FFFF
FFFB
FFFD
0001
0000
FFF9
0003
0001
0004
0005
0001
FFFF
FFFE
0007
0003
0003
FFFF
0003
FFFB
FFFB
FFFE
FFFB
FFFC
0006
0003
FFFA
FFFC
0002
FFF9
FFFD
FFFB
0005
0000
0004
0000
0005
0005
FFFF
FFFF
0002
FFFE
0000
0001
FFF9
0005
0007
FFFF
0004
0003
FFFE
FFFB
0004
0006
FFF8
0005
FFFD
FFFE
0006
0005
FFFE
FFFD
0001
FFFA
0002
FFF8
FFFE
0004
FFFF
0004
FFF9
0001
FFFA
FFFE
FFFA
0006
FFFC
0001
0001
0004
0002
0004
FFFD
0001
0004
FFFC
0001
0002
FFFA
FFFC
0004
0005
FFFD
FFFA
FFFD
FFFF
0004
0002
FFFB
0004
0003
FFFF
0006
0000
FFFF
FFFC
FFFD
FFFB
FFFE
0004
0003
FFF9
0000
FFFC
0003
FFFB
FFFB
FFFC
FFF9
0002
FFFC
0000
FFFC
0003
FFFC
0005
FFFE
0002
FFFC
FFFB
0004
FFFE
0007
FFFD
0004
FFFC
FFFC
0006
0006
0007
FFF9
0002
FFFD
0006
FFF9
0002
0001
FFFF
0005
0003
0002
0001
0001
FFFC
0006
0005
0002
FFFC
FFFA
FFFC
0000
FFFA
FFFC
0001
0000
FFFC
0001
FFFF
FFFB
0001
0002
0003
FFFF
FFFF
0004
FFFF
FFFC
0003
0007
FFF8
0005
0004
FFFB
0005
0004
0006
FFFC
FFF9
FFFB
0005
0000
0001
FFFD
FFF9
0006
FFF9
FFFF
FFFF
FFFE
0001
FFFF
0007
0006
0005
0006
FFFF
FFFD
0003
0002
FFFF
FFFA
FFFB
0001
FFFF
FFFF
0002
0003
FFF9
FFFE
0001
FFF9
FFFE
FFFD
FFFE
0002
0003
0003
0001
0000
0002
FFF8
FFFD
0002
FFF9
FFFF
0001
0003
FFFE
FFFF
FFFD
FFF8
FFF9
0002
FFF8
FFFF
FFFE
FFFD
0004
FFFD
0002
FFFD
0001
FFFB
FFFA
FFFF
0006
0004
FFFC
0005
0005
0000
0002
FFFB
0001
0000
0000
FFFD
FFFB
0007
FFFE
0004
0005
0002
0001
0006
FFF9
0001
0000
FFFB
0000
FFF9
FFFF
0004
FFF9
FFFE
FFF9
0003
FFFF
0003
FFFD
FFFF
0004
0005
FFFC
0000
FFFD
0002
0000
0001
0002
0005
FFFB
0004
FFFD
0005
0002
0005
FFFD
0005
0000
FFFD
0004
0000
0005
0003
FFFB
FFF9
FFFD
0000
FFF9
0001
FFFE
0000
0000
FFFF
0005
FFFB
FFFC
0001
FFF9
0001
FFFD
0001
FFFC
0000
0000
FFF9
FFFE
0000
0004
FFF9
0000
0003
0001
0001
0006
FFFF
FFFA
0006
0005
FFFF
FFFA
FFFF
FFFB
FFFD
0002
FFFA
0001
0002
0005
0007
FFFB
0006
0000
FFFC
0001
0003
0006
FFFB
0001
0003
0005
0001
FFFE
0003
FFF8
FFFC
0002
FFF9
0005
0003
FFFD
0004
FFFB
0006
FFFA
0003
0000
FFFA
0007
FFFC
FFF9
0006
0001
0000
0003
FFFA
FFFC
0003
0000
0005
0003
FFFB
FFF9
0002
FFFA
FFFA
0005
FFFA
0003
FFFA
FFF9
FFFC
FFFB
0001
0004
0003
0000
0007
FFFA
0001
0000
FFFB
0004
FFFE
0006
FFFD
FFF9
FFF9
0007
0007
0000
FFFC
FFFB
FFFF
0004
0001
0007
FFFB
0005
FFFE
FFFD
FFFF
FFFD
FFF9
FFFA
FFFE
0001
FFFB
0005
0007
0001
0006
FFF9
0002
FFFE
FFFE
FFFE
0004
0005
FFFE
FFF9
FFFC
0004
FFFE
FFFA
FFFB
0003
0005
0004
FFFF
FFFF
FFFA
FFFF
0006
FFFC
FFFB
FFFA
FFFC
FFF9
FFFD
0003
0007
0003
0002
0001
FFFE
0005
0000
0003
0003
0002
0000
0005
0006
0000
FFFF
0005
FFFA
0005
0005
FFFC
0001
0002
0001
FFF9
0000
0001
0003
FFFA
FFFD
FFFF
FFFA
0004
0006
0000
FFFA
0002
0007
0001
FFFE
FFF8
FFFA
FFFA
0001
0003
FFFC
0000
FFFC
FFFC
FFFF
0001
FFFF
0004
0002
0001
FFFC
FFFF
0004
0002
0000
FFFD
0003
FFFC
0005
FFFF
FFF9
0005
FFFC
FFFD
0006
0006
0005
FFF9
FFFE
FFFF
FFF8
0004
0000
0001
FFFA
FFFD
FFFF
0005
0003
FFFA
0005
FFFE
0000
0006
0000
0003
0004
0007
FFFB
0000
FFFA
FFFF
FFFD
FFFD
0005
FFFD
0006
FFF9
0006
0004
0004
FFFF
FFFD
FFF9
0002
FFFE
0003
0002
0000
0007
FFFB
FFF8
FFFE
0006
0001
0000
0001
0006
0001
0005
FFFE
FFFB
FFFE
0005
0003
0006
0002
FFFB
0004
FFFF
0001
0002
FFFB
0000
0001
FFF9
FFFF
FFFF
FFF9
FFFF
0001
0000
FFFC
FFF9
0004
FFFE
FFFC
FFFB
0004
0007
FFFB
0001
0006
FFFD
FFFE
0000
0001
FFFD
0000
0005
FFFC
0003
0002
FFFF
0002
0000
FFFC
0002
0002
FFFE
FFFE
0001
FFFC
0001
0005
0004
FFFB
FFF9
0005
FFFD
FFFE
0000
0005
FFFD
FFFD
0007
0003
FFFC
FFFF
0000
0005
FFFE
FFFB
FFFE
FFFE
0000
FFFD
FFFA
FFFA
0000
0004
0000
0003
FFFF
FFF9
0002
0006
FFF9
0005
FFFF
0004
0004
FFFC
FFFB
0003
FFFB
FFFE
FFFD
0005
0006
FFFA
FFFB
0004
FFFA
FFFB
0001
0007
0003
0003
0003
0003
0005
FFFF
FFFE
0006
0005
0001
0003
0004
0002
FFFC
FFFC
0001
0000
0002
0004
0001
0002
0005
FFFF
0001
0001
0003
FFFC
FFFD
0003
FFFC
FFFC
0001
0005
FFFD
0001
FFF9
FFFD
FFFF
FFFD
FFFD
FFF8
0006
FFFF
0000
0004
0003
0004
0004
0006
FFFB
0000
0005
FFFF
FFFC
FFF8
0003
0004
FFFE
FFFD
FFF9
0002
FFFB
0001
FFF8
FFFE
0003
FFFE
FFFB
FFFD
0005
0004
FFFE
0000
FFFD
FFFD
FFFE
FFFA
FFFF
0000
0006
FFFE
0005
FFFE
FFFA
0004
0005
0001
FFFB
FFFA
FFFD
FFFA
FFFE
0002
FFFC
0004
FFFC
FFFE
FFFC
FFFF
0004
0007
0004
0006
FFFB
0005
FFF9
0006
0002
0003
FFFA
0001
FFFD
FFFC
0005
0002
0006
0001
FFF9
FFFE
FFF9
0006
FFF9
FFFC
FFF9
FFFF
0002
FFFB
0003
0006
FFFF
FFFD
FFFC
FFFE
0001
FFFF
0004
0005
FFFE
0002
0006
FFFE
0005
FFFC
0003
0001
0000
0001
FFF9
FFFB
FFFC
FFFB
FFFD
0005
0000
0001
FFF9
FFF9
FFF9
0004
0006
0000
0000
FFFD
0005
FFFE
0005
0006
FFFE
0006
0000
FFFB
FFFD
0007
FFFC
FFFA
FFFD
FFFC
FFFC
0004
0005
0004
0001
FFFE
FFFB
0006
0003
0004
0002
FFFC
FFFC
0003
FFFA
FFFD
0006
0005
0005
0005
FFFC
FFFE
0001
FFFE
0002
0005
FFF9
FFFC
0000
FFFD
0004
FFFA
FFFF
FFFA
FFFF
FFFE
FFFD
FFFF
FFFF
0002
0006
FFFC
FFFF
0002
0004
0006
FFFA
0004
FFFF
0005
FFFB
FFFC
FFFA
0004
FFFA
FFFB
FFFE
0006
0001
FFFF
FFF9
0000
FFFB
FFFF
0007
0006
0004
FFFA
FFFE
0004
FFFA
0007
FFFF
FFFF
FFFB
0003
0006
0005
0000
0001
0005
FFFF
FFFD
FFFB
0002
0005
0003
0005
0003
FFF9
0004
FFFD
FFFC
FFFD
0003
FFFC
0003
FFF9
FFFB
FFFD
0000
0007
0004
FFFF
0007
0004
0000
FFFE
0006
FFFF
0000
FFFA
FFFA
FFFF
0000
FFFD
FFFE
FFFE
0000
FFFD
0007
FFFE
0006
FFFA
0002
0006
0004
FFFA
0002
FFFA
FFF9
0006
FFFE
0001
FFFB
0004
FFFD
0005
FFF9
0006
FFFE
FFFC
0006
FFFD
0002
FFFA
0005
0006
FFFE
FFFE
FFFD
0001
FFF9
0003
FFFE
0001
FFFF
FFFF
0006
FFF9
0003
0006
FFFA
FFFD
0000
FFFB
0003
0006
FFFE
FFFC
FFFA
0004
0002
0006
0002
FFF9
0000
FFFF
0006
0006
FFF9
FFFC
0003
0003
FFFD
0000
FFFD
0005
FFFF
0003
FFF9
FFFF
0001
FFFA
0002
FFFA
0007
0006
0000
FFFD
FFFA
0005
0006
0006
0001
0001
0005
0003
FFFA
0004
0003
FFF9
0000
FFFC
FFFC
FFFB
FFFD
FFFE
0004
FFFD
0007
FFFD
FFFB
FFFD
0005
FFFD
0001
FFFC
FFFC
0001
0003
0006
0007
0007
0000
FFFD
0007
0003
0005
0002
FFFC
FFFA
0002
0003
0002
FFF9
0001
0006
0001
FFF9
FFFE
0000
FFFC
FFFD
0003
0002
FFF8
FFFE
0003
FFFD
FFFE
FFFB
FFFA
0005
0006
0004
0006
FFF8
FFFB
0000
0006
0006
0003
FFF9
FFFE
0001
FFFA
0000
0005
FFFE
FFFC
0002
0003
0005
0003
0005
FFFF
0003
FFFA
FFFC
FFFE
0001
0001
FFFE
FFFF
FFF9
FFF9
0004
FFF9
FFFD
FFFF
FFFF
0005
0001
0005
0001
FFFE
0006
FFF9
0005
0005
FFF9
FFFB
FFF9
0007
0002
FFF9
0007
FFFB
FFFB
FFFC
FFFA
FFFF
0000
FFF9
FFF9
FFFF
0004
0004
0004
FFF9
FFF9
FFF9
0002
FFFB
FFFA
FFFE
0004
0003
0006
FFFE
0005
FFFA
0006
FFF9
0000
FFF9
0000
FFFE
FFFA
FFF9
FFFF
0002
0002
FFFE
0005
0004
FFFB
FFFE
FFFF
0000
FFFB
FFFC
FFFA
FFF9
0001
FFFF
FFFD
FFFC
0001
0005
FFFF
FFFC
FFF9
0006
FFFD
FFFF
0003
0004
0000
FFFE
0002
FFFD
0001
FFFF
FFFD
FFFD
0004
0006
0003
FFFA
0006
0001
FFF9
FFFC
0005
0002
FFFF
FFFE
0007
FFFF
0003
FFF9
FFFA
FFFF
FFFA
FFFE
FFFA
FFFF
FFFD
FFFA
FFFD
0002
FFFE
0003
FFFE
FFFA
0002
FFFB
FFFD
0000
0005
0006
FFF9
0007
0006
FFF9
FFFE
0002
FFFB
FFFE
FFFC
0006
0000
0006
FFFD
FFFF
FFFA
FFFE
0005
FFFD
FFFB
0001
0005
FFFA
0005
FFFB
0005
FFFE
0001
FFFC
0000
0006
0006
FFFA
FFF9
FFFE
FFFF
FFF9
FFFD
FFFB
0001
0000
FFFE
0005
FFFA
FFFF
FFFF
FFF9
0005
0001
FFFF
0006
0005
FFFD
0001
0000
0006
FFFB
0001
FFFE
FFFA
0007
FFFC
FFFB
0004
0004
FFFD
0006
0001
FFFF
0006
0005
FFFA
FFFD
FFFF
FFF9
0005
FFFA
0004
0004
FFFE
FFFB
FFFF
0004
FFF9
FFFD
FFFA
FFFE
0002
0001
0006
0006
0006
0005
0006
FFFA
0006
FFFC
FFFF
0001
0004
FFFE
0006
FFFA
FFFC
0001
FFFB
FFFE
0003
0002
0004
FFFD
FFF9
FFFA
FFFC
FFF9
FFFB
0006
0002
0004
FFFC
FFFF
FFF9
0004
0004
FFF9
FFFD
0004
FFFB
FFFF
0007
FFFB
FFFF
FFFB
0004
FFFB
0005
0000
0007
0006
FFFC
FFFA
FFFE
FFFB
FFFB
0005
FFFE
FFFF
0001
FFFD
0003
FFFB
FFFB
FFFC
FFFF
0002
FFF9
0000
0004
FFFB
0002
0003
FFFC
0002
FFFA
0002
FFFE
FFFA
0007
0001
FFFD
FFFB
0001
0006
0002
0003
FFFD
FFFA
FFFC
0000
FFFF
0002
0005
FFF9
0004
FFFF
FFFC
0005
FFFF
0005
0001
0001
FFFF
FFFF
0002
FFFC
0003
FFFF
0004
0006
0004
0006
0003
0003
FFFA
0000
0005
FFFD
0005
FFFE
FFFC
0004
0000
0005
0001
FFFB
0001
0004
0002
FFF9
FFFE
FFFB
FFFA
FFF9
0005
0003
0007
0004
FFFD
FFFC
0001
0004
0007
0002
FFFB
FFFD
0002
FFFB
0000
0005
FFFB
FFFD
FFFC
0002
FFFB
0007
FFFC
FFFC
0003
FFF9
FFFE
0002
FFFD
FFF9
FFFC
FFFC
FFFC
0002
0001
FFFC
FFFD
FFFA
FFF8
0004
FFFC
FFFD
0005
FFFA
FFFF
FFFF
FFFA
0006
FFFF
0001
0001
0004
FFF9
FFF9
0006
FFFF
FFFA
0007
FFFC
0005
FFFC
FFFF
FFFF
0003
0008
0007
FFFF
0000
0002
0002
0003
FFFD
FFFF
FFFD
0001
0003
FFF9
FFFF
0007
FFFF
FFF9
FFF9
FFFF
0002
FFFE
FFFC
0007
0002
FFFA
0000
FFF9
FFFD
0007
FFFD
0007
0004
FFFC
FFFB
0002
0001
FFFB
0001
0004
FFFD
0000
FFFB
FFFB
0004
FFFB
0001
0002
0003
0003
0006
FFF9
FFFA
FFFA
0007
FFFA
0004
FFFD
FFFE
FFF9
0002
FFFB
0006
FFFE
FFFE
FFF9
FFFE
FFFA
0002
0006
0001
FFFF
FFFF
FFF9
0004
FFFF
0001
0001
0004
0002
0006
0004
0004
0001
FFF9
0007
0003
0003
0004
FFFF
0006
FFF9
0005
0007
0005
0004
FFFE
0000
0002
0005
0003
FFFC
0002
FFFB
FFFD
FFFE
FFFE
FFFB
0006
0001
FFF9
FFFB
0001
FFFB
FFFD
FFFA
FFFC
0007
0000
FFFB
0002
0001
FFFD
FFFF
0006
FFF8
0005
0005
0005
FFFB
0003
0000
0005
0000
FFFA
FFFB
FFFE
FFF9
0004
FFF9
FFFA
0000
FFFC
0004
0005
0006
FFFA
0007
FFFA
0003
FFFC
0002
0003
FFFC
0001
FFFE
0000
0002
0003
FFF8
0000
0005
FFFA
FFFC
FFFF
0001
0003
FFF9
0005
0000
FFFC
FFFC
0000
0007
FFFC
FFFB
FFFD
FFFA
FFFF
0006
0002
FFFB
0001
0001
0003
FFF9
0005
FFFE
0007
FFFF
0004
0006
0005
0004
0006
0006
0000
FFFA
0006
FFFD
0006
FFFE
0005
0007
0006
0004
0004
FFFF
0001
0002
0001
0005
FFFD
0000
FFFC
0001
0003
FFFD
FFFC
0004
0003
0000
0005
FFFA
0001
0005
FFFF
FFF9
0004
0000
FFF9
FFFB
0005
FFFD
0003
0001
0007
0006
FFFD
0003
0007
0002
0005
FFFF
FFFE
FFFE
FFFD
0001
0002
0005
FFFF
0003
0004
0001
FFFB
0006
0004
0002
FFFB
FFFC
FFFF
FFFE
0006
0003
0001
0003
FFFE
FFFF
0002
0005
0002
0002
0007
0005
0005
FFFD
0003
FFFD
0002
FFFA
FFFC
FFFA
FFFB
FFFE
FFFE
0001
FFFE
FFFC
FFFD
FFFC
FFFD
0006
FFFD
FFFC
FFFD
0001
0001
0002
FFFD
FFFF
0007
FFFE
FFFB
FFFE
0001
0000
0002
0006
0007
FFFA
0004
FFF9
0000
FFFA
0007
FFFA
FFFF
FFFC
0000
0007
FFFA
FFFC
FFFE
0005
0005
0004
FFFE
FFFE
FFF9
0006
FFFE
0005
FFF9
0003
FFFA
FFF8
FFFD
FFFE
FFF9
0007
0007
0007
FFF9
0000
0003
0002
FFFB
0007
0005
0000
0006
0001
0003
FFFB
0007
0006
0004
0001
0003
FFFE
0004
FFFE
0003
0002
0003
FFF9
0004
FFFA
FFFC
0000
FFFB
FFFE
0003
0004
0005
FFF9
FFFD
0005
FFFC
0006
0004
0001
0004
FFFA
0001
0006
FFFD
0003
0007
0002
FFF9
FFFC
FFFD
0000
FFF9
FFFA
0002
0003
FFFA
0001
0005
FFF8
FFFA
FFFD
0002
FFF8
FFFC
0000
FFF9
FFFC
FFFC
FFFC
FFFB
FFFA
FFFD
FFFB
0000
0004
0004
FFFB
FFFC
0005
FFFB
FFFB
0002
FFFB
0004
0000
0002
FFFB
0005
0006
FFFE
0003
FFFF
0007
FFFB
0004
0004
FFFC
0002
0003
0001
0005
0001
FFF9
FFFC
FFFC
0006
FFFA
0006
FFFE
0000
0006
FFFB
FFF9
FFF8
FFFF
0004
0002
FFFB
FFFE
0006
0003
0007
0000
0000
FFFC
FFF9
0004
FFFE
FFFA
FFFC
0005
0006
FFFD
0005
FFFF
FFFB
0003
FFFC
FFFF
0001
0000
0001
FFF9
FFFB
FFFA
FFFF
FFFB
FFF9
0006
0002
0001
FFFE
FFFD
FFFF
FFFE
0007
FFFF
0007
0001
FFFC
0002
0003
FFFF
FFFD
FFFC
FFFA
FFFA
0006
0005
FFFD
0001
FFFC
0000
FFFC
FFFD
0004
FFFE
FFFA
0006
0006
0002
0001
0005
0003
FFFC
FFFA
0003
FFFF
0007
0007
FFFB
FFFD
FFFD
0000
0004
FFFE
FFFB
0005
0000
FFFC
FFFB
FFFC
0005
FFFB
0000
FFFA
FFFF
0005
0006
0003
FFFF
0006
FFF9
FFFB
FFFE
FFF9
0007
FFFC
FFFE
0005
FFFC
FFFA
0000
0003
FFFB
FFFF
0007
FFFA
FFFE
FFFF
0003
FFFF
0004
FFFD
FFFE
FFF9
0006
FFFF
FFFA
0004
FFFC
FFF8
0002
0004
0003
0003
0001
0000
0003
FFFD
FFFB
0004
FFFA
0006
FFFE
0004
FFFA
FFFF
FFFB
0000
FFFD
0007
0000
0002
FFFC
FFFF
0002
FFFE
FFFC
0002
0003
FFFB
0005
0000
0006
FFFF
0002
FFFE
0000
0004
FFFD
0003
FFFB
0002
FFFA
FFFB
0006
FFFC
0003
0006
FFFC
0004
0007
0001
FFFC
FFFC
FFFB
0005
FFF9
FFFD
0003
FFFC
FFFA
0000
0006
FFFE
FFFB
FFFA
FFFF
0003
FFF9
FFFB
FFFA
FFFF
0005
FFFD
FFFF
FFFE
FFFF
FFFD
0003
0001
FFFF
FFFC
0002
0002
0005
0004
0005
0004
FFFD
FFFD
FFFE
FFFD
FFFB
0000
0002
FFFA
0006
FFFC
FFFC
FFFE
0003
0006
0003
0007
FFFA
0003
0003
FFFD
FFFB
FFFA
0002
FFF9
FFFF
FFF9
0006
0003
FFFE
FFFE
0002
0005
FFFE
0003
0000
FFFA
FFFD
0003
0000
0004
FFFB
FFFF
FFFE
0004
FFFD
0005
0005
0002
FFFE
0005
0000
0005
0004
FFFC
FFFB
FFFA
FFFC
0003
FFF9
0005
0006
FFFE
FFFE
FFFF
0006
0004
0006
0004
0004
0000
0002
0002
FFFC
FFFB
FFFA
0007
FFFA
0006
0001
FFFD
0000
FFFA
FFFF
0004
0005
0005
FFF8
FFFF
0002
FFFC
0000
FFF8
FFFC
0000
FFFA
FFFF
0000
0003
FFFA
0002
FFF9
FFFB
0005
FFFD
0006
0002
0000
FFFD
0004
FFFF
0005
FFFC
FFFD
0007
FFFF
0006
0004
0005
0004
0007
0001
0003
FFFA
FFFE
0006
FFFA
0004
FFFA
0001
FFFF
0006
FFFD
0002
FFFB
0007
FFFA
0000
FFFA
0002
FFFD
FFFD
FFFE
FFFD
0004
0007
FFFF
FFFF
0000
0007
FFFA
0005
FFFB
FFFC
FFFB
FFFA
FFFE
FFFF
0004
0002
FFFB
FFFB
FFFF
FFFF
FFF9
FFFB
0004
FFFB
0005
0002
FFFC
FFFE
0005
0002
FFFE
0000
FFFA
FFFF
FFFB
FFFE
FFFD
0005
FFFE
FFFB
FFFA
FFFB
0005
0001
0001
FFFF
0003
FFFE
FFFC
0005
FFFA
FFFF
0006
0000
0004
FFFE
FFFA
FFFC
FFFF
0007
0003
FFFE
FFFA
0005
0006
0006
FFFA
FFFA
FFFD
0006
FFF9
FFFF
FFFC
FFFB
FFF9
FFFF
FFFA
FFFC
FFFE
FFFB
0000
FFFD
0000
0002
0005
FFFD
FFFE
FFFA
FFF9
0005
FFF9
0005
0005
FFFF
FFF9
0001
0001
0000
FFFB
0006
FFFA
FFFC
FFFC
0000
0002
0007
0003
0000
0007
FFFF
FFFB
FFFB
0003
0002
FFFE
0006
FFFE
0005
0002
0004
0003
FFFF
FFFD
0003
0004
0004
FFFF
0000
0005
0000
0003
FFFE
0002
0000
0007
0000
0005
FFF9
0001
FFFF
FFFB
0005
FFFB
FFFF
FFFF
FFFF
FFFC
0004
FFF9
0006
0006
0004
0006
FFFE
0005
0000
FFFA
0001
FFFE
FFFA
FFFD
FFFD
0007
FFFD
0002
0003
FFFE
0004
FFFF
0006
FFFD
0000
0000
0000
FFF9
0005
0002
FFF9
FFF9
0004
0002
FFF9
0001
FFFB
0007
0004
0005
FFFB
0004
FFF9
0005
0007
FFFF
FFFC
FFFE
FFFA
0000
0001
0000
0003
FFFE
0006
0007
0006
0004
0002
0000
FFFB
0003
0004
0008
FFFC
FFFB
FFFF
FFFC
0005
FFFE
FFF9
FFF8
FFFE
0004
FFFA
0003
0005
FFFD
FFFE
FFFC
0006
FFFC
0001
0001
FFFE
FFFA
FFFD
0006
0001
0006
0008
FFFB
FFFA
FFFE
FFFC
0001
0004
FFFA
FFFF
0001
0000
FFFD
0000
FFF9
FFFC
0003
0005
0005
0007
0004
0001
0004
0001
FFFC
0004
FFFC
FFF9
0007
0005
FFFB
FFFB
FFFA
0005
FFFB
FFFB
0005
FFFB
0002
FFFD
FFFB
0007
0006
FFF9
0000
0005
0006
0002
FFFA
0007
0000
0003
0004
0001
0006
0006
0002
0002
FFFE
0001
FFFE
FFFA
FFFA
FFFD
0001
FFF8
FFFC
0003
0002
0003
FFFB
0001
FFFE
FFFD
FFF9
FFFC
0001
FFFE
0002
0006
FFFD
FFF9
0006
FFFF
0001
0006
FFFF
0006
0002
0005
0001
0002
FFFB
FFFF
0001
FFFD
0006
0004
FFFF
0007
0007
FFF9
0007
0005
0002
FFFF
FFFA
FFFF
0002
0001
0003
FFFE
0005
0002
FFFA
0000
FFFC
0006
0004
0003
FFFD
FFFB
0005
FFFF
FFFD
0000
FFFC
FFFC
0002
0007
0003
FFFD
0002
0001
0005
0003
0003
FFFB
0007
0005
FFFB
0000
0003
0001
0002
FFFB
FFFC
FFFE
0001
FFFC
0007
0002
0007
FFFF
0003
0007
0004
0000
0004
0002
0006
0000
0001
FFFA
FFFC
FFFB
FFFA
0005
FFFE
FFFC
0000
0001
0002
0008
0007
FFFA
FFFA
FFFB
FFFC
0004
FFF9
0005
0003
0002
0005
FFFA
0005
0004
0003
0005
FFFF
0005
0007
0004
0006
0000
0002
0001
FFFB
FFF9
0004
FFFE
0002
FFFF
FFFA
0006
0007
0003
0004
0002
FFFD
0004
0005
0006
0003
0000
0000
0006
0007
FFFA
FFFE
FFFE
FFFC
0001
0006
0003
FFFB
FFFF
0000
FFFC
0005
FFFE
FFFD
FFFA
0003
FFF9
0002
0008
FFFB
0003
FFFC
0006
FFFA
FFF9
FFF9
0000
FFFC
FFFE
FFF9
0006
FFFD
FFFD
0000
FFFA
FFFE
0001
FFFE
0004
0003
FFF9
0001
FFFC
0003
0002
0004
0004
FFFB
0004
0004
FFFD
0005
0001
FFFF
0003
FFFF
0001
0004
FFFB
0002
FFFF
0007
FFFB
0000
0003
0003
FFFF
0005
0002
0000
0005
0002
0005
0004
0006
FFFD
0006
0001
FFFC
0009
0005
0001
0003
FFFF
FFFF
0002
FFFD
FFFD
FFFA
0002
FFFB
0005
0005
0000
FFFE
0003
FFF9
FFFB
0002
FFF9
0005
0002
0003
FFFD
FFFC
FFFC
FFFF
0005
0000
FFFE
0006
FFFE
FFF9
FFF9
FFF9
0006
FFFD
FFFE
0000
0001
0003
FFFA
FFFB
0001
FFFD
FFFE
FFFA
FFF9
0002
FFFC
FFFA
0002
0005
FFFC
FFFE
0000
0005
FFFF
FFFC
0001
FFFB
FFFF
0000
FFFB
0004
0004
FFFD
0000
FFFD
FFFD
0000
0000
FFFE
FFFE
0005
FFF8
FFFA
FFFF
FFFE
0004
0003
0002
0001
FFFE
0006
FFFE
FFFC
0006
0005
0006
0005
FFFF
0004
0002
FFFF
0007
0006
FFFD
0001
0002
0001
FFFD
0002
0001
FFFD
FFFC
FFFC
FFFE
FFFE
FFFA
FFFC
0005
FFFF
0002
0003
0003
FFFB
FFFE
0001
FFFB
FFFA
0005
0002
0000
FFF9
FFFC
0001
0005
FFFA
0000
0001
0003
0006
FFF8
FFFE
0001
FFFD
FFFF
0006
0003
0006
0000
FFFB
0001
0007
FFFB
0005
0002
0005
0003
0007
0003
0006
FFFD
0002
0007
0003
0002
0002
FFFD
0001
0000
0007
FFFF
FFFD
0002
FFFA
FFFE
0006
0002
0001
0002
FFFB
0001
0006
FFFC
0000
0001
FFFB
FFF9
FFFD
FFFE
0005
0001
0006
FFFC
FFFF
FFFB
0006
0005
0002
FFFC
0000
0008
0002
FFFC
FFFE
FFFD
FFFC
0004
FFFD
0003
0004
FFFC
0002
0005
0004
0007
FFFA
0004
