FFFF
FFF8
0006
FFFD
FFF6
FFF8
0006
0002
FFF8
FFFB
FFF8
0005
FFFF
0001
FFFC
FFFD
FFFA
0008
0002
0004
0001
0001
0006
0005
FFFD
FFFE
0004
FFFA
0002
FFFB
FFF7
FFF9
FFF7
FFF9
0002
FFFB
0007
FFFC
0004
FFFF
FFFC
FFFB
0008
FFFB
0004
0007
0001
0008
0007
0009
FFF7
FFFA
0000
0003
FFF6
0000
0009
FFFC
FFFA
0002
FFF9
FFF8
0009
FFF8
0000
FFFA
0002
0005
FFFC
0006
FFF9
FFF8
FFFE
0005
0001
0007
000A
FFF6
FFFD
0005
FFFF
FFFB
FFFE
0004
FFF7
FFF7
0000
FFFA
FFF8
FFFC
FFF8
0005
FFFD
0009
FFFC
FFFC
0004
0006
0002
FFFF
0000
FFF7
0004
FFFB
0002
FFFD
0007
0007
FFFB
FFFB
0002
0006
0001
0004
0005
0001
FFFD
0003
0004
FFFB
0008
FFF9
0008
FFFE
0007
000A
0008
FFF7
0004
0009
FFF6
0002
FFFD
0000
000A
FFF5
000A
0000
FFFB
0008
0003
0006
0003
FFFC
000A
0006
FFF9
0002
FFFA
FFFE
FFF6
FFF9
0004
FFFA
FFFC
0003
0009
0000
FFF9
0006
FFFF
0002
0006
FFFE
FFF8
0007
0001
0008
0005
FFFF
000A
FFFC
FFFB
FFFC
0003
FFF7
FFFA
FFF8
0007
0006
0009
FFF9
0004
0007
FFF7
0003
0007
0008
0004
FFF6
0009
0005
FFFC
FFF7
0009
FFF9
0001
FFFB
0008
0008
FFFC
0009
0009
0000
FFFD
FFFD
FFFE
FFF8
FFFB
FFFD
000A
FFFF
0008
FFF6
0001
0004
0004
FFF9
FFFB
FFF7
FFFE
FFFA
0006
000A
000A
0004
0007
0000
FFFE
0008
FFF9
FFFE
0000
FFF9
0001
FFF5
FFFC
0003
FFF8
FFFE
0003
FFFB
FFFB
FFFB
0003
FFFD
FFFD
0004
FFFA
FFF8
FFFA
0000
0008
0008
FFF9
0004
FFFE
FFFD
FFFC
FFF5
0008
FFFC
0003
FFFD
FFF9
FFF7
FFF8
0009
FFFB
FFFB
0003
0006
FFFF
0005
FFFD
000B
FFF7
0008
0005
FFFC
0009
0007
0005
FFFC
0002
0005
FFFB
0008
0000
0004
0006
FFFD
FFFE
FFF9
000A
0005
FFFE
0004
FFF8
0003
FFF9
0005
FFF9
FFF6
FFFC
FFFA
0002
FFFE
FFFF
0005
0001
FFF7
FFF9
FFF8
FFF6
0006
FFF6
0007
0006
0003
FFFD
FFFF
0008
0008
FFF6
0006
FFF8
0001
0001
0008
FFF9
0002
FFFA
0002
0001
0000
FFF8
FFF8
0007
0007
0008
0002
FFFF
FFF6
FFF6
FFF5
FFF6
FFFD
FFFA
FFF9
FFFB
FFFE
FFFF
FFFD
FFFA
0003
0007
FFF6
FFFC
FFF7
FFFD
0004
0000
FFF8
0000
FFF6
0007
FFFB
FFF8
0002
0006
0004
0006
0007
FFFE
FFFF
0002
0009
0001
0001
FFF9
FFFA
0001
0001
0004
0008
FFFD
0006
0001
0008
FFF8
FFFA
0001
0005
FFFE
0003
FFFA
FFFD
FFFF
0003
0001
0001
FFFA
0006
FFFD
0000
FFFF
FFF7
FFFD
FFFE
FFFB
FFF7
0002
FFF8
0006
FFF9
FFFE
0007
0000
0001
FFFA
FFFF
0004
FFF9
0002
0000
FFF6
FFF8
0006
FFF9
FFFC
FFFF
0006
0009
FFFD
0007
FFF8
0009
0002
0009
FFFE
0003
0003
0005
FFFB
0004
0001
FFFB
FFF8
0003
0009
FFFF
FFFA
FFFB
0005
000A
0008
0001
0009
0009
FFFA
FFF7
000A
0008
FFFD
FFFD
0004
0009
FFFE
FFFA
FFFB
FFFA
FFF8
FFFF
0003
FFFF
FFF9
0002
0003
FFF7
FFF8
0000
FFFA
FFF7
0006
0006
FFF9
FFF5
FFFB
0005
FFFA
0000
FFFA
FFFC
FFFD
FFF8
FFFE
FFF7
0000
000A
FFF9
0000
0006
0005
FFFB
0002
FFF8
0006
FFFA
0001
FFF6
FFFE
FFFF
0006
FFFF
FFFC
FFFE
0007
FFFA
FFF8
FFF9
0000
FFFD
0007
0000
0002
0005
0001
FFFE
FFF9
FFF8
FFF9
0008
0003
FFFD
FFFC
FFFC
0008
FFFC
0004
FFF6
0002
FFFD
FFFA
0001
0008
0002
FFF7
000A
000A
000A
0009
0000
0009
000B
FFFA
0009
0005
0002
FFFF
FFF8
FFFB
FFF7
FFFF
000A
FFFF
FFF7
0009
0006
0008
0007
0009
0007
FFFA
FFFB
FFFE
FFF8
0004
FFFD
0003
FFF6
FFF9
FFFC
FFFA
FFFD
FFFC
FFF9
FFFF
FFFC
FFFE
0002
FFFF
FFFA
0003
FFF9
0007
0007
0000
FFFF
FFF8
FFFF
0006
0007
0006
FFFD
0002
FFFC
FFFE
0007
0001
FFFF
0002
FFFC
0005
0007
0000
FFFA
0001
FFF8
FFFC
0008
0002
FFFF
0000
0006
FFF7
0005
FFF9
0000
FFFE
0006
FFF8
0005
0002
FFFA
FFFF
0003
0006
FFFD
FFFD
FFFA
FFFE
FFF9
FFFB
0004
0008
FFFE
FFFA
FFFC
0002
FFFF
FFFE
FFFB
0008
0001
FFF9
0001
FFF9
FFF7
FFFB
0000
0002
FFFC
FFFA
FFF6
FFFF
FFFC
0006
0002
FFFF
FFFA
FFFC
0000
0003
0004
FFFF
0002
FFFE
FFFC
0006
0007
0001
0002
FFFC
0000
FFFF
FFFF
0001
FFFE
0005
FFF9
FFFE
FFFD
FFF8
FFF8
FFFD
0002
0003
0007
0000
FFFD
0009
FFFA
FFFF
FFFA
0002
FFFD
0009
FFF9
FFF7
FFF8
FFF7
FFF8
0008
0001
FFFF
FFFC
FFFA
0006
0000
FFF9
FFF8
0003
FFFF
FFFC
0007
0004
0003
FFFE
0005
0001
FFF9
FFFD
0005
FFFD
FFF7
0006
0003
0007
0000
0005
FFFB
0003
FFFA
0009
FFF9
0009
FFFD
FFF9
FFFF
0001
0001
0008
0006
0009
FFFB
FFFA
FFFF
FFFD
0003
0008
FFF9
0005
FFFB
FFFB
FFF9
0000
FFFB
0004
0006
FFFE
0003
0007
FFFF
0004
0002
FFFD
FFFD
FFFA
0001
0008
0007
FFFA
0000
FFFA
FFFB
FFFC
FFFA
0000
FFFB
FFFA
0003
0001
0001
FFF9
0000
FFFB
FFF9
FFFD
0005
FFFE
0000
0000
FFF9
FFF9
FFF9
FFF9
FFFA
0004
FFFF
FFFD
0002
FFFE
FFFC
FFFF
FFF9
0004
0003
0000
FFF9
0005
0004
FFF9
0002
0001
0003
0004
0005
0001
0005
0008
0000
0006
0004
0005
0002
0004
FFFC
FFFF
0000
0002
FFFA
0005
0000
FFF9
0003
FFFD
FFFE
0008
FFFA
0006
FFF8
0005
0003
FFF9
FFF9
FFFE
FFFB
0000
0008
FFFB
FFFD
FFFF
0004
0006
0002
FFFB
0003
000A
FFF9
FFFD
0008
FFFD
FFF9
0001
0003
0008
FFF9
0005
FFF9
0008
0002
0002
0000
0002
FFFE
0001
0003
FFFD
FFFD
FFFC
0002
0001
0000
FFFB
0007
0006
0006
FFFD
0004
0008
FFFE
FFFA
0002
0007
FFFC
0007
FFFB
FFFC
FFF7
0002
FFFD
0006
0006
0007
0001
FFF9
0000
0003
FFF9
FFFC
FFFF
0003
0003
FFF8
0008
FFFA
FFF8
FFFD
0004
FFFE
0000
FFF8
FFF9
FFFE
FFFF
FFF9
FFFF
FFFA
0000
0007
0008
0003
0001
0001
0000
FFF8
FFF7
FFF7
0003
0006
0001
0007
0005
FFF9
FFF9
0009
0001
FFF9
0007
0000
FFF9
FFF7
0005
FFFE
FFFB
0007
0005
FFF9
FFFF
0009
0005
FFFA
FFFD
FFFE
0004
0001
0004
FFF9
FFFC
FFFE
FFFA
FFFF
FFFB
0007
FFFD
FFFA
0000
FFFC
FFFB
0002
FFFD
0000
FFFB
FFFA
FFFA
FFFE
0000
FFFE
0004
FFF8
0008
FFFA
FFFC
0009
FFFF
000A
0005
0001
0004
0001
FFFA
FFFF
0003
FFFC
FFFF
0002
0001
0006
FFFF
FFFD
FFFC
0005
FFF9
FFF9
FFFD
0003
FFF8
FFFC
FFFF
FFFF
0007
FFFE
0006
FFF9
FFFB
0002
FFF9
0007
FFFF
0008
0002
FFFE
0001
0002
0000
FFFC
FFFD
FFFF
0001
FFFD
FFFE
0007
FFF8
0008
FFFF
FFF8
0007
0008
FFFF
0007
FFF7
0007
FFFF
0007
0007
0007
0006
0002
FFFE
FFF7
FFFE
FFF6
0004
FFFB
0002
FFF8
0004
FFFA
FFF8
FFFA
FFF9
FFF9
FFFD
0008
0000
FFFE
FFFD
0002
FFF9
FFFC
FFFE
0003
FFF7
FFFD
0007
FFFB
0006
0003
FFFA
FFFB
0003
0003
FFFB
0007
0001
FFFD
FFFB
0003
0009
0004
FFFE
0004
0007
FFFA
0009
0007
FFF8
0005
0003
0002
FFFB
FFFA
0008
0003
FFFD
0003
FFFD
0008
FFFC
0009
0000
0004
FFFC
0008
0005
0003
FFFB
0001
0000
FFFF
0006
FFF8
FFFD
0002
0002
0004
0009
FFFF
0008
0001
0000
FFFC
0006
FFFC
0001
0004
0006
0005
0000
0002
0009
0000
FFFA
0004
000A
FFFE
FFFD
FFF7
FFFA
0003
000A
0000
FFFD
FFF9
0008
FFF7
FFFE
FFF8
FFFF
FFFD
FFFD
FFF8
0009
0007
FFFD
FFFB
0009
FFFE
0005
0009
0009
FFF6
0009
FFFB
0001
0000
0005
FFF8
FFFA
0003
0005
FFF8
FFFF
000B
FFF8
0007
FFFE
0000
FFFA
0008
FFFE
0006
0006
0003
0001
0009
0009
FFFF
0004
FFF9
FFFA
FFFB
FFFC
0000
0005
0000
FFF8
0005
FFFA
FFF9
FFFA
0007
0000
FFFB
FFF8
FFF7
FFFC
0002
FFFB
FFFA
FFFC
0008
FFFA
0005
0001
FFFC
0005
000A
FFFC
0003
FFFE
0001
0004
FFF8
0000
0008
0009
0003
FFFB
000A
0002
FFF8
000A
FFF7
0003
FFFC
FFF8
FFF9
0008
FFF9
0006
0004
FFFA
0005
0006
0000
FFFE
0008
0007
0004
FFF8
0006
FFFB
000A
0004
FFF9
000B
0009
0002
FFFE
FFFD
0002
0004
0001
0001
0004
FFF8
FFFB
FFFA
0000
0003
FFFD
FFFE
FFFA
0005
FFF9
0005
0005
FFFC
0000
0001
000A
0003
FFFB
0002
FFFA
000A
FFFB
000A
FFFA
0005
FFFC
0008
FFF6
0009
0005
0001
FFFA
000A
0008
0008
FFFB
FFFC
FFFB
FFFF
0006
0004
0004
0005
FFFD
FFFD
FFF8
FFFD
FFFA
FFFE
FFF8
0009
0007
FFFE
FFFB
0006
FFFD
0008
000A
FFFA
FFFF
FFF6
FFFA
FFF8
FFFA
0007
0003
FFFE
FFFE
FFFE
0006
0007
0001
0000
FFFB
FFFF
0007
FFFC
0003
0007
0005
0008
0002
0004
FFFD
0008
FFFC
FFF8
FFF7
0004
0000
0006
0001
FFF8
0007
0000
0007
FFFB
0008
FFFD
FFFC
FFFC
FFF6
000A
FFFB
0000
FFFD
0008
FFFC
0004
0006
0006
FFF8
FFF8
0000
FFFE
FFFE
FFFC
0003
0007
FFF9
FFFE
0004
0003
FFF8
0009
FFF7
0005
FFFF
0004
FFFC
FFF9
0004
FFFC
FFFA
FFFB
FFFA
000A
0007
0001
0006
FFF8
FFF7
0003
FFFC
000A
FFFE
FFF9
FFFE
0003
0005
FFFD
FFFA
0001
0003
0002
0005
FFFC
FFF6
0006
FFFA
FFF8
0001
0000
FFF9
0006
0008
0001
0004
0001
0002
0005
0003
FFF9
0006
FFFC
FFFD
0002
0009
FFF9
FFF6
FFF6
FFF8
0001
0007
FFF9
000B
0008
FFFE
0005
0007
000A
0003
FFFD
FFF8
0008
0009
0000
0004
FFF8
0001
0006
FFF9
0005
0009
0008
FFF5
FFFB
000A
0005
FFF8
0004
0002
FFF8
FFFB
0004
0000
0007
0009
000A
0005
FFF6
0001
0004
0001
000B
0005
0001
0007
FFFF
FFFE
0005
FFFB
0007
FFF7
0006
FFFF
FFF9
FFFA
0002
0009
FFF9
FFFC
0005
FFFF
0006
0008
FFF8
0009
FFFF
FFF8
FFFE
0008
0008
FFFD
FFFD
0006
0009
0005
0002
000B
0003
FFFA
FFF7
0003
FFFA
0008
0001
0006
0005
FFF7
0004
FFFD
FFFC
FFFD
FFF6
0005
0001
FFFF
0000
0005
0005
0007
0004
FFFD
0001
0003
0006
0003
0007
FFFD
FFF7
FFFF
0007
0001
FFFC
FFFA
000B
FFF9
0000
0002
0002
0004
0007
FFF7
FFFA
FFFC
0007
0003
0008
FFF9
0006
0002
0009
FFF7
0004
FFFF
0002
FFFD
FFF8
FFFD
FFF7
0007
FFF9
0005
0005
0005
0009
0003
0006
FFF9
0001
0000
0007
0003
FFFE
0005
0006
FFFF
0007
FFFE
FFF9
0007
FFFB
FFFD
FFF6
FFF9
FFF7
0007
FFFD
0007
0005
FFFE
FFFC
0000
FFF7
0004
0009
FFF9
FFFE
0005
000A
0009
0006
0004
0008
0001
FFFA
0006
0004
FFFD
FFF6
FFFC
0008
0005
FFFA
FFFE
FFFD
0000
FFFA
0001
0000
0005
0003
FFF8
0003
FFFD
FFFC
0003
FFFD
FFF9
0005
FFFB
0007
000A
FFFD
FFFE
FFFE
0007
0005
0002
FFFA
FFFB
000A
FFF7
0008
0003
0007
0006
0002
000A
FFF9
0007
0002
FFFC
0004
FFF7
0000
0004
0003
FFF7
0002
0004
000A
0000
0000
FFF7
000A
FFF9
0000
0001
0005
FFF8
0004
0002
0002
0003
0002
0009
0002
0003
FFFF
FFFF
0001
FFFC
0000
000A
FFF8
FFFD
FFFF
000B
FFFB
FFFD
FFFB
FFFB
FFFE
FFF8
0001
FFF8
0004
FFFA
FFFC
FFFD
FFFC
FFF9
FFF9
FFFF
FFF9
0000
FFFA
0003
0007
0004
FFFA
0005
FFFC
0007
FFFA
0002
0003
FFFB
0006
FFFB
FFFC
0002
FFF7
0007
0006
0003
FFFF
FFFC
FFFD
0005
0006
FFFA
0004
0004
0001
FFFF
0001
0003
0000
FFFE
0006
0004
FFF6
FFFC
0007
FFFB
FFF8
FFFA
0000
FFFF
0006
FFF8
FFFB
FFFE
FFFE
0004
FFFA
FFFB
0002
0009
0005
FFFB
0003
FFFF
0007
0008
0008
FFFF
0003
FFFC
FFFB
FFF8
FFFD
FFF9
0008
FFFD
0002
FFFD
FFF6
FFF5
0002
0001
0007
0007
FFF9
FFF9
0005
0006
0003
FFF8
0003
FFF6
0007
0000
FFF7
0008
FFFF
0009
0007
0002
FFFD
000A
0002
FFF9
000C
FFF8
FFFB
0002
0006
0005
0005
FFFA
FFFC
0008
FFFA
0006
0000
0006
FFFB
FFF8
FFFD
0009
FFF7
0002
0008
FFFD
FFF9
0001
FFF7
FFFF
FFFB
FFFF
0002
0007
0006
FFF6
0004
FFF7
FFF6
FFF8
0002
0002
FFFC
FFFD
FFFE
0005
0002
FFF9
0000
FFFE
0003
FFF7
0005
0008
0005
FFFA
FFFA
0009
0004
000A
FFFC
FFF7
FFFE
FFFC
FFF8
FFFB
FFF9
0006
0006
0008
FFFF
FFFB
FFFD
0006
0000
0002
FFFA
0006
FFFD
FFF6
000A
0001
0001
000A
0005
000A
0001
0000
FFFD
FFF6
0007
0007
0008
0003
0005
FFF6
0006
0001
0009
0003
FFFB
0009
FFFE
FFFE
FFFE
0004
FFF7
FFFD
0001
FFFD
FFF6
FFFB
0005
FFFD
FFF8
0005
FFF7
0007
0004
0008
0008
FFF7
FFF8
FFFE
0000
000A
FFFD
0004
0008
FFFD
FFF9
FFFC
FFF7
FFFA
0009
0007
FFFA
0001
FFF6
0000
FFFC
FFF7
0001
FFF9
FFFF
FFFE
0007
0008
FFFD
0002
0009
0004
0008
FFFB
0004
000A
0005
FFF9
0006
FFF7
0003
FFFB
0007
0004
0007
0000
000A
FFFB
0005
0008
FFFE
0006
0001
000A
0004
FFFE
0007
FFFB
FFF7
0000
0009
0003
FFF9
0008
FFF7
0000
FFFA
0008
FFFC
0005
FFFF
FFFA
0005
0000
FFF6
FFFB
FFFC
FFFE
FFFC
FFFD
0009
FFF9
FFFB
FFF8
0007
FFFE
FFFC
FFF8
0004
FFFB
FFFD
FFFD
0006
FFFA
000A
FFFD
FFF9
FFFF
0004
0004
FFFE
FFFC
FFFD
0005
0001
FFFE
FFFB
FFFB
FFF6
0009
FFF8
0008
FFFC
FFF6
FFF7
0000
FFF8
FFFF
FFF8
0006
0006
FFF9
FFFE
0008
FFF7
FFFA
FFFD
FFF7
FFFD
FFF8
0000
FFFF
0005
FFFC
0004
FFF9
0005
0008
0006
0008
0009
FFFE
0007
FFF6
FFF9
0003
FFFB
0001
FFFB
0004
0003
0005
0005
0000
0006
FFF9
FFFA
0003
FFFB
0003
FFF9
0007
0004
0008
FFFA
FFFA
0006
0003
FFF6
0003
FFFE
0000
FFF6
0002
FFF7
FFFE
0006
0005
FFFA
FFFE
0000
0000
0007
FFFB
FFF8
0005
FFFA
FFFA
FFFB
0002
0006
0001
0009
0000
FFFD
0002
0006
0008
FFF9
0008
0000
FFF9
FFF8
0009
0000
FFFA
FFF9
FFF9
FFF5
FFFE
0006
FFFC
FFFC
FFF9
0003
0005
FFF7
FFFA
0008
FFFB
0005
0004
0001
FFFF
FFF6
0005
FFF7
0007
0007
0000
FFF7
0000
FFFE
0002
FFF8
FFFE
0000
FFFB
0005
0005
0009
0000
0005
0000
FFF9
FFF8
FFF6
0007
0005
0000
FFF8
000A
0003
FFFA
FFF6
FFF6
FFFF
0007
0009
FFFB
FFFC
0006
FFFD
FFF7
0001
0008
0007
0009
0007
0006
0007
FFFC
0000
FFFC
0004
0006
FFF6
FFFF
FFFD
FFF9
FFF9
000A
0009
FFFE
0002
FFFE
FFFD
0003
0009
0001
0001
FFF8
0003
FFFD
0006
FFFD
000A
FFF9
FFFB
0005
0005
FFF6
0004
0008
FFF8
0006
0000
0004
0001
0004
0005
000A
FFF6
0007
FFFA
0008
0004
FFFD
FFFB
0003
0009
FFFC
FFFB
0003
FFFC
0004
FFFB
0006
0009
FFF9
0000
FFF8
0003
FFFE
0003
FFF8
0006
0002
FFF8
0008
0004
FFFC
0001
0006
FFFC
FFFA
FFFB
FFFE
0008
0008
0001
FFF7
FFFB
FFFB
FFFF
0006
0005
0000
FFFA
FFFE
0002
0001
FFFC
FFF7
0008
FFF8
FFFE
FFF9
FFFA
0002
0003
FFFB
0006
FFF7
FFFD
FFF7
0008
0006
FFFB
0008
FFF8
FFFD
FFF7
0009
FFFE
FFFE
FFF9
0007
FFF8
FFFB
0008
0002
FFF7
0009
FFFE
0009
FFFA
0007
0003
FFFF
FFFE
FFFA
FFF6
FFF8
FFFD
FFF7
0007
FFF9
FFFA
0004
0008
0009
FFFE
FFF8
FFFD
0006
FFFC
0002
FFFC
FFFC
FFFB
FFF7
0002
0003
FFFD
FFF9
FFFC
FFFC
FFF8
FFFD
0006
0008
0005
0006
0001
FFFF
0000
FFF7
0002
0004
FFFE
FFFC
FFFA
0001
0003
FFF5
0005
0009
0006
0003
FFF9
0001
FFF7
0009
FFF9
FFFE
0004
FFFE
FFFE
FFFF
FFF9
FFFF
FFFC
0002
FFFB
0001
000B
0001
FFFE
FFFC
FFFB
FFFF
0005
0002
FFF9
0005
0000
0002
0004
0005
FFFC
FFFA
FFFF
0009
0009
FFFB
0005
0002
0008
0003
0009
0008
FFF9
0003
0002
FFFE
FFF7
FFF6
FFF8
FFF9
FFF5
0007
FFFC
FFFA
0003
0004
0001
FFFC
FFFF
0000
0008
0001
FFFB
FFFD
0008
FFF8
FFF8
FFFB
0006
0001
FFFE
FFF8
FFFB
0007
0007
0006
FFF7
FFFC
0007
0007
FFF6
0008
0007
FFF7
0007
FFF9
FFFE
FFFA
0001
0000
FFF9
0003
FFFA
0005
0008
FFF7
FFF6
0000
0009
0000
0003
0009
FFF9
0008
0002
FFFA
0004
FFFF
FFFE
0001
FFFD
FFFA
FFFD
0002
0009
0009
0008
FFF8
0000
FFFE
0007
FFFB
0000
0004
0003
FFF8
0004
0001
FFF9
FFF8
0000
0003
0008
FFFF
0002
0001
0006
0003
0005
0009
FFFF
0008
FFFF
0009
0005
0005
0001
FFF7
000A
0009
FFF7
FFFD
0005
FFFD
FFFE
0009
0000
FFFB
FFFD
0008
FFF8
FFF7
0003
FFFA
0000
FFFF
FFF8
0002
0004
0003
FFFF
0004
0007
FFFF
0008
FFF8
0005
FFFD
0007
0009
FFFF
FFFD
0006
FFFD
0009
0005
0007
FFFF
FFFE
0000
0006
0005
0006
FFFC
0003
FFFB
0000
FFFB
0002
FFF9
0000
FFFD
FFFD
000A
0009
000A
000A
FFFF
0005
0005
0000
FFFF
0001
0007
FFFA
0000
0009
FFF8
0001
FFFB
FFFE
0000
0006
FFF6
FFFD
0008
FFFB
FFFA
FFF6
FFFD
0006
FFF8
0007
0007
0001
FFF9
0006
0003
FFF9
FFFD
0000
FFF7
FFFB
0005
FFF9
FFF5
FFFE
0003
0001
FFFC
000A
FFF6
FFFB
0006
FFF9
FFFC
0002
0006
FFFD
FFFC
0008
0006
0005
0005
0005
FFFE
FFFF
FFF9
0006
FFFC
FFF9
FFFC
FFFB
FFFB
0006
FFF7
FFFE
0005
0001
FFFD
FFF6
0006
0007
0004
0005
FFFD
FFFF
FFF6
FFF9
FFFD
FFFC
0001
FFF8
FFF6
FFF8
FFFB
0009
0000
0008
FFF8
FFFF
FFFE
0006
FFFC
0003
0003
0000
000A
0007
FFFD
0003
0007
0006
0000
FFF6
0002
FFF6
FFF9
0005
FFFB
FFFB
0000
0003
0009
000A
FFF8
FFF9
0003
FFF6
0008
0006
FFF7
FFFA
0004
0008
0006
FFFF
0009
FFFE
FFF8
000A
0009
000A
0003
0003
FFFD
0003
FFFE
FFFA
0007
0009
0009
FFF8
0001
FFF8
0009
0006
FFFB
FFF6
0006
FFFC
FFFF
FFFC
0006
FFF6
FFF7
FFFD
FFFF
0001
FFF9
0000
FFFB
FFF5
0009
0006
0007
0008
FFFF
FFFE
000A
0001
0007
0005
000A
FFFD
FFFF
FFFC
FFF7
FFFB
0001
FFF9
0007
FFF9
FFFD
0003
FFFE
0004
FFFE
FFFB
0008
0003
0003
FFF7
FFFD
0003
FFFB
FFF6
FFF8
0003
FFFA
FFFC
FFFD
0002
FFF8
0006
0003
FFFF
0002
FFFF
0003
FFF7
0007
0000
FFF8
0004
FFFA
0004
FFFE
FFF9
0003
0005
FFFD
FFF7
0004
0000
000A
0001
0008
0006
FFF7
FFFD
000A
0007
0006
FFF5
FFFA
0009
0003
FFF9
0001
0000
FFFC
0007
0004
0007
FFFC
0000
0004
0000
FFFC
000B
0006
FFF9
FFFF
0000
0000
0007
0007
0002
0008
FFFD
0005
FFFE
0009
0008
0006
FFFB
FFFE
FFFA
FFF9
FFFD
0001
0005
0002
FFF6
FFFC
0006
FFFC
FFFD
0007
0004
FFFE
FFFA
0007
0003
FFFE
FFFD
0005
FFF8
FFFB
0003
0001
FFFC
FFFF
0006
FFFA
0006
0006
0002
0005
000A
FFFC
FFFF
FFFA
FFF6
FFF7
0002
FFFE
FFF6
0007
0002
FFFE
FFF8
0005
FFFB
FFF8
0003
FFFA
FFFD
FFFA
FFF6
FFF9
0002
FFFD
0005
0000
0007
FFFC
0003
0001
FFF7
FFF7
FFF6
FFFF
FFF8
FFF9
FFFF
FFFF
0008
FFFF
0006
FFFB
FFFE
FFFF
0000
0002
FFFC
FFF4
FFFB
FFFB
0004
FFFE
0008
0000
FFF7
0008
0000
FFFA
FFFE
0009
0002
FFF7
FFFD
0005
FFFD
0009
0007
FFF8
0004
FFFF
FFFA
0008
0002
0001
0007
FFF6
0002
FFFD
0004
0009
0000
0003
000A
0009
0006
000B
FFF8
0008
0005
FFFE
0009
0003
FFF7
0005
0007
0002
FFFD
0000
FFFE
FFFE
FFF9
FFFD
FFFC
FFF9
FFFF
0002
0009
FFFA
0007
FFF9
0003
0009
0001
FFFA
0003
000A
FFF6
0004
0008
FFF7
0000
FFFC
FFF9
0007
0007
FFF9
0009
0004
FFFA
FFFF
FFF9
0001
0007
FFF7
FFF8
0005
0000
FFFB
FFFA
0008
FFFE
FFFF
000A
0003
FFF9
FFFD
FFFD
FFF9
000A
FFFF
FFF7
FFFE
0007
FFFA
FFFE
FFFA
0007
FFFF
FFFE
FFFB
FFFE
FFFC
0008
0000
0009
0001
0004
0001
0000
FFFF
FFF7
0005
FFF9
FFFA
0001
FFFF
0003
0006
FFF8
FFFC
FFFB
0008
0005
0009
FFFE
0009
FFFB
FFF7
FFFE
FFFF
FFFC
FFFE
0009
FFFF
0009
FFF9
0000
FFFC
0003
FFF5
FFFF
FFFC
0005
0008
0000
000A
0002
FFF8
0007
FFFA
0002
0006
FFFF
0008
FFFE
0000
0006
0006
FFFB
0001
FFFF
FFFF
FFF6
0007
0003
0005
FFF6
0007
FFFB
0006
0004
000A
0001
0000
FFFC
000B
0001
0000
0000
FFF6
0007
0005
FFF9
0008
FFF8
0004
FFF6
FFFF
FFF6
0000
FFF5
FFF5
0008
FFFA
0005
FFF9
FFF8
000A
0009
FFFF
0000
0002
FFFB
0007
FFF7
FFFD
FFFC
FFF8
FFF9
0003
FFF7
FFF8
FFF5
0006
0003
FFF8
FFFC
FFFC
FFF9
0001
FFF6
0002
FFF8
FFF6
FFFA
0000
0002
FFFF
FFFC
000A
FFFF
0006
FFFC
FFF7
FFF9
FFF6
FFFF
FFF7
0008
0006
0003
FFF6
FFFB
FFF6
0007
FFFA
FFFD
0005
FFFD
000A
0007
FFF9
0009
FFFE
FFFA
0002
FFFB
FFFF
0007
0003
FFF9
FFFC
0000
FFFB
0005
0001
0005
0006
000A
0006
0003
FFFC
FFFC
FFF8
0007
0008
FFFE
FFFE
0004
0004
FFFB
0004
FFFF
FFF6
0009
0004
FFF7
0004
0007
0002
0003
0006
0001
FFFB
0000
FFF9
000A
FFFB
FFFE
0007
FFFD
0002
0000
FFF8
0000
FFF7
FFFF
FFFF
0000
FFFA
0006
FFFF
FFFC
FFFA
0003
FFFB
FFF6
FFF6
0004
0006
0006
FFF9
0001
0000
0004
FFF7
FFFF
FFFD
0001
0008
FFF7
0002
FFFE
000A
FFF7
0004
FFFB
0008
0009
0008
0005
0004
FFFE
FFFA
0002
0002
000A
FFFC
FFF8
0000
0003
0000
0004
FFFD
0002
FFFD
FFFD
0004
0009
0000
FFFB
0000
0003
FFF9
FFF9
0006
0009
FFF8
0005
FFF5
0006
0005
0006
FFF7
FFFD
FFF8
0002
FFFB
0003
FFF8
0007
0000
FFFC
0001
FFFB
FFFC
0007
0004
FFF8
FFF9
0005
0001
0000
FFFD
FFF7
FFF7
0002
0007
FFFA
FFFE
FFFA
FFFD
FFFD
0002
0003
0001
0006
0003
FFF7
FFFC
FFF7
FFF8
0008
0006
FFFB
0000
0004
0002
0007
FFFC
0006
FFFF
0000
0000
FFF7
FFFC
FFF6
FFFE
0007
0001
0008
0004
FFFD
FFFA
0008
000A
0003
0001
0007
0005
0004
0001
FFFA
FFFA
FFFB
000A
0002
0004
FFFC
FFFF
0002
FFFD
0005
FFFD
0001
0007
0000
0005
FFFD
0002
0005
FFF8
0007
FFF7
FFFA
FFFB
FFFA
FFF8
0008
FFF8
0003
FFFD
0004
0005
0005
0002
FFF8
FFF7
0001
0005
FFFA
0005
0003
000B
0003
0004
0005
0007
0007
FFF7
0006
0003
FFF8
0007
0005
FFFE
0001
0009
FFFC
0005
FFFA
0006
0004
0006
0002
FFF9
FFF8
FFFD
0002
0007
0002
0005
0005
FFF9
000A
0003
FFFF
0009
0003
0005
0001
FFF9
FFFF
FFF9
FFF8
0008
0005
FFFB
FFFC
FFFA
000A
FFF8
FFF9
0005
FFFF
FFF9
FFFC
FFF9
0002
FFFF
0007
FFF9
FFFD
FFFD
FFFD
0006
FFFA
FFFF
0004
0007
FFF8
0006
FFFC
FFFD
0009
FFFD
0000
0000
FFFE
FFFF
0007
0008
FFF9
FFFF
000A
0004
0005
FFFB
0002
0004
FFFB
0000
0001
0003
0008
0007
0009
0006
0007
0007
0002
FFF8
000A
FFF7
0000
FFFD
0006
0003
FFF9
000A
0002
FFFB
FFF9
FFFD
FFFD
0008
0008
0001
000B
FFFB
0004
FFFD
FFFC
0004
0006
0006
FFFC
0003
0005
0006
0006
FFFA
FFF6
0008
FFFC
0005
FFF9
0006
0009
0007
FFFA
FFF6
000A
FFFD
FFFF
FFFF
FFF7
0008
0006
FFF8
0000
0001
FFFE
FFFD
FFFB
0006
0006
FFFB
FFFF
FFF7
0001
FFFD
0004
FFF8
FFFD
FFFF
FFF9
FFF6
0000
0008
0002
FFF6
FFF7
0002
FFF6
FFFC
0004
FFFC
0000
FFFA
FFF9
000A
FFF8
0008
0008
0005
0006
FFF8
FFF7
0000
0002
FFF8
0001
0003
FFF8
0007
FFFC
0003
0002
0006
FFFB
0005
FFF9
FFFF
0003
FFF7
FFF6
FFFB
0001
0002
0001
0007
0009
0007
0001
FFFE
0008
FFF7
FFF7
FFF9
FFFF
FFFC
FFFF
FFF6
FFFA
FFF7
FFFB
0007
FFFE
0006
FFF9
FFFF
FFF7
FFFF
FFFA
0008
0004
0004
0000
0001
FFFD
FFFE
000A
FFFB
FFFA
0001
FFF7
FFF8
FFF7
0002
FFFA
FFF9
FFF9
FFFE
FFFD
FFFA
0002
0001
FFFA
FFFF
FFF8
0003
0005
0003
0000
FFFC
FFF8
0001
0001
0002
FFF6
FFFF
0000
0004
0003
FFF9
FFF8
FFF9
000A
0007
0004
FFF8
0007
0003
FFF9
0008
FFFE
FFFB
0003
FFFB
0006
0007
FFF8
0001
FFFC
0005
FFF9
0006
FFFF
FFF6
FFFE
FFFF
0004
FFFD
0005
FFFA
000A
0004
000A
0009
0007
FFFE
FFFD
FFFF
FFFF
0008
FFFA
0006
0005
0004
FFF7
FFFA
0006
000A
0000
FFFF
0002
0007
FFFE
FFF9
0000
000B
0007
000A
FFFF
FFFA
0009
FFF7
FFF9
0003
FFF6
FFFB
FFFB
0007
0001
FFFE
0001
0006
FFFE
0005
FFFD
0003
0007
0002
0007
0001
0009
FFF9
0001
FFFE
0008
FFFA
0000
0004
FFF9
0004
0006
0005
0006
0001
0009
FFFE
0008
0007
FFFE
FFFF
0006
0000
0006
FFF9
000B
0001
FFFE
FFFE
FFF9
FFF9
000A
0006
0003
FFF9
FFFC
0005
0005
0004
FFF8
0008
0002
0004
0006
FFFB
0004
0002
0005
0006
0002
0008
FFFE
0008
FFFB
FFFA
FFF6
FFFA
FFFD
0008
FFFF
000A
FFFB
FFFC
0001
FFFD
0007
0007
FFFA
0006
0005
FFFB
0009
FFFF
0009
FFF7
0001
FFFB
0001
0008
000A
FFFF
0007
FFFD
000A
0002
0001
0008
0007
0004
FFFD
0005
0007
0005
FFF8
0009
FFFE
FFFB
FFF9
0007
0007
0008
000A
0003
0003
FFFE
000A
FFF6
FFF8
FFF7
FFFA
0003
FFF7
0003
0002
0001
0002
FFF9
000A
000A
FFF6
0002
0002
0006
FFF7
0004
FFFD
000A
FFFD
FFF7
FFFD
FFF7
0006
0008
FFF7
000A
FFF8
FFFA
FFFC
FFFE
FFFA
0007
FFFA
FFF7
0001
FFFF
FFFC
0002
0004
0003
0007
0003
0001
0006
FFF9
0009
0005
FFFD
0003
FFFA
0006
0002
000A
0003
0007
0006
000A
0009
0003
FFFB
0007
0004
0001
FFF7
0006
0008
0008
FFF8
0008
0004
FFFB
FFFF
0004
0005
0007
0005
0005
000A
0001
FFF7
0004
FFFF
0006
FFFD
000A
0000
FFF9
FFFE
FFFA
FFFD
0002
FFF9
0005
FFF9
000A
0000
FFFE
0004
FFF7
0003
0008
0007
0003
0009
FFFC
FFFE
FFFA
0004
FFFC
0007
0001
FFFC
000B
FFFF
FFF8
FFF7
0000
000A
FFFA
0009
FFFD
0006
FFFC
FFFB
0008
0004
0000
0007
0007
FFFB
0009
FFF9
FFFB
FFF9
0003
FFFB
FFF8
FFFE
0005
0007
FFF8
FFFB
0005
FFFF
0006
0006
0009
0002
0005
0002
000A
FFF8
000A
0006
FFF7
0000
FFFA
FFFF
0006
FFFF
0002
FFFE
0003
FFFC
0007
FFF8
0009
FFFB
FFFA
FFFF
FFF8
FFFD
0002
FFFD
FFFF
FFFE
FFFE
FFF9
0005
FFFC
0009
FFFD
0005
0003
0001
FFFE
0008
0000
0001
0004
0008
0008
0002
FFFA
0008
FFF8
0001
FFFB
FFF9
FFFD
0005
FFFD
0008
0009
FFFF
FFFF
0004
0008
FFF8
0004
FFFE
0000
FFF7
FFFD
0000
FFF7
0007
FFF5
FFFA
0006
FFFE
FFF9
FFF9
FFF7
0008
0006
000A
FFF8
0008
0000
FFF8
0005
FFFB
FFF7
0009
FFFF
0005
FFFC
FFFE
0009
FFFD
0005
0006
FFF7
0002
FFF6
FFFD
0005
0008
FFFE
FFFA
0009
FFFF
FFFB
FFFD
0009
0007
0007
0003
FFF7
FFFF
0009
FFFE
FFFF
FFFC
FFFF
FFF8
0007
FFF9
0006
FFFE
FFF9
0003
FFF7
0007
0005
FFF6
0008
FFFD
0003
FFF8
0005
0008
FFF8
FFFD
0000
0000
FFF8
FFF6
0005
0009
FFFC
0004
FFFD
000A
0001
FFFE
FFFC
FFF9
FFFD
FFFB
0002
FFFF
0009
FFF8
FFFB
0008
FFFB
FFF7
FFFF
0006
0007
0002
FFFC
FFFF
0005
0007
0001
0005
0007
0007
0009
FFFA
FFFE
FFF7
0007
0006
FFFA
0008
FFF7
0005
0004
0006
FFFF
000A
0005
0001
FFFD
0002
FFFA
FFFA
0004
FFFA
FFFC
0004
0007
0003
FFFF
FFFF
FFFD
FFF7
0006
FFFE
FFFC
0004
0002
0002
0004
FFFC
000A
0008
FFF6
0008
FFFC
FFFC
FFF7
FFF9
0000
FFFB
0004
FFF9
0009
0000
0005
0003
FFF9
FFFB
0002
FFFE
FFFA
FFFF
FFFF
0004
0000
FFFB
0002
0004
FFF8
0001
0008
FFF8
0008
0004
FFFE
FFF5
FFF8
0009
0000
FFF9
FFFF
FFFB
FFF7
FFFD
0000
FFFE
0005
0004
FFFB
FFFC
FFFC
FFFD
FFF8
FFF6
FFF9
FFFC
000A
0008
0006
0001
0006
FFFC
FFFF
0008
FFF8
0008
FFFF
0008
0005
FFF7
FFF8
0005
FFF6
0008
0002
FFFE
FFFB
FFFB
FFFA
FFFE
FFFB
0007
FFFC
FFFB
FFFF
0007
0009
0002
0009
0009
0003
0002
0002
0001
0002
0002
0007
0008
FFF9
FFFA
0000
FFFE
0007
0006
FFF6
FFFA
000A
0002
0004
0004
0005
FFF7
FFF7
0004
FFFE
FFFE
FFF7
0006
000A
FFF9
FFFD
000A
FFF8
0004
0004
FFF7
0005
0007
0009
FFFE
FFFE
0004
0005
0004
0007
FFFA
0008
0001
0003
0004
0005
0009
0007
0002
0008
FFFB
0006
FFF7
0003
FFF7
000A
FFFB
FFFC
0007
FFFC
0007
0005
FFF9
0003
0003
0007
FFFF
0008
FFF8
0003
0009
FFF6
FFFA
0004
000A
FFF9
0007
0009
0001
0004
FFF6
FFF8
0005
0008
FFFD
0001
FFFA
0001
0003
0007
0005
0004
0008
0003
0005
0000
FFFF
FFFD
FFFE
0004
0006
FFF7
FFF6
0002
0005
0008
0005
FFFB
0004
0001
FFFA
FFFB
FFFF
FFFA
FFF8
FFF6
0003
0006
0005
FFFA
0008
0005
FFFA
0008
FFF6
0000
FFFF
0000
0002
FFFD
0008
0003
FFF8
0000
FFFE
0000
FFFD
0008
0002
FFFE
FFF7
0004
FFFD
000A
000A
0008
FFFC
000A
FFFD
0002
0002
0002
0004
0009
0009
FFF6
FFFB
0007
FFFE
0000
0006
0006
0001
0000
FFFA
FFF9
FFFC
FFFB
0007
0007
FFFB
000A
0009
0008
FFFA
FFFD
FFFE
0008
FFFA
FFFF
0009
0002
0008
0006
000A
0003
0000
0002
000A
FFF8
FFFF
0005
0001
FFFD
FFF9
FFFA
0009
0001
0008
FFF9
0008
0002
0004
0004
FFFA
0000
FFFB
FFFF
0004
0003
FFFD
FFFC
FFF6
FFFC
0001
FFF7
0007
FFFD
000A
FFFF
0004
0005
0007
0007
0004
FFF7
FFF5
FFF7
0000
FFFF
0000
0002
FFFD
FFFF
FFF5
0007
0005
0006
000A
0005
FFFD
FFFD
FFFC
FFFA
0003
FFFD
FFF8
FFF9
FFFC
0007
0005
FFFC
0009
FFFC
FFFB
0005
000A
FFFA
0002
0006
FFF9
0003
0007
FFF9
FFF6
FFFF
FFFC
FFFF
FFFF
FFFE
0007
0006
0006
FFF7
FFFB
0000
0002
FFFE
FFF9
FFF8
0005
0002
FFFD
0000
0009
0006
0002
0003
FFFD
FFFD
0000
0009
0002
FFFA
0002
0009
FFF8
FFF6
0007
FFF9
0008
0003
0000
0002
0005
FFF9
0006
0007
0002
0001
FFF9
0009
0005
000A
0005
0005
FFF8
0008
0003
FFF6
FFFD
0005
0003
FFF9
0000
000A
0006
0004
0008
0003
FFFA
FFFD
0001
0002
0008
FFF8
FFFF
FFFE
0003
FFF9
FFFB
FFFA
0009
FFF7
0005
0001
0007
0006
0005
0000
0003
0005
0004
0003
FFF9
FFFB
0008
0005
0000
000A
FFF6
0000
0006
FFF9
0005
0004
0006
0002
000A
FFFC
0001
FFFC
0000
FFFE
FFFE
FFFC
0008
0004
0000
0007
0005
0001
0009
FFF8
FFF6
FFFA
FFF6
FFF6
FFF8
0003
FFF9
FFFE
0000
000A
FFFB
0007
0009
FFF6
FFFB
0004
0002
0007
0009
FFFA
0003
0009
0004
0008
0000
0005
FFFA
0005
FFFE
FFF8
FFFC
FFF8
0006
0001
FFF5
0000
0008
FFF8
0008
FFFC
FFFE
0004
0000
FFF8
0006
0004
FFF8
0007
FFFE
FFFF
0001
0005
0003
0006
FFFA
FFFB
0006
0009
FFF9
0004
FFF8
0005
0007
FFFC
FFFE
FFF9
FFFA
0007
0004
FFFC
000A
0009
FFF7
FFF7
FFF8
FFFA
0009
FFFF
0004
0003
FFFC
0001
0006
0002
0009
0002
0006
0000
000A
0002
0009
FFFE
FFF9
000B
FFFD
0005
0004
0007
0004
0002
0007
FFFA
FFFD
FFFB
FFF8
0007
0000
0002
FFFF
0007
FFFF
FFF9
FFFB
000A
0001
0005
0004
FFFA
0005
0008
FFF8
0001
0003
0002
0005
FFFE
FFFC
0007
FFFC
FFF7
FFFC
000A
FFFA
FFFA
0004
0008
FFFE
FFFB
FFFE
FFFC
FFF7
0001
FFFC
0006
FFFC
FFF8
0001
FFF8
0006
FFF8
FFFD
FFFC
0007
FFFA
000A
FFFB
0007
FFFE
FFF6
0006
0008
FFFF
FFFD
0008
FFF9
FFFB
0008
0003
0000
FFFD
FFFF
FFF8
FFFB
FFFE
FFFB
FFFD
FFFB
FFFF
0005
FFFF
000A
0003
FFFB
FFFB
0009
0003
FFFE
FFF8
FFFC
0004
0005
0008
FFFF
FFFB
FFFE
FFF8
FFF7
0007
0001
0002
FFFD
0009
FFF9
FFF7
0006
0001
FFF6
0006
000A
0000
FFFF
0003
000A
0000
FFF8
FFF9
0006
FFFA
000A
FFF5
0009
FFF6
0004
0008
FFFB
0005
0008
0000
0004
FFF7
FFFE
0002
0009
FFF7
0000
0007
0003
FFF9
0004
FFF6
FFFC
0002
FFF7
0005
0005
0007
FFFC
0005
FFFA
000A
FFFA
FFFE
0000
FFFD
FFFB
FFFA
FFFE
0008
FFFB
FFF8
FFFA
0005
FFFC
FFFF
0002
0004
FFF8
0008
FFFA
FFF5
0003
FFFE
0003
FFF8
0008
FFFD
0004
0006
FFF6
0005
FFF8
FFF9
FFFB
0008
FFFE
FFF8
FFFE
000A
0004
FFFD
0001
FFF6
0009
0006
0009
0007
0006
FFFF
0006
0001
FFF9
0002
FFFF
FFFA
FFFD
0007
0005
FFFD
0003
FFF9
0007
FFFB
FFFD
0009
FFFB
0000
0005
0003
0002
FFF8
0001
0000
FFF9
0004
FFFE
FFFE
0004
0009
0003
FFF8
FFFF
FFF9
0001
FFF8
0004
0002
0008
FFF7
FFFF
FFF7
0007
FFFA
FFF6
FFFE
FFFC
FFF8
FFFD
FFFF
0006
0001
0008
0006
0008
0008
0002
FFF8
0002
0002
FFFD
FFFB
FFFF
FFFD
0009
0007
0009
0006
FFF9
FFF9
000A
FFF9
0004
FFFB
0007
FFF7
0000
0001
FFFD
FFFB
FFFF
FFF7
FFFF
FFF7
FFF9
0002
0002
0006
FFFE
0008
0009
0004
0007
FFF7
0007
0006
0000
0009
FFFD
0003
FFF9
0003
0005
FFF7
0004
FFF8
0004
000B
0005
0007
0005
FFFF
FFF7
0008
FFF7
FFFE
0006
FFF8
FFFF
FFF7
0007
0001
0007
0001
FFFF
FFFB
0009
0004
FFFC
0004
0000
FFFA
0009
0003
FFF8
0001
FFF7
0000
FFF8
FFFD
FFFC
0000
FFFB
FFFF
0009
0003
FFF8
0001
000B
FFFA
FFF5
0000
0006
FFFF
0000
FFF9
0009
FFF7
FFFF
FFFD
FFFB
0009
FFFA
0004
0005
0004
FFFE
FFF7
FFFA
0002
0002
0007
0007
0000
FFFC
FFFF
FFFA
0009
0001
FFFD
0000
FFFF
0000
0007
FFFF
0001
FFFE
0001
FFFD
FFFD
FFF9
0006
FFFD
FFFE
FFFB
FFF6
0000
FFF9
FFFB
FFFD
0007
FFFB
FFFE
0007
0008
FFF8
0005
0001
FFF7
FFF7
0001
0005
0008
0006
FFF8
0008
FFF9
FFF7
0003
FFF8
FFF8
FFF6
0008
0000
FFFD
000A
0001
0002
0001
FFFA
FFFE
0007
FFFF
0004
FFFA
0002
FFF9
0005
FFF8
0000
FFFE
FFFB
0000
0007
FFFD
FFFB
0004
FFFF
FFF9
0009
FFFE
0003
0006
FFFD
FFFD
0005
FFF8
FFFE
FFF6
FFFA
FFF5
0006
0007
FFFB
0009
0001
0001
0002
FFFB
0008
FFFE
FFF7
FFFD
0008
FFFF
FFFB
0002
FFF9
FFFC
FFFF
FFFB
0006
FFFD
0008
FFFB
FFFE
FFFE
FFFB
FFFD
FFF8
FFFE
0009
FFFE
0005
FFF8
0002
0001
FFFB
FFFB
0009
FFFC
0003
0006
FFFB
FFFA
0009
FFF7
0003
FFF7
0008
0002
0005
0000
FFFD
FFFF
0009
0003
FFF8
FFFA
0005
0009
0007
FFFD
FFFF
0003
0009
0007
FFFC
0002
0009
0003
0001
FFF8
0003
FFFC
FFFB
0000
FFFD
0001
FFFB
0006
0008
0002
FFFD
FFF7
0009
FFF9
0009
FFFC
0004
FFFF
0007
FFFE
0001
FFFF
FFFB
0006
FFFB
0001
FFFF
FFFC
0004
FFFE
FFFC
0005
FFFF
FFF7
FFF6
FFF7
FFF7
000A
0001
0008
0006
0008
000A
0000
0000
FFFE
FFFC
0004
0005
0002
FFFE
FFF9
000A
FFFA
0001
0002
FFF7
FFFD
FFFF
FFFA
0004
0005
FFFF
0008
FFFD
FFF7
FFF6
0000
0006
FFFB
FFFA
FFFF
FFFB
FFFF
FFFA
FFFE
0009
0005
0005
FFF8
0001
FFF8
0005
0006
0005
0004
FFF9
0006
FFFC
FFFE
0001
FFFD
0000
0000
FFFA
0003
FFFF
0000
FFF6
FFF6
FFF6
0004
FFF9
FFFF
0003
0000
FFFE
0008
0001
FFFA
FFFA
0001
FFFD
000A
000B
000A
FFFB
FFFB
FFFC
FFFE
0009
0006
0004
FFF9
FFF7
FFFD
0005
0000
FFFE
0009
FFF8
0009
0001
FFF6
FFFF
FFFF
FFFB
FFF9
0006
0007
0009
000A
0005
0009
FFFE
0005
FFF7
0009
0000
FFFA
000A
0000
0009
0008
FFFB
FFF6
0003
FFFB
0007
FFFC
0008
0004
0006
0003
FFFC
FFFE
FFFA
0000
0005
FFFD
FFFD
FFFD
FFF7
0009
FFFE
FFFB
000B
0003
0006
0004
0002
0005
FFFA
FFF8
0007
0008
0009
0006
FFF9
0007
FFFF
0002
FFFA
0006
FFF6
0000
0002
FFFA
0005
FFFA
0002
FFFF
FFFC
0005
FFFD
0001
0006
FFFE
000A
FFFB
FFFB
0000
0006
0008
000C
0004
0003
0009
FFFF
0006
FFF7
0007
0001
FFFB
0009
000A
0006
0000
0005
FFFD
FFFB
0002
0005
FFFA
0008
FFFC
FFFA
0004
000A
FFFE
FFFD
FFFB
0003
0001
0008
FFF9
0001
0007
FFFB
0001
0004
0008
FFFF
FFF9
0000
FFFC
0009
0000
0000
0009
0005
FFFF
FFFC
FFF9
0007
0009
0001
0006
0009
0006
0002
FFFC
0007
FFFD
0004
FFFF
FFF9
FFFE
FFFA
0005
0004
0003
FFFE
FFF9
0005
FFFF
000B
FFF6
0008
0002
FFFD
0003
0009
0006
0007
FFFC
000A
FFFA
FFFE
0000
FFF9
FFFA
0004
FFF9
FFFB
0008
FFFC
0009
0004
0007
000B
0005
FFFE
FFF6
0000
FFF9
0001
FFF8
FFF7
0007
0007
0000
000C
000B
0009
FFFC
0006
FFFD
0002
0005
0005
FFF7
FFFA
FFFC
FFF7
FFF6
0008
FFF7
FFFF
0002
FFFF
0000
0008
0000
FFFC
0003
FFFC
FFFC
0007
0003
0002
0003
0003
FFFC
FFFA
FFFF
FFFE
FFFC
0002
0001
FFFC
FFF8
0009
0001
0005
0004
FFF9
0000
FFFD
FFFB
0008
FFFD
FFFB
FFF9
FFFF
FFFF
0008
FFFB
FFFF
0007
0006
FFF8
FFFC
FFFA
FFFB
0005
FFFF
0002
FFFC
0002
FFF8
FFFD
0004
0001
FFFD
FFFF
0008
FFFC
0004
0000
0001
FFFA
000A
FFF6
0004
0007
FFF8
0001
FFFF
FFFB
FFFB
FFF9
FFFB
FFFA
FFFD
FFFF
0009
FFFE
0008
FFFC
0009
FFF6
FFF8
0006
0008
FFF8
FFFA
FFFE
0004
0003
FFF8
0007
0009
FFFB
FFF5
FFF8
0006
FFFA
FFFF
FFFA
0003
FFFD
0009
FFF9
0004
0003
FFFB
FFF9
FFF7
0002
0004
0004
FFFC
0003
0005
0005
FFFC
FFFB
0000
0004
0002
0006
0004
FFFC
0006
FFF9
0004
0009
FFF9
0002
0001
0002
FFFF
FFF9
0002
FFFB
0005
FFFC
FFFB
FFFB
0007
0001
0003
FFFB
0005
0002
FFFD
FFFC
FFFC
FFFF
0002
0002
FFFC
0007
FFF9
FFFC
0002
0003
FFF9
0000
0006
FFFC
0001
0003
0008
0003
0002
FFF7
0009
0001
0004
FFF8
0008
0004
FFFF
FFFB
FFFF
0002
FFF8
0005
FFFC
0005
FFF9
0007
0007
0006
FFFA
FFF8
0008
0004
0003
0005
FFFF
0008
FFFD
FFFD
FFFE
0006
0007
0005
FFFD
0008
0008
0001
FFFF
FFFE
FFF8
0003
FFF6
0003
FFFF
FFF9
FFFD
FFF9
FFFE
0001
0000
0006
FFF9
FFFB
0006
0000
FFFD
FFF8
FFFB
FFFD
0004
FFF9
FFF9
0007
FFFC
0007
0007
FFFB
FFFE
0006
FFFB
FFFA
0003
0004
000B
0003
FFFF
FFF9
FFFC
0001
0002
FFFE
0004
0002
0008
0005
FFFB
FFFF
FFFF
FFF8
0003
FFFD
0004
FFF7
0009
FFFF
FFFF
0006
FFFC
FFFE
FFFE
0006
0009
0004
FFFD
0007
0001
0001
FFFD
FFFD
0000
FFFE
0004
0003
0000
FFFE
0006
FFFD
FFFC
FFFB
0002
0009
FFFE
FFFD
FFFD
FFFE
FFF9
0004
FFFF
FFFC
FFF9
0006
FFFF
0004
0000
0007
0004
0005
FFFD
FFFE
FFFA
0004
0002
FFF9
FFFE
FFFC
FFFC
0004
0001
0000
0003
0000
0008
FFFE
0005
FFFC
0007
0000
0000
0004
0003
FFFB
FFFA
FFFA
0005
0008
FFFF
0008
0003
0003
FFF8
FFFC
FFFA
0008
000A
FFFD
FFFC
0002
FFFF
FFFE
FFFB
FFFB
0001
0006
FFFC
FFFF
0005
0008
FFFE
FFF9
0007
0004
FFF9
FFF9
FFFE
0004
0006
FFFE
FFFE
FFFA
FFFF
FFFA
0000
FFFC
FFFE
FFF8
FFFD
FFFA
FFF7
FFFE
FFFC
0002
0009
FFF9
FFFA
000C
0009
0005
0004
FFF7
0008
FFFA
FFFA
0008
FFFF
FFFD
0001
000A
0009
FFFA
0000
FFF7
FFFC
0002
0009
FFFD
0005
FFFF
0004
0002
FFFD
FFFA
FFF8
0000
0008
FFFC
FFFC
FFFA
0002
FFFB
0002
0002
0004
0005
0003
0009
FFFF
FFFD
FFFC
FFFA
FFFD
0006
FFFC
0007
0007
FFF6
FFF8
0009
0001
FFFB
FFFE
FFFC
0009
0003
0007
0001
0002
0004
0005
0002
FFF7
0005
0006
FFFC
0000
0008
FFFA
FFFB
FFF8
0009
0007
FFF6
FFFE
0001
FFFF
0003
FFFA
0005
FFFA
0006
FFF7
0003
0002
0006
FFF9
0007
FFFC
FFFB
FFFA
0002
0001
0009
0006
FFFA
0008
0008
0004
0001
0004
0005
FFFD
FFFF
0006
0004
FFFD
0000
000A
0000
FFFB
0009
FFFA
FFFF
0000
FFFA
FFFA
0006
000B
FFF9
0007
FFF6
FFFB
0007
0006
FFFF
FFFD
0009
0009
0005
FFFF
0003
0001
0003
0006
FFFA
FFFC
0009
FFF8
FFF8
0004
FFF8
0002
FFFC
FFFE
0005
0003
FFFF
0007
0003
0000
FFFC
FFFB
0001
0000
FFFA
FFF9
FFF4
0004
FFF7
FFFE
FFFB
0003
FFF7
0003
0005
FFFF
FFF9
FFFB
FFF5
0008
0006
0008
0005
FFF7
FFFF
FFF9
0006
0000
0000
FFFB
0008
FFFC
0006
FFF8
FFFB
0004
0007
FFFB
0009
FFF8
FFFD
FFF7
0004
FFFB
0004
FFFD
FFFE
FFFD
FFF9
0000
0001
FFFD
FFF8
0004
0000
0000
0003
FFF7
0005
0001
FFFB
0006
FFF7
0003
0001
FFFB
FFFE
0004
FFFA
0004
0008
FFF9
FFFE
0002
FFFC
0007
0001
FFFA
FFFC
FFFE
0005
FFFD
FFFF
FFFA
0005
FFFC
FFFA
FFFC
0001
FFFE
FFF8
FFFC
FFFE
0009
FFF9
FFFF
0009
FFFF
FFFC
FFFA
FFF8
0002
0007
0005
FFF8
FFFB
0007
FFF7
FFF4
0000
0000
FFFC
0002
0006
FFF8
FFF9
0002
FFFC
0008
0007
FFF9
FFFD
FFFF
FFF6
0002
0009
0001
0000
0003
FFFF
FFFC
0002
0005
0009
0005
FFFA
0005
0006
0004
FFFF
FFFE
FFF9
FFFF
FFFB
0005
0002
0001
FFFC
0002
FFFE
FFFA
FFFC
FFFF
FFFF
0004
0000
0005
0002
FFF8
FFFC
FFF8
FFFE
FFFD
FFFA
FFFA
FFF8
FFF6
0003
0003
FFF7
0002
0004
0002
FFF8
0002
FFFB
FFF8
0004
FFFC
0002
0006
0003
FFFF
FFFE
FFFF
0005
0008
FFFC
0007
0007
0003
0005
FFFD
FFF7
FFF9
0000
FFFA
0007
FFFC
FFFC
FFFB
0007
0002
0000
FFFC
FFFF
FFFB
0000
0003
FFFF
0004
FFFD
FFFA
0009
FFFA
FFFE
FFFF
0009
0009
FFFB
0003
0000
0003
0009
0004
0001
0000
FFF6
0006
0005
0000
0005
FFF9
0008
0009
FFFA
FFFA
0000
0003
0001
FFF8
FFFD
FFFD
0006
FFFC
FFFE
0004
FFF6
FFF8
0006
0001
FFF8
0007
FFF9
0005
0000
FFFD
FFFC
FFFC
FFF6
0001
0008
0003
0004
0001
FFFB
0001
FFFB
FFFF
FFF9
0007
FFFB
FFFB
0002
0004
0007
FFFF
0002
0009
0003
FFFD
FFFB
0000
0002
0006
0000
FFFC
FFFD
0001
FFFC
FFF9
0005
0007
0005
FFFF
0008
FFFB
FFFE
0000
0008
FFFC
0007
FFFE
FFF9
FFFB
0006
0006
0006
0006
0005
0009
FFFD
FFF7
FFFD
0003
FFF8
FFF7
FFFF
FFFF
FFF9
FFF9
FFFA
FFF6
0000
FFF6
FFFC
FFFB
FFFB
FFF9
0001
FFFC
0006
FFFF
0005
0000
FFFE
0005
0007
0004
0006
0006
FFF9
FFFA
FFFE
FFF7
FFF8
FFFF
FFFE
FFFD
FFFD
FFF9
0008
FFFE
0002
0001
0002
FFFE
0008
FFFD
0000
0001
0003
0000
0005
FFFA
FFFC
0007
0004
FFFC
0004
0000
FFFB
0003
0007
FFF7
FFFE
0008
FFFC
FFF8
0008
FFFB
FFFC
0004
FFFE
FFFD
0007
0001
0002
0005
FFFC
FFF8
FFFA
FFFD
0007
0005
FFFC
FFFE
FFFE
0008
0005
0006
FFF7
FFFE
0006
0004
FFF8
FFFC
FFFD
FFFA
0003
FFF7
FFFA
FFFE
0008
0007
0008
0002
FFFA
FFFC
FFF9
FFFA
FFFD
000A
000A
0006
FFF9
0005
0007
FFF8
FFFB
FFFE
FFFA
0001
FFFE
FFFA
0009
FFF8
FFFC
0000
0009
0002
FFF6
0002
0007
FFFA
FFFE
FFFF
FFF3
0005
0009
0004
FFFD
0006
000D
FFF9
FFFF
0003
FFFD
0000
0005
0000
FFFB
FFFB
0007
FFFB
0008
FFFB
FFFB
0000
FFF9
0003
0001
FFFA
FFF8
0006
0000
FFF7
FFFD
0002
FFFB
0001
0003
FFFA
0002
0002
0007
FFF8
0005
FFFB
FFFD
FFF6
0006
FFFD
0004
FFF8
0005
0007
0002
FFF7
FFFE
FFFB
FFFD
FFF9
0007
0002
FFFB
0004
FFFF
FFFC
FFF8
FFFF
FFFA
0003
000A
0002
0001
0003
0003
0004
FFFE
FFFA
0006
0005
FFFF
0006
0003
0008
FFFA
0006
FFFC
FFFB
0001
FFFA
0002
FFFC
FFFA
0001
0007
0008
FFFE
0008
FFFD
FFFF
FFF8
0003
FFFA
0006
0009
FFFF
FFFA
FFF9
0007
0007
FFFF
0000
FFFE
FFFA
FFFD
FFFE
FFF8
0008
0008
FFFC
FFFD
FFFC
FFF9
0002
FFF7
0001
FFFB
FFFA
FFF8
FFFE
0004
FFFF
FFFC
0005
0005
0001
0000
0000
0006
FFF8
FFFA
0009
0000
FFFB
000A
0002
FFF8
0000
0007
0002
FFFA
0004
0005
FFFD
FFFF
0006
0007
FFF8
FFFC
FFFB
FFFE
0008
FFFF
FFFB
FFFC
FFFF
0000
0006
0008
0006
FFF9
0003
0002
FFFD
FFFE
FFFB
0000
FFFA
FFFD
0005
0006
0002
FFFB
0002
0008
0000
FFFC
0000
FFF7
FFF9
0009
FFFD
FFFF
FFFA
FFF8
0005
FFFD
FFF8
FFFC
FFFD
FFF7
FFF6
FFFE
FFFC
FFFB
FFFB
FFFB
FFFA
FFFB
0001
FFFC
0009
FFF7
0003
FFFD
0005
FFFA
0009
FFFD
0003
0002
FFF5
0001
0004
0008
0006
0009
0005
0000
0009
0002
0001
0004
FFF7
0005
FFF9
0000
FFF5
0003
0000
FFF6
FFF6
0007
0009
0006
FFFE
FFF7
0006
FFFA
0001
FFFB
0004
0009
FFFF
0002
0001
FFF6
0006
0002
FFFB
0004
0007
0003
0003
FFF8
FFF6
FFF6
FFF8
0007
FFFB
FFFD
0002
0004
FFFF
0004
0005
0006
0002
FFFA
FFFA
FFF7
0004
0003
0002
FFFF
FFFD
0005
FFF9
FFFD
FFFC
0003
0001
FFFD
000A
FFFE
FFF7
FFFD
0002
FFFA
FFF7
0003
0008
FFFA
0000
0001
0007
0002
0006
FFFD
0002
FFF7
FFF6
FFFC
0006
FFFF
FFFF
0006
FFFD
FFFD
0002
0007
0005
FFFF
FFFC
FFFD
0002
FFF8
0004
FFF7
0007
FFFF
0008
0007
FFFF
000A
0003
0007
FFF9
FFFB
0001
FFF9
0007
0000
0009
0004
FFF7
FFFE
FFF7
0003
0004
FFFA
0003
FFF8
FFFC
0009
FFF8
FFF8
0007
FFFA
0001
FFFC
FFF7
0008
0008
FFF5
0009
0000
0007
FFFA
FFF6
0006
0008
FFFA
0006
FFFB
0005
FFF9
0008
000A
FFF9
FFFC
0009
0006
FFFE
FFFC
0003
FFF9
000A
0000
FFF9
FFFB
0004
FFF7
0003
FFF8
FFFD
FFFA
0000
0006
FFF9
FFFE
0009
0005
0001
0002
FFF9
0009
0003
FFFC
0002
0000
FFFF
FFFB
0006
0007
0008
0003
0005
0005
FFFC
FFF9
FFF8
FFFD
FFFB
0004
0005
FFF7
0003
FFF8
0000
0006
0002
0004
000A
FFFF
FFF9
FFF9
0009
0003
FFFA
0001
0008
FFFC
0006
0004
FFF9
FFFC
FFFB
FFFB
0006
FFFE
000B
0008
FFF7
0008
FFFC
FFFD
0009
FFF8
0007
FFF9
0000
0001
FFFA
0003
0001
FFFE
0004
0003
FFFA
FFFE
FFF8
0005
FFF8
0005
FFF7
FFF8
0000
000A
0004
0003
0002
0005
FFF9
FFF8
0000
FFF9
FFF7
0007
FFFF
0008
0006
FFFD
0006
0000
0005
0005
0009
0007
FFFA
0002
FFFC
0000
FFFD
0006
FFFA
FFF7
FFFB
FFF9
FFFD
0006
FFF7
0007
0004
0003
FFFE
0005
000A
FFFD
FFF8
FFF9
FFFB
FFFD
FFF8
FFF9
FFFC
0006
0005
0006
FFF7
0000
0009
FFFA
FFFC
0007
0003
FFF9
0000
FFFD
FFFC
FFF9
0007
FFFB
FFF9
FFF9
FFFD
0008
FFF6
0001
0003
FFFC
FFF6
0009
FFFA
FFF9
0009
FFFD
0006
0006
0000
FFFE
000A
0004
FFFB
000A
0006
FFFE
0003
FFFA
FFF9
FFF7
0001
FFF9
0008
0006
0002
FFF8
FFFB
0002
0003
FFFC
0002
FFFB
0002
FFFF
0008
0005
0001
0009
0000
FFF8
FFFF
FFFA
0002
FFF7
FFF8
FFFB
FFFF
FFFC
FFFD
0002
0000
0008
0001
FFF9
FFF7
FFFB
0002
0005
FFFC
FFFF
FFFF
0009
0003
0000
0000
0005
0001
FFF6
000A
FFFA
FFFA
0001
0000
0004
0001
0009
000A
0005
FFFE
FFFB
0008
0009
0000
0008
0009
FFF8
FFF8
FFFE
0007
0004
FFFF
0003
FFFB
0005
0005
0005
0007
0004
0009
FFFA
FFFB
0007
FFF8
0000
000A
FFFC
0001
0003
0009
FFFB
FFFD
FFF7
000A
000A
0007
FFFC
FFFA
FFFD
0005
FFF8
FFFE
FFFD
0001
FFFC
0004
FFFB
FFFD
FFFE
0009
FFFA
0009
FFFB
0003
0007
0007
0007
0000
0008
FFF8
0009
FFF9
0007
0004
0002
0006
0007
FFFB
FFF7
0004
0004
FFF7
FFFC
FFFE
0005
0001
FFFB
0001
0004
0000
0008
0008
0000
0004
FFF6
FFFA
0001
FFFD
0004
0002
0003
FFFD
0005
FFF5
FFFA
FFFB
FFFD
0004
FFF9
FFF7
0000
0008
FFFD
FFFD
FFFF
0008
0000
0001
FFFA
FFFB
FFFF
0003
FFFE
0007
0002
0003
0000
0002
0003
0000
FFFF
FFF6
0005
0004
FFFC
FFFF
FFFE
0004
FFFA
FFFC
FFF6
0004
0005
0001
0002
FFF7
FFF7
0000
FFF9
0000
FFF8
0004
FFF8
0007
FFF9
FFFA
FFFB
000B
0006
0009
0007
FFFA
FFFF
FFFD
0008
0009
0000
0000
0005
0004
FFF7
FFFB
FFF6
FFF8
0001
FFFF
0005
FFF6
0006
FFF6
FFF7
000A
FFF8
0003
0002
FFF6
0005
FFFC
0008
FFFB
0000
FFFC
FFF6
FFFA
0008
0006
FFFB
0000
0007
FFFD
0004
000A
0003
FFFF
0004
0001
FFFD
FFF8
0003
FFFC
FFFC
0005
0003
0001
FFFC
FFFE
FFF7
FFFA
0006
FFFC
0006
FFFB
000A
FFFC
FFFF
0004
0005
FFFB
0004
FFFD
0003
0006
0000
FFFD
0007
0008
0003
FFF9
0000
FFF7
0002
FFFA
FFF6
0000
0001
FFF6
FFFE
0008
FFF7
000A
0002
FFFC
FFFD
FFF9
FFFB
FFF8
FFF9
FFFE
FFFD
0006
FFF9
0007
0007
0006
FFF9
0002
0002
0007
FFFD
0006
0001
0009
0003
FFFE
0000
0002
FFFE
FFFE
0006
FFFC
FFFF
FFFF
FFFE
0009
FFF8
FFF8
FFFC
FFFA
0005
0009
0008
FFFC
0000
FFF9
FFFB
0009
FFF9
0001
0004
0001
FFF9
FFFF
0000
000A
FFFB
0000
FFFF
0006
FFF6
FFF6
0005
FFFB
0008
0004
0005
0006
FFF9
0001
0009
FFFC
FFFC
FFF7
FFF7
FFFA
0008
FFF9
FFF5
0005
FFFB
FFFF
0003
FFF6
0000
0007
FFFE
0006
0003
FFF7
FFFE
0005
000A
FFFD
FFFA
0007
FFFB
FFF8
000A
FFF9
FFFB
FFF7
0001
0003
0001
0009
0004
0007
FFFD
0001
0009
FFFE
FFFA
FFF9
FFFA
FFFC
FFFB
0005
FFF6
FFFD
0006
0006
FFFB
FFFB
FFFD
FFFD
0003
FFFA
0006
0009
0007
0001
0005
0007
FFFA
FFFD
0001
FFF6
FFFD
FFFF
FFFF
0000
0008
0002
FFF9
0007
0007
0007
FFF8
FFFC
FFFC
FFFD
FFF7
FFF8
FFFD
000A
FFF6
0000
FFF9
FFFF
0002
0009
0002
FFFA
0009
FFF9
FFFC
FFF8
0005
FFFB
000A
0006
0002
FFFE
0009
FFFF
0009
FFFA
0006
FFF9
0003
000A
FFF6
FFFF
FFF7
FFFB
FFFC
FFFA
0000
0007
0009
0000
0009
FFFE
FFF7
FFFE
000A
FFFD
FFFC
0000
FFF8
0003
0002
FFFF
FFFB
0001
FFFF
FFF6
FFF9
0005
FFFD
FFFF
0000
FFF6
FFFC
0007
0004
0003
0001
0004
000B
FFF7
FFFA
0003
0009
FFFE
0002
FFF8
FFFF
0008
0007
0001
0005
FFFA
0001
FFFF
FFFB
0004
0007
FFFC
0008
FFFD
000A
FFFD
FFFF
0006
FFFB
FFFC
0006
0004
0004
0002
FFF9
0002
0009
0001
000A
0003
0000
0009
0007
FFFE
0009
000A
000A
0009
FFF9
FFFC
FFF7
FFFD
FFFC
FFFD
FFFA
0000
0003
FFFB
FFFB
0005
FFFA
FFFE
000A
FFF9
0007
FFF7
0009
FFFE
FFF8
0006
FFFC
0003
FFFD
FFFD
FFFE
FFFD
0005
FFFD
0007
0006
FFFC
0007
FFFD
0004
0001
FFFC
0003
000A
000B
FFFB
FFF8
0005
FFFA
0006
FFFF
0001
FFFF
000B
0004
FFFD
0002
0007
0005
0003
0007
FFF8
FFF9
0009
0009
FFF8
0001
0001
0009
FFF7
0007
FFF9
0007
FFFE
0009
0003
0009
0009
FFFC
FFFC
FFF7
FFFA
FFFF
FFF9
FFF6
FFFC
0009
0006
FFFC
0007
FFFE
FFFD
FFFC
0004
0004
FFF8
FFFD
0001
0004
FFF7
FFFE
0001
0003
FFF6
0009
0006
0005
000A
0009
0004
FFF7
FFFE
0007
0004
FFFC
0004
0003
FFFF
0004
FFFD
FFF9
0008
FFFD
FFF8
FFFD
FFF7
FFFE
0008
FFFD
FFFF
FFFA
0006
FFF9
FFFB
FFFB
FFFD
FFF7
0001
0005
FFFE
0006
0003
0001
FFFE
FFF8
FFFD
FFFC
FFFE
FFFC
FFF7
FFF8
0002
FFFC
0006
0002
FFFD
0008
0002
FFFD
FFF9
0004
FFFF
0009
000A
0005
0000
FFF9
0005
0005
FFFC
0001
0003
FFFE
FFFC
0008
0006
0007
0007
FFF9
0004
FFFA
FFFA
FFF6
0001
0007
FFF6
000A
0003
FFFF
FFFC
FFF8
0003
000B
FFF9
0009
0007
FFFB
0008
FFFC
0008
000A
0008
FFFE
FFFB
FFFB
0003
FFFF
0006
0008
FFFA
0000
FFFD
0001
FFFA
0007
FFFB
0003
FFFB
FFF6
FFF8
0005
FFF8
0004
FFF8
0009
0002
000B
FFF7
0005
FFFD
FFFA
FFF8
FFFB
0008
FFFF
FFF8
FFFE
FFF7
FFF9
FFF6
FFFA
0002
000A
0009
FFF7
FFFD
0006
FFFB
000A
0004
FFF9
0009
0006
FFF9
FFF7
FFFD
0002
FFF9
FFF9
FFFF
0004
0004
FFFE
FFF8
000A
FFFD
0009
0000
FFFD
FFF8
FFFF
FFFF
FFFC
FFFA
0001
0005
FFFD
0005
FFFF
FFF5
0001
0005
FFFA
0002
FFFB
FFFB
FFFB
0002
FFF6
FFF8
0003
FFFB
0005
0005
0005
0003
FFF9
FFF8
000B
FFFE
0003
0007
0009
FFFE
FFF8
0002
0008
0004
FFFB
FFFB
0003
0007
FFF8
FFFA
0008
FFF8
0004
FFF7
FFFB
000B
0003
FFFD
0005
0007
FFF9
FFFF
000A
0000
0003
FFFA
FFFC
0002
FFF5
FFFB
FFFF
0001
0008
0004
FFFA
FFFF
FFFC
0008
0004
0007
FFFC
FFF8
FFFC
0007
FFFF
000A
FFFD
0009
0006
0006
000A
FFFF
FFFE
000A
0000
0005
0004
FFFF
0000
FFF9
0005
0004
0007
0006
0008
FFFD
0007
0005
FFFC
0002
FFFA
FFF9
FFF8
FFF5
FFF8
0009
0009
0000
0009
FFF6
FFFB
0003
FFFB
000A
FFFD
0001
FFF6
0007
FFFD
FFFD
0002
0000
0003
FFFF
0003
0004
FFF8
FFF8
0004
FFFC
0009
FFFD
FFFC
0007
0007
FFFB
FFF7
0006
0002
0004
0009
FFFB
0004
FFFF
0006
000B
0004
0006
FFFC
0009
FFFB
FFFE
FFF7
FFF9
0005
FFFE
FFFE
0002
FFFD
FFFC
FFFD
FFFA
FFF8
0007
FFFE
0001
FFF9
FFF9
FFFD
FFF9
0001
0006
0000
FFFF
FFFC
FFFD
FFFC
0002
FFFA
FFF9
0006
0007
FFFD
FFF7
FFFD
0002
FFFB
0002
0005
0001
0003
FFFD
0004
0002
FFF6
0001
000A
FFFC
FFF9
0003
0005
FFFA
0009
FFFB
0005
0000
FFF6
0005
FFFC
FFF9
FFF6
FFFF
000A
0008
FFF6
FFF9
FFF8
FFF7
000A
FFFE
0000
FFFB
000A
0004
FFFF
0006
FFFC
0008
0001
FFF6
0003
0005
0003
FFFE
0000
0004
0002
0000
FFFC
FFFA
0001
FFF5
0007
FFF8
0005
0003
FFFC
FFFC
FFFF
0009
FFFC
FFFC
FFF8
FFF7
0002
0007
0005
0006
0005
FFFA
FFFA
FFFF
FFFE
FFFA
FFF9
FFFD
FFFC
FFFE
0000
0003
FFF7
FFFB
FFFA
000B
0000
FFFD
0006
FFFD
000A
FFFC
0001
0003
FFFC
0000
0008
0009
0004
0004
FFF7
FFFC
000A
FFFB
0001
FFFE
FFF9
0001
FFFF
FFFE
FFFF
0005
0001
0005
0009
000A
FFF8
FFFB
0001
0000
FFFE
0005
0001
0002
0009
000A
0000
FFFE
0002
0003
0008
0001
000B
0000
000A
FFFC
FFFE
FFFA
0003
0003
FFF3
FFFD
0000
0005
0005
FFF6
0002
FFFC
0004
FFF8
FFFC
0001
FFFE
0000
0007
0006
FFF8
0008
FFF8
FFF9
0004
0006
0007
FFF6
0004
0003
FFF7
0009
000A
000A
FFF8
0008
0007
0006
FFFC
FFFA
FFF9
0003
000A
FFFA
FFF6
0005
FFFC
0004
FFF7
FFFF
FFF6
0000
FFFB
FFFA
FFFD
FFFC
FFF7
0004
FFFE
000A
000A
0001
FFF7
FFF8
0009
FFFA
FFF7
FFF6
FFFB
0006
0009
FFF8
FFFF
FFFC
0000
0002
0004
0003
FFFD
0008
0001
0001
0004
FFF7
FFFD
FFFE
0001
FFF8
0009
FFF8
FFFE
0007
0006
0006
000A
0003
FFFA
0007
0000
0003
0005
FFF8
FFF7
0000
FFFC
0008
0005
FFFD
0003
0004
000A
000A
0003
0003
0001
FFFE
FFFE
FFFC
000A
FFFA
0007
FFF8
0002
FFF7
FFFB
FFF7
FFFF
FFFA
0002
0008
FFFE
0003
0002
FFFB
FFFB
0005
0001
0006
FFFB
0003
0001
0009
000A
FFFE
0003
FFFB
0001
FFFF
FFFB
0007
0009
0004
FFF8
FFFE
FFF7
0002
0005
FFFD
FFFD
FFFA
FFFD
FFFA
0004
0006
FFF7
0003
000A
0006
FFF6
0002
0005
FFF9
0009
FFFF
000A
FFF9
0007
0008
0002
0009
0001
FFFF
FFF5
FFFA
0001
0006
0007
FFFA
FFFB
0009
0003
FFFA
0000
0004
FFF8
FFF8
0005
FFF9
0006
FFFF
0002
FFF9
FFFE
FFF9
FFF7
0004
0005
FFF8
0009
0003
FFF7
FFF9
0000
FFF8
FFF8
FFF9
FFF7
0007
0004
0006
FFFA
FFF9
0005
FFFB
0003
0008
0006
0006
0003
FFFA
0000
0009
000A
FFF7
FFF9
0003
FFF9
0009
0000
FFF7
FFFB
0001
0007
0006
0000
FFF7
0005
0003
FFF7
FFFF
FFFB
000A
FFFB
0001
FFFF
FFFE
0000
FFFF
0000
0005
FFFB
0006
0009
FFFF
FFF8
0004
FFFD
0005
FFFB
FFFB
0006
0002
FFF8
FFFF
0008
0003
0007
FFFD
FFFC
0009
FFFC
FFFA
000A
0009
FFFF
0006
0005
000A
FFF8
FFF9
0001
0007
0005
FFF9
FFFE
FFF8
0005
FFFD
FFFF
FFFB
0003
FFFC
0003
FFF8
0006
000A
FFFB
FFF9
FFFE
FFFA
FFF9
FFF8
0008
0009
FFFA
0002
0005
FFF7
FFFC
FFFF
FFFA
0005
FFFE
0001
FFFC
FFFA
0000
FFF7
0001
FFFB
FFF9
FFF6
0002
0005
FFF7
0002
0002
0006
0002
0001
FFFA
0009
0003
FFFE
0008
FFFA
FFF7
0001
0000
0002
000B
0002
0007
FFF6
FFF9
0007
FFF6
FFFA
0006
FFFD
FFF8
FFFA
0007
FFF6
FFF7
0007
FFF8
FFFD
FFFA
FFF7
0001
0006
FFFB
FFFE
FFF9
0006
0000
0006
0007
0006
FFFF
0009
0000
0001
FFFF
FFF8
0009
FFFD
FFFD
0003
FFF7
0002
0007
0003
FFFC
FFF7
FFF9
0003
0007
FFFD
0002
000A
0004
FFF9
FFFF
FFF9
FFFA
0002
000A
0001
0008
000A
0003
FFFB
0001
0009
FFFE
FFF6
0009
0000
FFFF
0003
FFFF
0009
0000
FFFD
0009
FFFE
FFFD
0008
0007
FFFA
FFF7
0001
FFFB
FFFA
0003
0000
FFF8
FFFE
FFFE
0007
FFFB
0001
0003
FFFC
0005
FFFA
0008
FFFB
FFF7
FFF8
0003
FFFA
0006
FFFD
FFFE
FFF7
0005
0005
0002
FFFE
FFFA
FFFA
FFFE
FFF8
FFF7
0005
FFFD
0001
FFF7
0000
0003
FFF8
FFFD
FFF8
0009
0003
FFF9
FFFC
0002
0009
FFF9
0002
0005
0004
0007
0006
FFFB
FFF9
FFFB
0008
FFFF
FFFE
FFFF
FFFB
0004
FFFA
0000
0000
0003
0003
FFFC
0000
0001
0001
0001
0007
FFFF
0005
FFF8
0008
FFF8
FFFB
FFF9
0003
FFF8
FFFA
0006
FFFC
FFF8
FFFC
FFF9
0000
0009
0005
0002
FFF8
0003
0001
FFFC
FFF9
FFFD
FFFC
FFF9
0001
0007
0002
FFFC
0006
FFFE
0002
0004
FFFA
0008
0004
FFF9
FFFF
0003
0007
0005
0008
0005
FFFD
0006
0000
FFFE
0003
0004
000A
FFFE
FFFE
FFFF
FFFB
FFFB
0004
FFFA
0009
0001
FFF5
FFFD
FFF9
FFF7
FFFE
0000
FFF6
0003
0003
0009
0005
FFFB
0003
FFFD
0000
0001
0001
0000
0007
FFFD
0007
FFFF
FFFF
FFFE
0009
0000
FFFC
FFF7
0002
0003
0001
0007
0008
FFF7
0003
0004
FFFD
0009
0009
FFFE
0003
FFF7
FFF9
000A
FFFC
FFFB
0003
0008
FFF6
0005
0000
0006
0006
0002
0001
0000
FFF9
0000
FFFA
0003
0000
0008
0005
FFF9
0008
0000
FFFE
FFF7
0005
FFF9
FFFC
FFF8
0003
FFFD
0004
0009
0002
0004
FFF9
0003
FFF6
FFFC
FFFE
0001
FFF8
FFF8
FFF9
0006
0003
FFFC
0001
FFF7
0000
FFFC
FFF8
FFF7
0002
FFF7
FFF8
0003
FFF8
0002
0004
FFFD
0005
0006
FFF9
FFFC
0004
0002
0005
FFFB
0003
FFF9
FFF8
0003
FFF8
0006
FFF8
FFFF
0002
0007
FFFE
FFFE
FFF8
0009
FFFE
FFF7
0001
FFFA
0005
0006
0005
FFFE
FFFB
0000
0006
0005
0004
FFF7
FFF6
0009
0007
0008
0006
000A
0005
FFFC
0004
0009
0001
0009
FFFA
FFFA
0008
0006
FFFB
0008
000B
FFFD
0009
0002
FFFF
0003
0006
0001
0008
0002
0009
0005
FFF8
FFFF
0005
000B
FFFF
0005
FFFB
FFFB
0005
0006
0005
FFF6
0003
FFFC
FFFC
0004
FFFC
0008
FFFA
0003
0009
FFF8
FFFE
0002
FFF8
FFF8
0008
0005
FFFC
FFF7
FFF7
FFFF
FFFF
0003
FFFD
0005
0006
0009
0009
0005
0006
0003
000B
0003
FFFE
0009
0002
FFFC
0000
0003
0007
0008
0006
000A
0007
FFFD
FFF7
0008
FFFF
FFFF
FFFA
0006
0001
0006
0003
0009
FFFE
0009
FFF8
0003
FFF9
FFF8
0007
0002
FFFB
FFFB
FFF7
FFFB
FFFE
0001
0004
0002
FFFF
0002
0005
0008
FFFA
FFF9
FFF9
FFFA
0006
0001
0004
0008
0003
0002
0007
0006
0007
0000
FFFB
0004
FFFC
0004
FFF7
FFFD
FFFD
0008
FFFD
FFFD
0004
0004
FFF8
0004
0006
0009
0009
0006
0006
FFF8
0009
FFFF
FFFA
0001
FFFA
FFFF
FFFB
0008
0003
0001
0002
0001
0007
FFF8
0003
0005
0008
FFFC
0007
FFF9
FFFA
0007
0000
0000
0004
000A
FFFC
0009
FFFA
0007
0008
0006
FFFE
0009
FFF8
FFF9
FFF7
0002
0008
000A
0004
FFFE
0001
0004
0002
0007
000A
0008
0000
0008
FFF8
0009
0007
FFFF
FFF8
0004
FFF8
FFF8
FFFD
FFFD
FFF8
FFF8
0001
FFFE
FFF8
FFFF
0000
FFF6
000B
FFFC
0006
FFFF
0000
0000
0006
0005
0006
0000
FFFA
FFF8
0005
0008
0003
0002
0004
FFFB
FFF7
0000
FFFB
0000
0004
0000
FFF9
0002
FFF9
0004
FFFC
0008
FFFF
FFF6
0004
FFFE
FFFB
FFFB
FFFB
FFFA
0000
FFF9
0004
0005
FFFA
FFFE
FFFA
FFFB
0000
0007
FFFC
FFFC
0006
FFFC
0007
FFFE
FFFE
0003
0009
0001
000A
0009
FFFD
000A
FFFC
FFFC
FFFD
0005
FFF9
FFF8
0007
FFFE
0007
FFFD
FFFD
FFFA
000A
FFF8
FFF9
FFFA
0007
FFF7
000A
FFFF
FFFE
0009
0002
0004
FFFB
0003
0006
0008
0003
0006
0003
0004
0003
0000
FFF9
FFFF
0004
0006
FFFA
FFF7
FFFE
FFF8
FFF9
0006
0000
0004
0006
FFFF
FFFE
FFFA
0000
0008
0002
FFF7
000A
FFFE
FFFF
0002
000B
0009
0002
FFFB
FFF8
0003
0005
0000
FFF8
0001
0001
FFFB
000A
FFFA
000A
0003
0007
0007
FFFF
0000
FFF8
FFF6
FFFA
0003
FFFF
0006
0005
FFFA
FFFF
FFFE
0001
FFFA
0003
FFF8
0007
0003
0009
0006
0008
FFFD
FFF9
0004
FFFF
FFFC
0009
0003
FFFF
FFF7
0008
FFFC
0002
0003
0000
FFFA
FFF9
0001
0003
FFFC
FFFD
0006
0008
000A
0008
FFF7
0005
000B
0002
FFF9
0005
FFF8
0009
FFFF
0009
0006
FFFD
0006
0001
0000
0004
FFFB
0009
FFFF
FFFF
FFF9
FFF7
FFF7
FFF8
0001
FFFD
0007
0001
0007
FFFA
FFF9
FFFF
0006
FFFB
0008
0004
FFFA
0008
0004
0004
FFFF
FFF8
0006
0000
FFF8
FFF8
FFF8
FFFA
FFF8
FFF6
FFFA
FFFF
0006
FFFE
FFFC
0005
0008
0005
FFF6
FFFD
FFF9
0009
FFFD
0003
000A
0004
0002
0009
0009
0009
FFFF
0001
FFF8
FFFF
FFFB
0007
0006
0004
0005
FFFF
0004
0005
0005
0004
FFF9
FFFA
000A
0004
FFFA
FFF8
0003
FFFB
0005
0009
0000
0003
0006
0002
FFFA
FFF7
0009
0002
FFFC
0008
0000
FFF9
FFFA
FFFD
FFFA
FFFD
0000
0000
FFF9
0001
0008
FFF8
FFF8
0007
0000
FFFB
FFF9
FFF7
0009
FFF7
0005
FFFF
0007
000A
FFFF
0001
FFF9
0003
0002
0001
FFFE
0009
0004
FFF9
0000
FFF8
FFFB
0009
0005
FFFF
0007
0004
FFFD
0007
000A
FFFA
FFFA
FFF8
0006
FFFA
FFF7
0005
FFF7
FFFE
FFFA
0003
FFF8
0002
0003
0000
0008
0002
0004
FFFC
0007
FFFD
FFFD
FFF8
000A
FFFE
0001
FFFA
0008
FFFF
FFFB
0009
0003
0001
0004
FFFB
0009
0009
FFFE
0006
0004
0003
0004
0005
0002
0005
0008
FFFE
FFFA
FFFD
0006
FFFB
FFF9
0009
0009
0003
FFFE
FFF7
FFFC
FFFE
0009
0001
FFF7
FFF6
FFFD
0006
0008
000A
0003
0004
0005
0007
0007
0006
FFFD
0004
0003
0009
0002
0008
0002
0008
0003
FFFC
0007
FFF8
FFF7
0004
0002
0004
FFF8
FFF7
FFF6
FFFA
0008
0008
0003
000A
0005
FFF7
FFFF
0008
0005
0008
FFFE
0001
FFFB
0007
FFF9
FFF7
0008
FFF7
0001
0003
FFF8
0003
FFFC
FFF9
0004
0001
FFF8
FFFF
FFFF
0006
FFFC
0006
0002
0008
0002
FFF9
FFFB
0004
0009
FFFB
0006
000A
0003
0007
FFFC
0007
000A
0008
FFFA
FFF7
0003
FFFB
FFF7
0003
FFF7
0007
FFFF
FFFE
0006
FFFE
FFF6
FFF9
0003
000A
FFF8
FFF9
FFFB
FFF6
0006
FFFC
0007
0006
FFFF
FFFE
0009
FFFC
FFFF
FFFA
FFFA
0003
FFFE
0005
FFF8
0008
FFFD
0008
0005
0001
FFF8
0000
FFFF
0008
000B
FFF8
0006
FFFB
000A
000A
0008
0003
0006
0003
0004
0007
FFFA
FFFF
0002
FFFA
FFFE
0005
FFF7
0006
FFFA
FFFA
0005
0001
0009
FFFD
0006
FFF7
FFFB
0005
FFF8
0002
0001
0002
FFF9
0007
0005
FFFA
FFFB
0001
FFF7
0002
FFF9
FFF8
FFF8
0005
FFF8
FFF9
FFFF
0005
FFF9
000A
FFFE
0005
FFF8
FFFD
0002
FFF8
FFF7
FFF6
FFFC
0001
FFFA
0001
0005
FFF7
0004
FFFA
0000
FFFC
0004
000B
0009
0009
0006
FFFB
FFF9
0003
FFF6
FFFB
0005
FFFA
000A
FFFF
FFFC
0007
FFFD
0005
0007
000A
FFFC
FFFC
FFFA
FFF9
0008
FFFC
FFF9
0001
0008
FFFB
0009
0009
FFFE
FFF9
0004
FFFF
0004
FFFA
0008
0003
FFFF
FFFD
FFFF
0004
FFFE
FFF8
000B
0001
FFF7
0002
0001
0009
0000
0001
FFF8
FFFB
0001
FFF9
FFFB
0007
0005
FFF7
0007
0007
0008
FFFC
FFF6
FFF6
FFFC
FFF7
0003
FFFD
FFF9
0002
FFFB
FFFB
0008
0002
0006
FFFB
0005
FFF6
FFF6
FFF7
0009
FFF6
FFFF
0003
FFF7
FFF8
0000
0002
000A
0003
FFF8
FFF9
FFF6
FFFA
0005
FFFF
FFFF
0006
0004
0003
0005
0005
0007
FFF8
FFF9
FFFC
FFF9
0009
0007
0005
FFFE
FFFF
0001
FFFD
0004
FFF9
FFFC
0001
FFFB
0002
0005
FFF8
FFF6
FFFA
FFF8
0000
FFFB
FFFE
FFFF
0007
FFFF
0005
0002
0001
FFFD
FFFC
FFF8
FFFA
FFF5
FFFC
FFF8
FFF5
FFFF
FFF6
FFF7
0005
FFF6
0005
FFF6
0004
0004
0006
FFF9
0002
0006
0001
000A
0007
FFFA
0003
FFF9
FFFB
0003
0009
FFF9
FFFC
0007
FFFB
0005
0001
FFFB
FFF7
0004
0007
000A
FFFE
0004
FFFF
0007
0006
0007
FFFC
0007
FFFA
FFFC
0009
0002
0007
000A
0000
0006
FFF8
000A
0002
0000
FFFD
0001
FFF9
0005
0000
0001
000A
FFFD
FFFF
0007
FFFC
0002
FFFD
FFFB
FFF9
0004
FFFB
FFFB
0007
FFF9
0002
0001
0009
0006
FFFA
0004
FFF9
FFF6
FFFF
0006
FFFD
FFFC
0005
0002
FFFF
0007
FFFA
FFFF
FFFB
0006
0007
0008
000A
FFFD
FFF8
FFFE
FFF9
FFFB
0009
0001
0002
0002
FFF8
0002
FFFF
0002
FFF9
FFF9
FFFE
0009
0001
0003
0009
0008
FFFF
000A
0005
0000
FFFF
FFFB
0007
0003
FFFB
0000
FFFE
FFFF
FFF7
FFFA
0002
0000
0002
0001
0001
0005
FFFE
0006
0006
FFF9
0000
0002
FFFF
FFF7
FFFC
FFFB
0004
FFFD
FFFE
FFF7
0005
FFF9
0000
0004
0005
FFF7
0004
0001
FFF5
FFF9
0008
0008
FFF9
FFFB
0003
FFFF
0008
FFFF
0000
0000
FFF8
0002
0006
0008
0002
0008
FFFD
FFFB
0008
FFF6
FFFF
0007
0009
0004
FFFD
000A
0004
FFFA
0002
0000
0000
0006
FFF8
0005
FFFE
0009
0002
FFF6
FFFC
FFFF
0007
FFF6
0007
FFFE
FFFD
0000
0009
0007
0004
0008
FFF6
0002
0001
0004
0001
0009
FFF8
FFFA
0003
0003
0009
FFF8
FFFC
0007
FFFF
FFF7
0006
0000
0008
FFF8
0005
0007
0005
FFF9
FFF6
0000
FFFE
0009
FFFD
FFF8
0004
FFFC
FFFE
FFFF
0007
0002
FFFE
0003
0002
0002
FFFC
0005
FFFA
0001
FFFE
FFF7
FFFA
0004
FFFD
0000
0006
FFF6
FFFA
0001
0001
FFF8
FFFB
FFFA
0009
FFFB
0004
FFFA
0006
FFF9
FFFC
0005
0007
FFFB
FFFC
0005
FFFD
FFFA
0005
FFFD
FFFD
FFFD
FFFA
FFF7
0000
FFFB
0007
0003
FFFA
0005
0005
0005
0008
FFF9
FFFB
0004
FFFF
0005
FFFD
FFFE
0004
FFFE
0003
0008
FFF9
0002
FFFD
FFFD
0004
FFF7
0007
0003
0005
0007
0006
0004
0007
0000
FFFD
0002
FFFF
FFFD
0006
0001
FFF9
FFF8
FFF9
0001
FFFE
FFFA
0009
FFFC
0008
000A
FFFE
0000
FFFC
0001
FFFB
FFF9
0003
0006
FFFC
0009
0000
0000
0001
0009
0002
FFFB
0002
FFFE
0009
0004
FFFD
0006
FFFB
0006
0005
FFFB
FFFC
0009
0002
0003
0000
0004
FFFC
0004
FFFE
0009
0008
FFF9
0008
0006
FFFE
0005
0007
FFFA
FFFF
FFFB
FFFF
0007
FFF9
0003
FFFB
0003
0005
FFFA
FFFF
0006
FFFE
0006
0003
000A
FFFD
0009
FFFF
0008
FFFD
000A
0008
0003
0001
FFF6
0009
FFFB
0009
FFFA
FFFE
FFFD
FFFE
FFF7
FFF7
FFF7
0002
0001
0009
0002
FFFF
FFFD
0006
FFFB
0004
0001
0003
FFFE
0001
0003
0005
0006
FFF7
0009
FFF9
FFFF
0006
0001
0009
FFF7
0000
FFFC
0001
FFF8
0005
FFF7
0001
FFFF
FFF6
FFFB
0000
FFF7
0007
FFFB
FFFF
FFF8
0006
000A
FFFA
FFF6
FFFB
FFFE
FFFF
FFF9
0000
FFFA
FFFF
0002
FFFC
FFFC
0006
0008
0008
0003
FFF8
0005
FFFD
0003
0000
0002
FFFA
0001
0003
FFFD
0001
0002
0009
0002
FFFC
0002
FFFC
FFF9
FFFD
FFFB
FFFB
0005
0003
0002
0007
FFF8
FFFC
0004
FFF8
0002
FFFF
FFF7
0000
000A
0006
FFF7
FFFD
0004
FFFA
FFFA
0000
FFF7
0006
0001
FFFD
0002
0006
FFFC
0006
0007
0006
FFFA
0008
0006
000A
0007
0005
FFFD
FFFA
FFF7
0003
0002
000A
0005
FFF9
0007
0000
FFFB
FFFC
0004
0001
000B
FFF9
0005
0007
0002
0008
FFFD
0007
0007
0008
FFFD
0009
FFF8
0000
FFF6
FFFC
FFF8
FFFF
FFFA
FFFC
FFFE
FFFC
FFF6
FFFB
0005
0000
FFF9
FFFD
FFFF
FFFD
0000
0008
0006
FFFD
0001
FFF7
0004
0008
FFFA
FFFE
FFF8
0001
FFFA
0005
0008
0008
FFF8
0003
FFF7
0002
FFFB
0001
FFFC
FFFC
FFF9
FFFB
0005
000A
0009
0009
FFF6
FFF8
0008
FFFE
0003
0003
0008
0005
0002
0007
FFF8
FFFD
000B
FFFC
0006
0004
0007
FFF6
0000
FFFC
0006
0004
0007
0001
0003
FFF6
FFFF
FFF6
FFF9
FFFF
0005
FFF7
000A
FFFF
FFF9
FFFF
0008
0009
FFFD
0002
0003
FFF5
FFFC
0001
0001
000A
0007
0007
0004
FFF7
FFFA
0000
FFFE
0007
FFFB
FFF8
FFFD
0006
FFFB
0004
FFFF
FFFA
FFFC
0003
0003
0004
0003
FFFF
0002
FFFE
0002
FFF9
0003
FFF6
0005
0000
FFFA
FFF9
FFFC
0002
0005
0009
FFF9
0004
FFF8
FFF9
FFF6
FFFB
FFFB
0007
FFFB
0005
0008
0008
0009
FFFE
FFFF
0006
0005
FFFF
FFFC
0005
FFF8
FFFB
FFFF
FFFA
0008
FFFF
0001
0007
0002
FFF7
000A
0004
FFF8
FFFA
FFF9
FFFB
0000
0005
0007
0007
0001
FFFC
FFFE
0004
FFF6
0008
0008
0008
0006
FFFA
FFF7
FFFF
FFF9
FFF6
FFF9
FFF8
FFFF
0009
000A
0006
FFF9
FFF7
0000
FFF9
FFF9
FFFF
FFFD
0001
FFF7
0005
0002
0007
0001
FFFD
0004
0004
0000
0007
0009
FFFC
0006
FFF6
0007
FFFA
FFFE
0004
FFFA
0006
0008
0000
000A
FFFD
FFFF
FFFB
FFF8
FFFC
0009
000B
0003
FFFB
FFF7
0006
FFF6
FFF6
FFF8
FFFE
FFFB
FFFD
FFFC
0001
000A
0002
0008
0007
FFF7
FFF9
0002
FFFE
FFFA
FFF7
FFF9
FFFC
FFFA
0004
0004
FFFF
0000
FFFA
0000
FFF9
FFFF
FFF7
FFF7
0006
0004
FFF9
FFFC
FFFC
0008
FFFA
FFFA
FFFC
FFFC
0000
FFF7
FFFD
0007
0003
0002
0003
FFFA
FFFE
FFFD
0006
FFFD
0009
0009
0005
0004
0004
0003
0003
0003
FFF6
FFF6
0007
0000
FFFF
0005
FFFB
0006
0008
0004
FFF9
FFF7
FFFD
FFFD
FFFB
FFFE
FFF7
0000
FFFC
FFFE
0002
FFFE
FFFA
000A
0002
0004
FFFB
0005
FFFC
FFFD
FFF9
0008
FFFD
0003
0004
FFF8
0007
FFF8
000A
0001
0007
0005
FFFE
FFFA
FFFB
FFFF
0008
0008
FFF7
0003
FFFC
FFFB
0000
FFFE
0004
FFFB
FFF9
FFF7
FFF8
FFFF
FFFD
0007
0007
000A
0006
FFF8
0002
FFF6
0009
0007
FFFA
0008
FFF9
0005
0001
0008
0006
0007
FFFD
0007
FFFA
0001
0005
0004
0008
0004
FFFF
0002
0008
0005
0001
0009
0001
0008
0003
0009
FFFD
0008
FFF9
0001
0009
0007
FFF6
0002
0002
FFFD
FFFA
0001
FFF8
000A
FFFA
FFFA
0002
0001
0005
FFFA
0002
FFFD
FFFD
FFFC
FFFC
0000
FFFD
000A
0008
FFF7
0006
0006
0002
FFF6
FFFD
0008
FFFA
FFFA
0002
0000
0009
0001
0001
0005
FFFA
000B
0003
000A
0008
FFF7
FFFB
0002
FFFE
FFFB
FFFB
0009
FFFB
FFFC
0007
0004
FFF5
FFFD
0007
FFFD
FFFA
0005
0003
0003
FFF9
0001
0007
FFFC
0004
FFFE
FFF5
FFFA
FFF8
FFFC
000B
000A
FFFE
FFF9
FFFD
0007
0005
000A
FFF9
0006
000B
FFFB
FFFC
FFFF
0006
FFF8
FFF7
FFFB
FFF9
FFFB
FFF9
0000
0005
FFFA
000A
000A
0003
0006
FFFC
0001
0004
0005
0002
FFFC
0005
0004
0007
FFFE
0002
0005
FFF8
0000
0000
FFF9
FFF6
0003
0007
0006
0001
0008
0006
0000
0001
FFFE
FFF9
0000
0005
FFF5
0003
0003
0003
FFFC
FFFD
FFF7
0007
FFFC
FFFC
0003
FFF8
0001
000B
0003
000B
0000
0007
FFFE
FFFB
FFF8
FFFC
FFF7
FFFB
FFF7
FFFA
0005
FFFA
0003
FFF5
0007
000B
FFF8
FFFF
0002
FFFB
0008
FFFA
0003
0002
FFFF
0007
0002
0000
0001
FFFE
FFFF
0001
0002
FFF8
FFF2
FFF9
0003
0003
FFFC
FFFD
FFFC
FFFB
0004
FFFB
FFFD
0006
0006
FFF9
FFFB
0000
FFFB
FFF6
0002
FFFA
0006
FFFE
FFF9
FFF6
FFFD
0008
FFFF
FFFE
FFFE
FFFD
FFFC
FFF9
FFFD
0005
FFFC
0008
0005
0006
0005
0001
0003
0005
0009
0004
FFFF
0000
0009
000A
FFF9
0008
0001
FFFD
0001
0003
FFF9
FFFD
0007
FFF7
FFFD
FFFD
FFF9
FFF8
0004
FFFA
0007
0005
FFFC
FFFE
0001
FFF8
FFFC
0007
0006
FFFA
FFF9
FFFE
FFF7
FFF7
FFFF
0008
FFF9
0005
FFF8
0005
FFF6
0007
FFFB
0009
0003
FFFC
0000
0007
0005
0007
000B
0008
0008
000B
FFFA
FFFE
0008
0005
0003
0003
FFF8
0005
FFF6
0003
FFF4
FFF8
FFFD
FFFC
FFF8
0001
FFFA
0005
FFFA
0009
FFFC
0008
0005
FFF6
FFFE
0002
FFFF
0007
0009
0006
FFF8
0003
0007
FFFF
0006
0007
0006
FFF8
FFFA
FFF7
0006
0006
0001
0007
0004
000B
FFF9
0007
FFFC
0009
FFF9
000A
0001
FFFB
FFF6
0002
000A
FFF9
FFF6
FFFA
0000
0004
0003
FFF6
FFF4
0001
FFF5
FFFE
FFFD
0005
0002
0005
0000
FFFE
FFFF
FFFB
0003
FFF7
FFF6
0003
FFFC
0004
0009
FFFA
FFF8
FFF9
FFF7
FFF9
0000
0003
0003
000B
0000
FFF8
0005
000A
FFFA
0009
FFF8
0008
0001
FFF7
FFFE
0001
0001
FFF6
FFFE
0005
0007
FFFB
FFFC
0000
0006
0009
0008
FFFA
FFFD
0001
FFF9
FFF7
FFFB
FFFD
0005
FFFA
0003
0004
0006
FFFA
FFFC
FFFA
0003
FFFB
0007
FFFB
0006
000A
0009
0000
0003
0002
FFFE
000A
FFFE
0003
0001
0003
FFFF
FFFE
FFFB
0002
0003
FFFC
FFF8
FFF6
FFFC
0001
FFFF
0007
FFFE
FFF8
0007
000B
0007
0008
FFFF
FFF9
FFF9
0003
0006
0007
0004
FFF8
FFF7
FFFF
0009
000A
0003
0004
0001
0000
0000
0001
FFFD
0009
FFF7
FFF9
0001
0000
0006
0001
000B
FFFF
000A
0005
0009
FFF9
0000
0000
0002
0001
0007
0002
FFFC
0007
0001
FFF6
FFFB
0006
FFFD
0004
0009
0009
FFF9
0009
0004
0005
0004
FFF8
FFFF
FFFB
0002
FFFA
FFF8
0001
FFFE
FFF8
0004
0004
0007
FFFA
FFFD
FFFF
FFFD
0007
FFF8
0004
FFF9
FFF7
0007
0009
FFFA
FFFC
0005
FFFC
FFFC
0007
0000
0002
FFFC
0002
FFFE
FFFD
FFF9
FFFB
0005
0003
FFFC
FFFF
FFF7
0005
FFFD
FFF8
0003
0009
FFFD
0007
FFFB
FFFB
0005
0006
FFF7
0006
0006
0005
0008
FFF7
FFF9
0004
0003
FFFB
FFF7
0006
FFFA
FFFB
FFFE
FFFB
FFFD
FFF7
FFF9
0005
FFFC
0007
0009
0008
0007
FFFD
0008
FFF9
FFFB
FFFC
0005
0004
0004
0009
0005
FFFC
0005
FFFE
0004
FFFD
0001
0008
0004
FFF8
0003
0008
FFFB
FFF8
000A
FFF9
FFFC
0002
0007
FFFC
FFF5
0001
FFFE
0008
FFFE
FFF9
000A
0001
0001
0007
FFFE
FFFF
FFFA
FFFD
FFFA
000B
FFF6
0004
FFF7
FFF8
0006
0003
0001
0005
FFF9
0001
0000
FFFC
0008
FFF8
000A
0000
FFF8
FFF7
0002
FFFB
0002
0003
FFFC
0004
FFF7
FFFA
000B
0004
0009
FFF8
FFF9
0008
0003
FFFF
FFFA
000B
0007
0005
FFFB
0004
0009
0007
FFFD
FFFA
FFF8
0005
0002
0003
FFFB
FFFC
FFF6
0006
FFFE
FFFD
FFF9
000A
0005
0007
FFFC
000B
FFFB
FFFD
0000
0002
0004
0006
0007
FFFA
FFF9
0009
0006
0000
0009
0008
FFFB
FFF6
0009
FFFF
0006
FFF5
FFFB
0003
FFF8
0001
FFFA
FFFE
FFFD
0001
FFFC
FFFB
FFFB
0007
FFF8
FFFF
FFF5
0004
0002
FFFD
FFFF
FFFB
0004
0006
0005
0004
FFF9
000A
FFF7
0009
0000
FFF6
0008
0000
FFF8
FFFD
0002
0005
FFF7
0009
FFFF
FFFC
0008
FFFA
FFF8
0000
0001
0001
0000
0001
0002
FFFE
0003
FFFB
0005
FFFD
FFF9
FFFB
0006
0008
0005
FFFD
FFFE
0000
0001
FFF9
0007
0005
0006
FFFA
FFFE
0003
0009
FFF6
FFF7
0000
0003
FFF6
FFFD
0001
0001
FFFB
0005
0008
0001
FFF7
FFF6
0008
0006
FFF7
0008
FFFF
0009
FFFF
0008
0007
FFF7
FFF7
FFFE
0003
FFFF
0003
0007
0004
0003
FFF7
0008
FFFA
FFFA
0004
FFF9
FFF9
0004
FFFE
0008
FFF7
0000
FFFA
0007
0002
FFF6
FFFC
0007
FFFB
FFFC
FFF7
0003
FFFF
FFFE
0003
FFF8
FFFC
0001
FFFA
FFFA
FFF6
FFFC
FFF9
0003
0003
0005
FFFB
FFFC
0004
FFF6
FFFE
0009
000A
FFF5
0009
FFF6
FFFB
0007
FFFE
0001
FFF8
FFFA
0000
0004
0005
0002
0003
0002
0009
0007
0007
0001
0003
0003
0002
FFFB
FFF9
0000
0000
FFFD
FFFC
FFFD
0008
FFF7
FFFF
0004
0000
FFF6
0003
FFFB
0000
0004
0000
0005
FFFD
0009
0007
0000
FFF7
0007
0002
FFFD
0000
FFF9
0001
0004
0002
0001
0004
000B
0003
FFFF
FFFF
FFF9
FFFB
000A
0005
0008
0006
FFFF
0009
0000
0006
0009
0008
FFFD
0003
0004
0003
0005
FFFF
FFFB
FFF7
0007
0008
FFFF
FFF7
0006
0009
FFF7
FFFE
FFFE
0008
FFFC
0002
0006
FFFF
FFFB
0004
0007
0005
0008
0000
FFFD
0003
FFFD
FFF8
FFFC
FFF9
FFFA
FFFD
0000
0001
FFFB
FFFB
FFFE
FFF9
FFF9
0001
0003
0009
FFFC
FFFF
0000
0002
FFF9
FFF9
FFFF
FFFB
FFFD
0001
FFFC
FFFB
0009
FFFA
FFF9
FFF9
0008
0009
0006
0007
000B
FFFF
0000
0006
0002
0009
FFFF
0009
0001
FFFF
FFFC
0006
FFFB
0002
0004
0000
0008
0006
0009
FFF7
FFFA
FFFB
0003
0001
0006
FFFA
FFF8
FFFC
0003
FFFE
0006
0000
0002
FFFC
0004
FFF5
0005
0005
FFF7
0008
0003
FFFB
FFF8
0002
FFF9
0002
0008
FFF8
FFFA
FFFD
0004
FFFE
0004
FFFB
0008
0006
0006
FFFF
0004
0002
000C
FFFA
0002
0000
0009
0008
FFFA
FFFF
FFFD
FFFE
FFFC
0007
0001
0008
FFFD
FFFF
FFFF
FFFC
FFFB
FFFE
0007
FFF8
FFF8
000A
0008
FFFF
0000
FFFB
0001
FFFD
0003
FFF7
0004
FFFE
FFFB
FFF9
FFFC
FFFC
0007
FFF9
0003
FFF9
0001
0005
FFFA
FFFC
FFFD
0008
FFFD
0003
0003
FFF7
FFF9
0003
FFF7
FFFE
FFFF
FFF8
0008
0005
FFF9
FFFC
0006
0004
FFFB
0008
0002
0002
0002
0007
FFF8
FFF7
FFFA
FFF7
0002
FFFB
0000
0001
FFFC
0003
FFFA
0000
FFFB
0001
0006
FFFF
0004
0008
0000
0008
0006
0008
0007
FFF9
FFFE
FFF7
0000
FFF8
0002
FFFA
0003
FFFD
FFFA
000A
0002
FFF8
0002
FFFB
0007
FFFE
0006
0009
FFFD
0002
0009
0008
0003
0007
000A
FFFD
FFF7
FFFC
FFF8
FFFC
0009
0001
FFFF
FFFA
FFF9
0009
FFFD
FFF9
0008
000C
FFFA
FFF9
0001
FFF5
0000
0002
FFFC
0006
0004
FFFD
FFFA
FFF7
0001
FFF8
FFFE
000A
FFFD
FFF9
0002
0000
0007
FFFC
FFFF
0008
FFF7
0006
0002
FFF7
FFFF
0002
FFF9
0003
0003
FFF8
0001
FFF8
FFFA
FFFD
0009
FFF8
0003
0005
0006
0006
0009
FFFE
FFFE
0009
0007
000B
0009
FFF7
0001
FFF6
0002
0005
0008
FFFF
FFF6
FFF8
000A
FFF7
FFFA
0007
0000
FFFC
FFFD
0006
0005
0001
0005
0002
0003
FFFB
0006
FFFA
FFFB
0002
0000
FFFB
0003
0007
FFFB
0004
0000
0000
FFFB
FFF9
0001
0001
0009
0003
0003
FFFE
0006
FFF7
0004
000B
0007
0002
FFFF
0002
FFFB
FFFC
FFFB
0005
FFF9
FFFE
000A
FFFB
FFFC
FFFC
FFF7
FFF6
0000
FFFF
0009
FFF8
0005
FFFF
0002
0002
FFFF
0007
0005
FFFD
0003
FFF6
FFFE
FFFB
FFFF
0005
0005
0001
FFFC
0004
0006
0003
0008
0007
FFF7
0009
0001
FFF7
0003
FFF9
000A
0001
FFF7
0004
FFF7
FFFC
0002
0000
FFFE
0006
FFFE
0007
0001
FFF9
0000
FFFF
0005
0002
FFFB
FFF7
FFFE
FFF7
0000
0009
FFFF
0000
0009
FFFC
FFF6
0000
0009
000A
0005
0006
0003
0006
0001
0002
0000
0004
0005
0004
FFFC
0004
FFF8
000B
0004
FFFA
FFF7
FFFB
0003
0000
FFFC
0008
FFFB
0003
FFF7
FFFD
0006
FFF7
FFF7
0009
0006
0000
0000
0001
0003
FFF7
FFFB
0000
FFF9
FFF6
0002
0008
0002
0003
FFFE
FFFD
FFF6
0002
FFFF
0004
FFFD
FFF6
0001
FFFF
0009
0006
0005
FFFB
0007
0006
0006
FFFC
0002
0007
0005
0007
0006
FFFE
FFF6
FFF9
FFFA
0006
0003
FFF9
0008
0008
FFFA
0000
FFFC
FFFB
FFF9
FFF8
FFF6
0009
0006
FFFE
0007
FFFA
FFF8
FFFD
FFFC
0001
FFF9
FFFF
0000
FFFD
0002
FFF8
FFFC
0000
0001
FFFD
FFF5
FFFB
FFF5
0002
0009
FFFE
FFF7
0005
FFFD
FFF8
0009
000A
0000
0001
0003
FFF6
0001
0007
0003
FFF7
FFF8
FFFB
FFFC
0006
FFFF
0009
0009
FFFB
FFF6
FFF5
000B
FFFD
FFFC
0002
FFFF
FFFE
0009
0009
FFFE
0000
FFF6
0000
FFF7
0000
0005
0002
FFF6
0005
0001
0009
0004
0007
FFF7
FFFB
0009
FFF6
FFFF
0005
FFFF
0003
FFF8
FFFE
FFF8
0006
0009
0004
FFFE
FFFC
FFFE
0003
FFFA
0003
FFFE
0004
FFFA
0000
0001
0003
0003
FFFF
FFF6
000A
FFF8
0000
0005
FFFE
FFFC
0001
FFFD
FFFF
0004
0008
0002
0009
0009
0009
FFFF
FFF9
FFFE
0008
0005
FFF5
0001
0003
0002
000B
FFFE
0008
FFF9
0004
FFFD
0003
0001
0000
0007
FFFB
0005
0006
000B
0000
FFFD
FFFB
FFF9
0006
0003
FFF8
0000
FFF6
FFFD
FFF9
0005
FFF7
0005
FFFC
0007
000C
0001
0006
0004
0004
0004
0006
0006
FFF6
0008
0009
FFFA
FFF7
FFF8
FFF7
0000
FFF6
0007
000B
000A
0000
FFFC
0001
FFFE
FFF6
FFFA
0007
0000
FFFD
FFFD
FFFD
0007
FFFF
FFF7
0003
0007
FFF6
0004
FFF9
FFFA
FFFF
0009
FFF9
FFFA
0008
0001
FFFC
FFFC
FFFC
0000
0001
FFFB
FFF6
FFFF
FFFF
0007
0002
0004
FFFF
0005
0008
0003
FFF9
0001
000A
0000
0008
0004
0006
FFFC
FFFD
0009
FFFB
0002
FFFA
FFF7
0002
FFFE
FFFC
0007
FFFD
0005
0008
FFF8
FFFF
FFFA
000A
0000
0007
FFFC
0000
FFFF
FFFE
0007
0009
0005
FFF9
0009
FFFE
FFFD
0002
0000
0004
000A
FFF8
0003
0005
FFFF
0000
FFF8
FFFD
000A
0008
0005
FFFE
FFFC
0006
0007
0007
FFF8
000A
FFFD
0002
FFFD
0005
FFF9
FFF9
0007
FFF8
FFF8
0001
000A
0009
FFF9
0002
0001
0007
0006
000A
000A
FFFC
0005
0006
FFF9
FFFF
0008
0002
FFFE
FFF9
0004
FFFF
FFFF
FFFC
0007
0003
0005
FFF8
0006
0005
FFF9
0004
FFFC
0003
0003
FFFD
0004
FFF8
0005
FFF7
0003
0009
0007
FFF7
FFF6
FFFF
000A
0006
FFFE
0001
FFF7
0004
0001
FFFF
FFFC
0002
0005
0002
FFF7
0002
FFFE
0008
0005
FFFE
FFFC
FFF7
FFFF
FFF7
FFFC
0004
0007
FFF9
FFFB
0004
FFFE
FFF9
0008
FFFA
FFFB
FFFD
0006
FFF7
0006
FFF7
0007
0002
FFF8
FFF9
0003
FFFA
0000
FFFD
FFFC
0008
0009
0006
FFFF
0003
0001
0004
FFFB
0002
FFF9
FFFA
0001
0005
FFF6
0009
FFFE
FFFE
0000
0008
FFFC
FFF9
0002
FFF8
0005
0001
FFF7
FFF7
0001
FFFB
0002
0001
0008
0008
FFF6
FFFF
0002
0000
FFFA
0006
0002
0002
0006
FFFF
0000
FFFF
FFF8
FFFA
0002
FFF8
FFFA
0009
0002
0008
0007
FFF7
FFFF
FFF6
FFFE
FFFA
0002
0005
0000
FFFA
FFF9
FFF9
0003
FFFD
0004
FFFA
0000
FFF8
FFF9
0000
FFF5
FFF8
0002
0002
FFF9
0002
FFF8
FFFF
0001
FFF9
0009
FFFA
0007
0009
FFFF
FFFA
FFF9
0008
FFF9
0001
0000
0002
0004
FFFA
0009
FFFE
FFF7
FFF8
FFF3
FFFC
FFF7
0009
FFF9
0002
0006
FFF7
0001
0009
FFF7
FFF9
0001
FFFB
FFFF
FFF9
0005
FFF5
0002
0001
0003
FFFD
0003
FFFA
FFF9
FFFA
0000
0008
0003
0003
FFF7
0008
0009
0008
0002
FFFC
FFF6
0009
0009
0006
0001
0003
0000
FFFF
FFFE
0006
FFF8
0009
0006
0005
FFFD
0006
FFFE
FFF7
FFF5
FFFD
FFFD
FFFD
0009
FFFC
0000
0006
0007
0004
0003
0000
0006
0006
000A
FFFE
FFFF
FFF7
0008
0003
0004
FFFB
0006
FFF9
0002
0001
0003
0007
0008
0006
0007
FFF9
FFFB
0009
0007
FFFC
0005
FFF7
000A
0007
FFFC
FFF9
0008
0005
FFFD
000A
FFFB
0008
0009
0005
FFFB
FFFC
0001
0006
FFF5
FFFF
FFF8
0003
FFFD
0008
0004
0008
0008
FFFC
FFFA
0000
0007
FFF9
FFF9
0004
0000
0005
FFFE
0004
FFFA
0008
0005
FFFE
0006
0007
000A
0000
0003
FFFB
FFF9
FFFC
FFFA
0000
0005
FFFB
0008
FFFA
0004
0006
0009
FFF9
0005
0009
FFF7
FFF8
FFF7
FFFF
FFF5
0003
0006
0006
0007
FFFC
0009
FFFB
FFF6
FFFA
0003
0005
0003
FFF7
FFF9
FFF9
0003
0002
FFF8
FFFF
FFF7
FFF9
FFF6
FFFC
FFF7
0004
0009
FFFA
FFFC
0008
0000
0002
FFF9
FFFD
FFFB
FFFF
0000
FFF9
FFFD
0004
0002
FFFA
FFFF
0003
0003
FFF7
0002
0007
0000
0008
0003
0008
FFFF
000A
0002
FFFE
FFFE
FFF9
0006
0002
0004
0000
FFF8
0004
FFFB
FFFE
FFF6
FFFF
0004
0004
0001
0000
0003
FFFC
0000
FFF4
0002
FFFD
0005
FFFE
FFF8
FFF7
FFF8
0001
FFF8
FFF7
0006
FFFC
FFFF
FFF7
000A
FFFA
000B
0007
FFF8
FFFA
FFFD
0006
000A
0001
0006
FFFD
0006
FFFD
0009
0008
0008
000B
0007
FFFF
0009
0001
0003
0003
FFF7
0002
FFFA
000B
FFFD
FFFB
0002
FFFA
0006
0005
FFFD
FFFF
000A
FFF9
FFFD
FFFD
0009
0000
0001
0001
0000
FFF5
0006
FFFF
FFF9
FFFC
FFF9
000A
FFFE
0003
0008
0001
0000
0002
FFF9
0004
0008
FFF5
FFFA
FFFA
FFF5
0009
0004
FFFA
FFFE
0006
000A
FFFC
0007
FFF6
FFF9
0002
FFF8
FFFA
FFF9
FFFD
0007
000B
FFFC
FFFF
FFF7
FFFA
FFFD
FFF9
FFF8
0000
FFFA
FFF8
0008
0004
FFF9
FFFE
0006
0006
FFFC
FFFE
0002
FFFA
000A
0009
0003
0000
0002
0004
0002
0002
FFF9
FFFB
000A
FFF9
0001
FFFC
0008
FFFC
0006
0006
FFFC
FFFD
0005
FFFB
000A
0004
FFFA
0009
FFFF
FFFE
0008
0008
0007
0000
0004
0009
0001
0004
0007
FFF9
0009
FFF6
0004
FFFC
FFF9
FFFC
0001
FFFC
0009
FFFF
0006
0008
0002
FFFC
FFF9
FFFD
FFFE
0009
0003
FFF8
0004
FFFC
0000
0007
FFFA
FFFD
0004
FFFD
FFFB
0008
0006
FFF7
0009
0009
0001
0002
0006
FFF7
FFF8
0000
FFFE
FFFC
FFFF
0001
FFFB
FFFF
0005
0002
FFFC
0003
0004
FFFA
FFFA
0003
FFFF
0000
FFF8
FFFB
0009
0009
FFF9
0003
FFFE
0003
0000
0000
FFF6
0002
0003
FFFB
FFFC
FFF7
0004
FFFF
0006
FFF7
0007
0006
0008
FFFB
0007
0009
0008
0009
FFFF
0005
0003
0007
FFFF
FFF9
0008
FFF7
0002
FFFE
FFF7
FFFB
0000
0006
FFFD
0006
FFFC
FFF5
0003
0000
0009
FFFD
FFFE
FFF9
0003
FFF9
FFF4
0008
0009
FFF8
0002
0007
FFFB
FFF8
0009
FFFB
FFFF
000A
0005
0002
FFFD
0000
0009
0005
FFFB
0005
FFF5
FFFB
0006
FFFA
FFFF
0002
FFFB
0008
0005
FFF9
0008
0000
0000
0000
FFFE
FFF7
FFF8
0003
000A
0008
FFFB
0006
0000
0001
0007
0009
FFFA
FFF9
FFFC
0008
FFF9
FFFC
FFFA
FFFB
0003
000B
FFFE
FFFB
0007
0007
0006
0008
0009
0006
0004
FFFE
FFF8
0001
0001
0008
FFF6
0004
000A
FFF7
FFF9
FFFD
0008
0005
FFFE
0005
FFFD
0007
0001
0002
0000
0004
FFFB
0001
FFFD
FFF5
000A
0002
FFF7
FFF7
FFF7
FFF7
FFF6
FFFB
FFF6
FFF9
0002
0001
FFFB
0003
0005
0001
FFFB
0000
0004
FFFF
FFFB
000A
FFF8
FFF6
FFFC
0002
0001
FFF8
0007
0003
FFFD
FFF7
FFFF
0004
FFFC
0009
FFF7
0000
000B
0001
0005
0004
FFFF
FFFC
FFFB
FFFF
0001
FFFA
FFF7
FFFA
0009
FFFF
FFF9
FFF5
0009
FFFD
0008
0001
FFF7
0001
FFFC
FFFA
FFFE
FFF9
0000
0002
FFF9
FFF7
FFFD
FFFF
0001
0004
FFFC
FFF9
FFF9
0008
FFFA
0006
0002
0000
FFFE
FFF8
0003
0001
0001
FFFF
FFFF
FFF9
FFF9
0005
0008
FFFD
FFFE
FFFB
FFFC
0001
0008
0009
0002
0005
0009
0002
FFFE
0002
FFFE
FFFD
FFF5
0001
0002
FFF7
0003
0008
0003
FFFE
0003
0006
0002
FFFF
FFF7
FFF8
0007
0009
FFFA
0003
0005
FFFC
0004
0005
0000
FFFA
0000
FFF6
0009
FFF8
0000
0003
0008
FFFA
0006
0003
FFF6
0003
FFF8
FFFF
FFFB
0001
FFFF
0001
0001
0005
0006
FFFA
0006
0003
0001
0005
FFFE
FFFB
0000
0006
FFF7
FFFD
0002
0007
FFFC
0007
0002
FFFA
0006
FFFB
FFFC
0007
FFFC
0007
FFFA
FFF8
FFFD
FFFA
FFF6
FFFA
FFF7
FFF7
0003
FFFA
FFFD
FFF7
0002
000A
FFF8
FFFE
0008
000A
0009
0002
FFFB
FFFC
FFF5
0005
FFFF
0003
FFF8
0000
FFF9
FFFD
0003
FFFB
0002
0006
0001
FFF7
FFFD
FFFF
0000
FFFC
FFFF
000A
0003
0008
0001
0008
0007
FFFC
FFF7
0008
0002
FFFB
0004
FFFC
FFFD
0008
FFF6
FFF8
FFFF
000A
0003
FFF9
0009
FFFD
0000
0001
FFF9
FFF8
0003
FFFA
0007
0007
0006
0005
0004
0006
FFFF
FFFA
FFF7
FFF8
FFFD
000A
0000
FFFA
FFFD
FFFE
FFFF
0008
0000
0001
0004
FFFD
0008
0000
FFF7
FFFC
FFFE
FFFC
FFF9
FFFC
0005
0008
FFFB
0004
000B
0007
0004
FFFC
0002
FFFA
0000
0006
0008
0002
FFFD
0002
0000
0000
000A
0008
FFF9
FFFE
FFFF
0003
FFFF
FFFD
0005
0008
FFF8
000B
FFFB
FFF7
0005
FFFC
FFF9
FFFA
FFFA
FFF7
FFFD
0009
000A
FFFD
0000
FFFC
0001
FFFF
0004
0000
0006
0002
0004
0005
0009
0007
0004
FFF6
0000
0001
0009
FFF5
0005
FFFD
FFF8
0009
0001
FFF6
0004
0009
0004
0005
FFFB
FFFB
0006
FFFC
0007
FFFC
0004
FFFA
FFF9
0002
0002
0008
0004
FFF9
0001
0002
FFFC
FFFF
000A
0008
0001
0004
FFFE
FFF7
000C
0004
FFF7
FFFA
0005
FFF7
0004
0001
0003
0008
000A
0007
0004
0000
0009
FFF6
0001
0003
FFFD
0009
0004
0009
0001
FFFC
0008
0006
FFFA
FFF5
FFFD
FFFD
0000
0006
0003
FFFB
000B
0001
FFF8
FFFD
FFF5
0004
FFFA
FFFC
FFFA
FFFD
0006
0005
0009
FFF9
FFFC
FFFE
0000
0009
FFF8
FFFC
FFF8
FFFD
FFF6
FFF7
FFF5
0006
0003
0004
0006
FFF7
000A
000B
0003
FFFD
0005
0002
0000
0001
FFFB
FFF8
FFFC
0004
FFFA
0004
FFF9
FFF7
0007
FFFC
0006
FFFE
FFFE
000A
0009
FFFA
0007
0002
0005
FFFF
FFFA
0009
FFFE
0007
FFFA
FFF8
000B
FFFA
0002
0003
FFFC
0000
FFF6
0001
FFF8
FFFB
FFFB
FFFD
0008
0004
000A
FFFB
FFFE
FFFF
FFFC
0005
FFFE
FFFF
FFFF
0001
0008
FFF6
FFF9
0009
FFFC
FFF7
FFF7
FFF6
FFFA
0004
FFFE
0006
FFFE
FFF9
0002
0005
FFFE
0001
0006
FFF8
FFF8
0003
0004
0008
0007
FFFD
0007
FFF7
FFFA
0005
FFF8
0006
FFF7
0007
0003
FFFF
FFFE
0002
FFF7
0004
0000
0000
0008
0003
000A
0004
FFFA
FFF6
FFFD
0000
0003
0005
FFFE
0001
000A
FFFB
0001
0003
FFF9
FFF8
FFF8
000A
0000
FFF7
FFF7
FFFB
FFF5
0000
FFFD
FFF9
0007
FFFF
0007
0005
FFF6
0004
0008
FFFF
0002
FFFF
FFFA
0002
0003
FFFA
0009
0003
FFF7
0001
0006
FFFA
0001
FFF7
0002
FFFB
FFFF
FFF9
0001
0009
FFFF
0000
0005
0003
FFFE
FFFC
FFFD
0001
FFFB
0007
FFFE
FFFB
0004
0007
0000
0000
FFFE
FFFC
0000
FFF8
FFF9
FFFD
0003
0003
0002
FFF7
0002
FFFB
0007
FFF9
0006
FFF8
0002
FFFB
0003
000A
FFFF
0007
FFF9
0000
FFF8
0009
0006
FFFC
0009
0009
FFF7
0002
FFFA
0001
FFF6
0000
0009
FFFF
0007
FFF7
0005
FFF8
0008
0009
FFFF
0000
FFFF
FFF7
FFFA
0000
0001
FFFE
FFFF
FFFA
FFFC
FFFF
0003
0002
0001
0008
0003
0004
FFFA
0007
0008
0006
FFF9
FFF9
0001
FFFE
0009
FFFD
0001
FFFD
0009
0005
FFFD
0006
FFF6
0001
FFF8
FFFF
0004
FFFD
0007
FFF6
0002
0001
FFFE
FFFA
0001
0003
0005
0001
FFF8
FFFF
0001
0003
FFF7
FFFB
FFF9
0002
0002
FFF9
0006
0001
0005
FFF7
0001
0009
0007
FFFA
0007
0004
FFFA
FFFF
0009
FFF9
0008
FFFC
FFF8
0004
FFF6
FFF5
0004
FFFC
0002
FFFD
0009
FFF9
FFFB
FFFC
0005
0002
0006
0000
FFF8
0002
0000
0009
FFFB
FFFC
0003
FFFB
FFFC
0000
FFFE
FFFF
FFFA
0009
FFFD
FFF7
0008
0002
FFF5
0009
0008
FFFE
FFFC
0008
0009
FFF6
000A
FFFF
FFFF
0009
0005
FFFA
FFF7
FFFB
FFF9
0007
0001
0006
0003
FFFD
FFFF
FFF9
FFF7
FFF9
0005
FFFF
FFFD
FFFD
FFF7
FFFE
000A
FFFF
0003
0004
0005
0005
FFF7
FFFB
0003
0005
FFFE
0007
0001
FFFC
FFFE
0009
0006
0009
0006
FFFC
FFF6
FFFE
0005
0009
FFFF
FFF7
000A
000A
FFF9
0009
FFFA
FFFA
0008
0009
0003
FFF7
0007
0000
0007
FFF6
FFFF
FFFA
0001
FFFD
FFF8
0004
FFFE
0004
0000
0002
000A
0006
0002
0000
FFFA
FFFA
FFF8
0001
0007
FFFF
FFFD
FFFE
0008
FFF5
0001
FFF8
0005
0005
FFFA
FFF8
FFFC
0001
0007
FFFE
FFF9
FFF8
0003
FFFE
000A
0001
FFFD
FFFC
000A
FFFE
0005
FFFC
0002
0008
0000
FFFF
0008
0003
0009
FFF7
FFF8
0005
FFFE
0007
FFFB
0002
0001
0007
FFFE
0001
FFFE
FFFB
0006
0001
0000
0009
FFFD
0001
0002
0007
0003
FFF8
FFFB
0002
FFFD
0009
FFFF
0006
0002
FFF9
FFFE
FFFD
FFF9
0008
0004
FFFF
0007
000B
0005
0008
0006
FFFC
0001
0009
0008
FFFF
0005
0007
0004
0004
000A
FFFE
FFF6
FFF7
FFF7
FFFD
FFFE
FFF8
0007
0000
FFFD
0009
000B
000A
0006
FFFE
FFFA
FFFD
FFFB
FFFE
0008
0009
0009
0000
0008
0004
FFF8
0009
FFF8
0003
FFFE
FFFC
0005
0005
FFF7
0003
0005
0007
FFFE
FFF9
FFFF
FFFC
FFFE
0004
FFFE
0007
0003
FFFD
FFF6
FFF7
FFFA
0001
FFFE
0002
0003
FFFD
0009
FFFF
0006
000A
0008
0001
FFF6
0007
0002
0004
FFFC
FFF9
0009
0005
FFF7
0005
FFF6
0009
0008
0006
0000
0000
FFF9
FFFE
0007
0005
0004
FFF9
FFFB
FFFD
0004
0001
FFF7
0006
0001
FFFE
FFFB
FFF7
FFF8
0003
0007
0006
FFFA
FFFD
FFFF
0002
000A
0008
FFF7
FFFA
0000
FFFF
FFF7
0000
FFFE
0008
FFFA
0008
0006
FFF7
FFFA
0006
0001
FFFD
0001
FFFE
FFF9
FFFA
FFFB
FFFF
0004
FFFD
FFFD
FFFC
FFFC
FFF7
000A
0000
0007
0004
FFFE
0009
FFFE
0006
FFFA
0004
0008
FFF7
0002
0009
0002
0006
FFFC
0001
0009
0004
0001
0008
0001
FFF9
0006
FFFD
0008
0005
FFF7
0003
FFFF
0001
0004
FFF9
FFF6
FFF9
FFF8
FFFA
0007
0003
0000
0000
0009
FFFC
0007
0009
0008
FFF8
0006
FFF9
FFFD
0006
0008
0008
FFFB
FFFC
0008
0006
0008
0006
0005
0006
0008
FFFE
0005
0001
0007
0002
FFFE
0002
0005
FFF8
000B
0001
0001
FFFB
FFFE
FFF8
0005
000B
FFFE
FFF7
0000
0008
0000
0006
0004
FFFE
0004
0006
000A
0000
0007
FFF9
FFF9
0008
FFF6
0006
FFFD
0009
0008
0000
FFF6
FFF8
0004
FFFB
FFFE
FFF7
FFF8
0000
0003
FFF8
0004
FFF8
0004
0007
FFFA
0006
0006
FFFC
FFFB
0000
0001
0004
FFFC
0005
0005
FFFF
FFFA
FFFA
0007
0004
0003
FFFB
FFFA
0006
0003
0000
FFFF
0008
0002
0007
0007
FFFB
FFF8
FFFB
0000
FFFF
000A
0004
0005
0007
0001
FFFD
0006
0001
000A
0004
000A
0004
000B
0006
0007
0007
0005
0003
0001
FFFB
0004
0009
0003
0002
FFF6
0009
0004
0003
0008
0009
FFFC
FFFB
FFFC
FFFD
FFF7
FFFB
FFFE
FFFE
0008
FFFF
0004
000A
0009
FFF8
0006
0000
FFF9
0001
FFF8
FFFE
FFF8
0000
FFFF
0005
0005
FFFE
0007
0007
FFF8
0008
0008
0008
FFFD
0005
0002
FFF7
0005
FFFE
FFF8
FFFC
FFFA
FFF9
FFF9
FFFD
0000
FFFF
FFF9
000A
FFFE
0000
0006
0001
FFFA
0001
FFFB
0001
FFFD
0001
0007
0005
0004
FFF6
FFF6
FFFA
FFF9
FFF7
FFF8
FFFC
000A
0002
0007
FFF7
0003
FFFF
0009
FFFF
0002
0006
FFF7
0005
0002
0005
FFFB
FFFC
FFFC
0002
FFFA
FFFF
0008
FFFB
FFF8
0005
0004
0001
FFFC
0009
0005
FFFC
FFFF
0002
FFFD
FFFF
FFFB
0006
0002
FFFC
0009
0007
FFFB
0006
000A
0003
FFFA
FFFF
FFF8
0002
0006
FFF6
FFFC
0004
0003
0008
FFFD
000A
0004
FFFE
0001
FFFA
FFFA
0004
0000
0003
0005
FFFD
0002
0000
FFFC
0005
0006
0004
0005
FFFA
0002
0003
FFF8
0005
0000
FFFD
0002
0001
FFFC
FFFC
FFF8
0004
FFFC
0002
FFF9
0008
0000
0001
0000
0002
0002
FFF8
0009
FFFF
0009
FFFE
0007
FFF8
0003
0002
FFFC
FFFC
0002
FFFD
0009
0007
FFFE
0004
0003
FFFD
0003
000A
000A
FFF7
0007
FFFD
0003
0008
0003
000A
0008
0009
FFFC
0001
0005
FFF6
0000
FFFE
FFF9
FFF7
0004
FFF6
0009
0008
FFFF
FFF9
0005
0009
FFF9
0000
0008
FFFF
0004
0002
0000
0007
0006
FFFF
FFF6
0007
0005
FFF7
FFFE
0006
FFF9
FFFF
0005
FFF7
0008
FFFB
0005
FFFF
FFF8
FFFA
0004
0000
FFFD
FFF9
FFF7
FFF6
FFFF
0001
FFFF
FFFF
FFF7
000B
0005
0003
0006
0007
0005
FFF9
0006
FFFF
0000
0003
0005
0009
FFFE
0005
0007
FFFB
0007
0002
FFFD
0000
FFFF
FFFD
FFFC
FFF9
0001
0003
0000
FFFD
0006
0000
FFF7
FFF8
0005
0000
FFF7
0002
0009
0002
0009
FFFA
0006
FFF8
0005
FFFE
0001
0003
FFFA
0002
FFFF
0000
0005
000A
FFF8
0009
FFFA
FFFB
FFF9
0005
0003
FFFD
FFFF
0006
FFFD
FFFA
FFF6
FFF6
FFF8
0004
0007
FFF7
FFFD
0009
FFFA
000B
0002
FFF6
0004
0007
FFFE
0004
0005
0007
FFFA
FFFE
0000
0001
0003
FFFB
0002
FFFD
000A
0000
0004
0006
FFFC
0005
0002
0004
FFF8
0001
0001
FFFD
FFFC
0003
FFF6
0002
0003
FFFC
FFF9
0008
FFF9
FFFF
0004
000A
0003
0008
0004
0001
0004
FFFE
FFFA
FFF9
FFFF
FFFD
FFFC
0008
FFF9
0005
0003
FFF9
0003
0000
FFFB
0004
0007
0008
FFFD
FFFC
0006
0008
000A
0004
FFF8
FFFF
0004
0005
0004
0007
0004
FFF8
0003
0004
0001
FFFC
FFF9
FFF7
FFFA
0009
0002
FFF8
FFFD
0009
0001
FFF7
FFFC
0006
FFF8
0000
FFF6
0006
0001
0007
0007
FFF5
FFF9
0001
FFF7
FFF7
0005
0002
0006
FFFA
000A
0003
0000
FFFB
FFF9
0007
0007
0006
0005
FFFD
0006
0007
0005
0001
FFF9
0006
0009
0000
FFFC
FFFA
FFFC
0001
0002
0007
FFF8
FFF7
FFFD
FFF9
0000
FFF6
0001
FFFB
0009
FFF8
0009
0009
0003
FFF8
FFFC
FFF8
0009
000A
0003
FFFF
FFFA
FFFD
0009
FFFD
0005
FFFA
0005
FFF8
FFFD
0009
0001
FFFC
0009
FFFE
000A
FFFC
FFFE
FFF7
0002
000A
0000
0002
FFFA
FFFF
FFFC
FFFB
0001
0005
000A
FFF7
FFFB
FFFE
0007
0009
FFFC
0006
0004
0003
0008
FFFB
FFFE
0000
000A
0001
FFFD
0001
0005
0002
0009
FFFC
FFFE
FFFD
0004
0004
FFFA
FFF7
0003
FFF6
0005
0005
0009
FFFD
0006
0004
0009
0002
0002
0006
0001
0006
FFFD
0005
0006
0003
FFFC
FFFD
FFFF
0003
FFF6
FFF7
FFF9
0004
0003
FFF9
FFFA
0007
0000
000B
0007
0002
0000
0007
FFFD
0007
0002
FFFB
FFFB
FFFE
FFF7
FFFD
0007
0007
0007
000B
FFF6
FFF9
FFFB
FFFF
FFFF
FFF6
0008
0003
FFFA
0005
FFF7
0001
0009
0002
0001
0009
FFFE
FFF7
0005
FFFF
FFFC
FFFD
FFF5
FFF6
FFFA
FFF8
0003
0006
0009
0007
0009
FFFA
FFF9
000A
FFFC
0006
FFFC
FFFF
0003
FFFA
FFFF
0003
FFFB
0005
0005
FFFA
FFF8
FFFF
FFF8
FFFB
0001
0006
0001
FFF7
0002
FFFC
0005
0004
0005
000A
0008
FFF6
FFFF
FFF9
0003
0000
FFFD
FFFD
FFF8
FFF9
FFF9
0006
FFFD
FFFC
FFF7
FFFE
FFF7
0009
0003
FFFC
000A
000A
FFFB
FFF7
FFFE
FFFB
FFFB
FFFE
0005
FFF9
FFFF
FFFF
FFF9
FFFA
0003
FFFB
FFFD
FFFD
0001
FFFE
0008
0003
0000
0009
FFF7
FFF9
0005
FFF8
0001
FFF7
FFFE
0003
FFF6
0004
FFFD
FFF9
FFF9
0003
0009
000A
0009
0006
0007
FFFD
FFFC
0005
FFF6
FFFB
FFF8
0009
FFF7
0003
FFF8
FFFB
FFFF
0007
FFFE
FFFE
FFF7
0006
FFF7
FFFA
0004
0008
FFFA
0000
000A
0001
0009
FFFF
0009
FFFD
FFF8
0002
0009
0001
0005
0007
FFFF
000A
0002
FFF7
0009
0008
0000
FFFA
FFF8
FFFB
0007
0001
0008
0002
0004
FFF8
0008
0007
0001
0001
0008
FFF9
0008
0005
FFFF
0003
0008
FFF7
0006
0007
FFFA
FFFE
FFF7
FFF8
FFFB
FFFF
0001
FFF9
FFFE
0000
FFFB
FFFE
FFFD
FFFD
0009
FFF7
0003
FFFD
0001
FFFB
FFF5
0003
0006
000A
0009
000A
FFFD
FFFB
0007
0005
0001
0009
000A
0003
0009
0009
FFFD
0004
FFFB
0002
0007
0007
FFFE
FFF7
0002
0006
FFFB
FFF9
FFFB
FFFE
0002
0005
FFFD
0001
FFFE
FFF8
FFF7
FFFF
0005
0003
0001
FFF8
0005
0005
FFFD
FFFD
0007
FFFD
0000
0005
0000
0007
FFF8
0008
FFFA
0008
0002
0001
FFF8
FFFC
000A
0003
FFFE
000B
0006
FFF9
0004
0004
0007
0005
0005
FFFF
FFF9
0000
0004
0009
FFF6
FFFF
000A
0001
FFF7
FFF7
0008
0005
0008
FFF8
FFFD
0004
FFFC
0001
0007
FFFE
0009
0005
FFFF
FFFC
FFFA
FFFF
FFFC
FFFE
0006
FFF8
FFF7
0008
FFF7
FFF6
0000
0006
FFF8
0006
FFF9
FFFA
FFF6
0008
0004
0005
0002
0006
FFFF
0005
0007
FFF8
0007
0000
FFFE
0003
0003
0006
FFFC
FFFB
0005
0005
0008
0003
0008
FFFA
FFF9
FFFF
FFF6
FFF6
FFFA
0002
0000
0004
0003
FFF9
0005
FFFD
FFFF
0005
FFFA
FFFF
0001
0002
FFFA
0005
FFFE
FFF8
FFF7
0007
0002
FFF8
FFFB
0000
0009
FFF7
0009
FFFD
FFF6
0001
FFF7
0003
0001
FFF8
FFFC
FFF8
0008
0002
0005
0005
FFFA
FFFE
0006
0006
FFF8
FFF9
FFF7
0001
0004
0009
0009
FFFD
FFFE
FFFB
0005
0002
FFFE
0006
FFF7
0004
FFFB
000A
0008
0008
FFFC
FFFE
0002
FFFB
0002
0006
FFF9
0008
FFF9
FFF7
0002
0008
FFFF
0001
0008
FFF8
FFFB
FFFF
0007
FFFE
0009
FFFD
FFFB
FFFA
FFFB
0001
0009
FFF8
FFFD
FFF6
FFFB
FFF9
FFF8
FFF6
0007
FFFE
0006
0005
0007
0009
0008
FFFF
FFFF
0009
FFFD
0007
0002
0003
FFFD
0007
0008
FFFB
FFFF
FFFE
0008
0003
0001
0003
0002
FFF9
FFFD
FFF9
0002
0005
FFF9
FFFD
FFFB
FFF6
FFFF
FFFF
0009
FFF7
0009
FFF7
FFF6
0005
FFF7
FFFC
0004
0009
FFFF
FFF8
FFFF
0003
0004
0007
FFFB
0003
0006
0003
000A
0001
0009
0009
FFF9
FFFA
FFFC
0009
0004
0006
FFFA
FFFB
FFFF
FFF6
FFF5
FFF8
0004
0000
0009
FFF7
FFF5
FFFA
FFFC
0001
FFF5
FFFF
FFFF
0001
FFFF
0002
0007
FFFC
0009
0000
FFFF
FFF9
0007
0006
0005
0000
0000
0005
FFF9
000A
FFFD
0001
0001
FFF5
FFFD
0008
0004
000A
FFFC
0004
0000
0009
0008
FFF8
FFFE
000C
FFFA
0001
0008
0005
0004
FFF9
FFFD
0008
FFFE
0009
0001
0000
FFFE
FFFE
0007
FFF8
FFF8
0005
0002
0005
0007
FFFC
FFF5
FFFC
0003
FFFF
0006
0005
0009
0001
FFF8
0000
0009
FFF8
0007
FFFD
0002
0002
FFFC
000A
FFF9
0009
FFFB
FFFB
FFFB
0006
FFF7
0000
FFF8
FFFD
0000
0006
000A
0008
FFF6
0000
0002
FFF8
0008
FFFF
FFF7
0000
FFFF
0008
FFFA
0008
0009
0001
FFFA
0008
FFFE
FFF9
FFF8
0001
FFF7
0004
0002
0004
FFFB
000A
FFFB
FFFD
000A
0008
0000
0009
FFFD
FFFC
FFF8
FFF5
0005
FFFC
0009
FFFB
0006
0004
FFFA
000A
0003
000B
0007
FFF9
FFF6
FFFB
FFFA
FFF8
0009
FFFE
FFF9
0005
0005
0004
FFFD
0009
FFF7
FFF7
0009
0000
0009
FFF7
0008
0006
FFF7
0007
FFF9
0001
FFF7
FFFE
FFF6
0003
FFFE
0001
0001
0006
0006
FFF8
FFFB
FFFA
0002
0009
FFF6
FFF9
0006
FFF9
FFFF
FFF8
FFFA
FFF8
FFF9
FFFF
0008
FFFE
0009
0003
0004
000A
FFFA
0008
0003
0000
FFFA
0005
FFFA
0001
0002
0008
FFF8
0000
FFFB
FFFF
FFFE
FFFB
0003
0004
FFF9
0003
FFFE
FFFE
FFF6
FFFC
FFF7
0009
FFFE
0002
FFFD
0002
0002
FFFA
FFFE
FFFE
FFF6
0006
FFFF
FFFC
0008
FFF9
FFFB
FFFF
FFF9
000A
FFFF
0007
FFFD
FFFD
FFFA
FFFC
0002
0006
FFFE
FFFF
0008
000B
0000
FFFB
0002
000A
0009
0000
FFFF
FFF9
FFFF
000A
FFFA
0009
FFFD
0008
0004
FFF8
FFFA
0008
0004
0008
FFFC
000B
FFF7
FFFC
0006
FFFB
0008
FFF7
FFF8
FFF9
FFFA
0000
0005
FFF9
0002
0004
FFF6
0008
FFFF
0002
FFFE
FFFD
0001
FFFC
FFFE
FFFF
FFF8
0004
0008
FFFC
0004
0002
FFF6
FFFE
FFF9
0005
000A
FFFB
0006
0005
0009
0006
0006
0002
0000
FFF8
FFF8
0008
0000
FFFD
0004
0001
FFFE
0008
0003
FFFE
FFF8
FFFB
FFFD
0005
0008
FFFF
FFFE
0003
000A
FFFF
FFFB
FFFA
0008
0004
0006
0004
0002
FFF7
0006
0007
FFFD
FFF8
0002
FFFC
FFF7
FFFB
FFF7
0001
0006
FFF9
FFF7
0004
FFFD
FFF8
0009
0009
FFF7
FFFA
0008
0009
FFF8
0004
0001
0008
0009
0000
0000
FFF9
0003
0001
FFFE
FFF8
0007
0004
FFF9
0002
FFF6
FFF7
FFF6
FFF9
0001
FFFA
FFFE
FFFD
0000
FFFB
FFF6
FFF8
FFFF
FFF9
FFFB
0003
FFFC
FFFC
FFF6
FFF7
FFF7
FFFF
FFF7
0000
0005
FFFF
0000
FFFA
FFFC
0009
0003
0009
0006
0008
FFF9
0009
FFFC
FFFE
FFF7
0002
0003
FFFD
FFF9
FFFB
0001
FFFA
FFF7
0004
FFF8
0006
0008
FFFD
FFFF
0006
0003
FFFB
FFFD
0001
0004
0001
0006
FFFF
FFF6
FFFA
FFF7
0006
0003
FFFC
FFF8
FFF9
FFFA
0000
0001
FFF9
FFFE
0008
0003
0001
FFF9
FFFD
FFF9
0007
FFF7
FFF9
FFF8
0002
0002
FFFF
FFFD
0009
0008
0008
0000
0003
FFFB
0009
FFF9
FFFD
FFFA
FFF6
FFF8
0005
0001
0006
0002
0009
FFFE
FFFC
0003
0002
FFFA
0007
0007
0008
FFF8
0006
000A
0004
FFFA
FFFC
FFF9
0006
0007
0002
0003
0002
0006
FFFF
FFFB
FFFC
0001
FFF8
0000
FFFD
FFFA
FFF8
FFF5
FFF8
0000
FFFD
FFF6
0006
FFFA
0009
0008
FFFF
FFFC
FFFC
0000
FFFF
FFFD
0001
FFF9
FFF9
0008
0006
0002
0001
000A
0000
0002
FFFC
FFFB
FFFC
0004
FFFA
FFF7
FFFE
0004
0003
FFF6
0002
0001
FFFD
FFF9
0009
0002
FFFE
FFF8
FFFC
0009
FFFA
FFF6
FFFC
0002
0005
0007
FFF8
FFF9
FFF6
FFFE
FFF7
FFFF
0000
000A
0001
0000
0003
0004
FFFD
FFF9
0002
0003
0005
FFFE
0007
FFFF
FFF8
FFF6
FFFF
0009
0001
FFFA
FFFD
FFF7
FFFB
FFFE
0000
0005
0004
FFFD
0006
0006
0003
FFFE
FFFA
FFF8
000B
0007
0001
0003
FFFC
FFF9
FFF7
FFF6
0007
FFF6
FFFF
FFFF
FFFB
FFF7
FFFA
0008
0006
0007
FFF8
0005
0005
0009
0000
FFF6
FFF9
FFFE
0006
FFF9
0007
0009
0000
0001
FFFA
0002
0005
0003
0000
FFF9
0007
FFFF
0003
0007
FFF6
0008
FFFA
0003
FFFD
FFF8
FFFC
FFFA
FFFD
000A
0003
FFFA
0003
FFFF
FFF8
0002
0000
FFF7
FFFE
FFFF
FFFF
0004
FFFD
FFFE
0001
0002
FFFC
0004
0009
FFFA
FFFD
0009
FFF8
0006
FFFC
FFFE
0006
FFFE
0006
FFFA
0003
0002
0002
FFF6
0005
0003
FFF7
FFFD
0000
0002
FFFA
0004
FFFC
FFF8
0009
FFFD
0007
0000
0003
FFF9
FFF7
0002
0003
0006
FFFA
FFF9
0001
0008
FFF8
FFFA
0009
FFF6
0004
FFFB
0007
0004
0000
FFFE
0003
0005
0009
FFF9
0002
FFF7
0005
0001
0000
FFF9
FFFC
0004
0004
0003
FFFA
0008
FFFF
0006
0009
