FFE6
FFD6
000B
002D
FFF0
0016
0011
0010
FFFB
001F
FFD3
000C
000F
FFF8
0013
002E
0029
0014
0027
0018
0005
FFDD
FFF5
0018
FFD1
FFDD
0001
0024
001B
FFEB
FFE3
FFED
0017
0020
FFED
002D
FFD0
0011
FFD2
FFD6
FFE7
0025
0014
0025
0019
0017
FFF3
FFF2
FFF8
FFE0
0025
FFF3
FFDB
FFE2
0019
FFE9
FFF5
FFD4
002F
FFE6
0028
0006
0017
000A
FFD9
FFE2
0010
FFE8
FFD7
FFF5
FFF0
FFE5
FFDD
0008
FFF2
0002
0010
FFFC
0028
002E
0004
FFDD
FFE4
FFDE
0020
FFD3
FFD1
FFD6
0013
0012
FFF9
0026
001D
002E
002A
FFEB
002D
FFEF
FFDA
FFF2
0020
000D
0013
0018
0009
000F
FFE8
FFE4
FFE8
FFE8
FFFA
0002
0025
FFD8
FFFA
0022
000E
FFFF
FFDF
FFDA
001C
FFF5
0004
001C
0003
FFDA
FFE0
FFEF
0004
FFE9
002B
FFD3
FFDF
FFD6
000A
FFF2
0021
002C
0000
002F
FFFB
FFD6
FFDE
FFFC
FFF3
FFF8
001B
FFEC
FFF0
FFF1
FFF0
FFD4
002A
FFE8
FFE8
FFD4
FFE2
FFFD
001C
0013
FFD6
FFDE
0001
FFF6
002B
FFF0
0025
0016
0017
FFF7
FFE6
0021
0012
FFDD
0023
FFD5
FFFA
0018
0012
FFD1
0017
FFDC
FFEC
001A
0020
FFFD
0007
FFEB
0029
FFE4
0020
0012
001E
0008
001B
FFDA
FFD3
0026
FFF2
FFD5
0015
FFD4
0030
0029
0006
0029
0005
000A
0006
FFD3
000C
0014
0020
0014
0006
0021
FFDD
FFF6
0008
0015
FFDF
001E
001D
FFF4
FFF3
FFEB
FFD5
0014
FFF2
FFF0
FFEA
0005
FFDC
FFEE
0024
FFDF
0015
FFE5
FFFB
FFE3
0000
FFEB
FFE5
0002
FFFA
001D
0009
0020
0010
FFE8
FFDB
FFE4
001E
FFE9
FFFF
0029
002F
FFDA
0001
FFD2
002E
0010
FFE4
0011
0022
000C
FFFD
FFED
FFFD
FFE6
FFD5
000F
0008
001A
FFE8
FFFE
FFD0
0012
0027
FFD9
FFE2
FFD9
FFDB
001C
0021
000F
0028
0009
000F
FFFB
FFF0
000F
0023
0016
FFF1
002E
001D
FFED
FFF1
0011
FFE6
FFFA
FFF7
0015
FFF4
002A
FFE2
002A
FFE5
0024
0021
000B
0016
FFE6
FFEA
FFF5
002B
0020
FFF6
0005
FFF5
FFD7
002F
0030
0026
FFD9
001A
0020
0009
0005
0030
0016
0007
000A
FFDE
FFD0
002C
FFD2
FFE5
0022
0029
FFF6
0013
FFDB
0025
FFEF
FFDA
FFD7
002A
0013
0025
FFEF
002A
0010
0027
FFFF
FFD0
FFF2
0010
FFFD
FFE1
FFDA
FFFC
FFE0
FFF8
002D
0020
FFFE
FFF1
FFDB
FFF5
000C
FFED
0005
FFDD
0022
FFF9
FFD1
FFFE
FFE9
000E
FFE3
FFF4
000E
0021
0022
001A
FFD5
FFD7
0008
0029
FFD2
000D
000E
FFD1
FFEA
FFE2
001F
FFE9
FFF9
FFEE
0012
000E
0008
0000
0005
FFF3
0022
0019
FFD3
FFFE
002B
0008
FFE7
FFE6
FFF3
FFDF
0013
0021
0022
FFE5
001B
0011
000F
FFDB
FFF3
001D
FFF8
FFD4
0026
FFFA
FFDC
FFE2
0005
0023
FFFF
002B
FFE1
FFFC
002F
FFF0
FFFF
FFEB
FFD2
FFDE
FFFF
0015
000B
FFEE
FFF4
FFE4
0029
FFEB
FFDD
0022
000C
0017
0013
0012
0004
FFE3
FFFF
0028
0010
002A
FFEF
FFDA
FFF8
0027
FFFD
0025
FFD0
0012
002E
FFFB
0019
0000
FFD9
001F
FFF3
FFE5
FFE0
FFD5
FFDF
0022
0012
0006
FFD1
FFDC
0014
FFDD
0012
002E
0028
0022
0027
002C
0027
FFE0
FFE7
000A
FFE3
FFF9
FFD7
0021
FFEE
0018
001C
0010
0014
001A
0015
0002
FFD0
FFD3
FFF2
002D
FFEA
FFDA
0015
000F
FFE0
0007
FFE4
FFD7
FFFA
0013
0006
0015
FFF5
FFFD
FFE7
001B
FFE9
0011
FFD2
0019
001F
000C
001D
000F
FFFB
0013
001A
FFFF
FFDC
0016
0000
0007
002C
FFD1
002E
FFF0
FFF7
000D
001D
0018
FFE3
0027
0023
0022
0004
FFFD
FFE7
000F
FFD8
FFE9
FFFC
FFD5
0025
0027
0030
FFD8
0003
FFF0
002A
FFD9
FFD1
FFE4
0015
0008
FFEE
FFD1
FFD8
0009
002F
0009
FFDC
001A
FFF2
FFE1
FFE9
002B
0027
0000
FFD4
000E
FFD8
0005
0026
FFE5
002D
000A
001E
0015
0014
000A
FFDE
FFF8
FFFC
0008
0024
0009
FFE7
0014
0026
0023
FFF3
0015
FFE2
FFEE
FFDC
0019
FFDB
FFF4
0029
0021
0008
0025
FFE2
0028
FFDC
FFF6
0026
0001
000E
0011
FFD1
FFFC
FFD5
001F
FFE7
FFFA
0017
002E
FFFD
FFEE
0012
FFED
FFEE
002C
0010
002A
0003
FFE8
FFF8
FFE0
FFE4
001A
0001
000B
0004
001C
FFE3
0020
FFE5
FFF9
0024
FFD4
FFD2
FFED
0008
0025
0020
FFFE
0011
0021
0010
FFE0
FFF1
FFF4
000F
0016
FFF4
002A
FFD8
FFE2
FFFD
FFEB
0017
FFEC
FFFF
FFDA
FFE2
0007
FFD7
FFDB
FFDA
FFF2
000C
FFE5
FFFC
FFE9
0000
FFE2
002E
002B
0010
FFE5
FFE1
FFE7
FFD4
FFFF
0029
0024
FFE4
0017
001A
000C
0022
FFD2
FFEA
FFF9
FFF4
FFF9
FFF2
FFD2
002D
FFE9
FFF6
002D
FFF4
0027
0006
FFDF
0024
0022
FFDE
0022
FFD8
FFD9
000B
0000
FFD5
000B
FFF0
FFFF
0025
FFEC
0024
FFD4
FFF2
002B
0005
FFDB
0006
0017
FFDB
002D
001C
FFFC
FFED
002B
FFD2
001D
FFEE
FFF9
0006
0016
0018
0005
0021
000A
FFF1
FFF3
0021
0012
FFF1
FFD4
FFD8
FFE7
FFF6
000E
0023
FFF0
0000
FFEC
0005
0006
002C
FFE0
001F
FFE5
0015
001C
0008
FFF4
FFD9
FFD5
0016
FFDF
FFF3
0019
FFF3
FFD0
002A
0018
0010
FFF1
FFFC
0001
FFFE
FFF2
FFDF
001C
FFDF
FFEF
FFF3
002C
FFF3
0011
0019
000A
000E
FFDE
FFFE
0025
FFE9
FFEA
0020
0025
0020
FFD5
FFD7
000F
0007
FFF2
0009
FFDE
FFD7
FFDE
001E
0030
0022
000D
FFDA
0023
0001
FFFB
0016
FFE9
001C
002B
FFD7
000C
FFEF
000D
FFF6
002A
FFFA
FFD2
FFF8
0006
0028
FFE6
0005
0002
0017
FFFD
FFF4
FFDF
001C
FFE0
0002
0025
FFE5
FFEC
FFEA
FFF5
FFD7
FFDA
001E
FFDF
FFD6
0028
0027
FFDF
002A
000F
FFD6
FFD5
FFD8
FFF1
FFE8
FFFC
FFE6
0003
0008
FFD8
0013
0001
FFE1
0010
FFF3
FFE3
0019
002C
FFE2
002F
FFE5
FFE5
0011
FFF9
001F
FFDA
0023
FFF8
FFF8
0023
001B
0014
FFD7
FFEC
000A
FFEA
FFF3
0014
FFEC
FFFE
0014
0029
000D
FFF9
FFFF
FFFD
002E
000B
FFD9
FFE9
FFEE
FFE9
FFF0
FFDE
0022
FFEB
0030
0029
0001
0023
FFDF
FFF0
0009
FFD5
FFEB
0006
FFFB
0008
000A
FFD3
FFEA
FFD9
001A
000E
FFEE
000D
0018
0007
0003
002F
0024
FFD3
FFF4
FFE8
0007
FFEB
001E
0000
FFF9
0012
0020
0007
FFD6
0007
000D
001F
FFF6
FFE9
0030
000F
FFE3
001D
002D
0006
0011
FFE6
FFF9
0002
FFF8
000A
FFD8
FFDA
001B
FFDE
FFDC
FFE8
FFE2
001C
FFE5
FFF4
FFF2
FFFE
FFEB
0006
FFEA
002D
0023
FFEB
FFD5
001A
FFD3
FFD8
FFDF
001B
FFF6
001A
0024
0004
0031
0028
FFDD
FFF9
001D
FFE8
0022
0014
FFDD
001C
FFD4
0002
000A
FFD0
FFD5
0006
FFE2
FFD3
000C
002B
FFFB
FFEE
0016
FFDF
0009
FFD3
002E
0014
FFFD
0021
0003
FFF6
FFF3
0009
FFE1
FFE0
FFE0
FFD9
0013
FFEF
FFF0
FFEA
0002
FFE0
FFE1
0027
FFE2
002F
002D
0012
FFDC
FFE8
FFDE
0015
0008
0005
001C
0001
0031
000E
0019
0021
0022
FFF2
0002
FFF8
FFE5
FFEA
002A
0015
002B
FFE9
0008
FFE3
002D
0021
FFEB
0021
FFD5
FFFC
FFFD
FFD3
FFDF
0014
FFEE
FFE2
FFD4
0006
000C
FFE8
002A
FFF0
0004
0005
FFE5
FFDB
001A
0009
001E
FFD7
FFED
FFDE
0010
001B
001D
002D
0017
FFD9
FFFA
FFF3
0011
000F
0010
0013
FFDB
000B
FFD2
FFE9
FFE3
001D
001D
FFD6
FFF8
FFD6
FFD9
FFF9
002A
FFDD
FFDA
FFE9
FFEB
002C
FFFF
0008
FFE8
0009
0020
FFF9
FFDC
0015
0026
FFD9
FFD0
FFD7
002A
002E
FFE1
FFD7
0010
002C
0029
0014
FFEA
0005
001A
FFF6
002C
FFF9
FFF3
000F
0013
002F
001C
FFD5
000A
FFE9
FFFE
0026
FFD9
001C
0030
FFD1
FFF1
0014
000A
0012
FFEF
FFE6
FFFD
0023
0029
0020
FFDE
0004
FFD4
FFDF
FFD9
0008
FFFD
FFDC
0005
FFF5
FFDE
001E
FFEC
0022
FFEE
FFF3
001B
001A
FFF4
FFDF
0012
FFD7
000E
0028
FFEE
001F
002B
0006
FFEE
FFD5
FFE8
0026
FFFE
FFFC
002F
0021
0013
FFE7
FFDC
FFEE
0003
0008
FFE3
0002
0002
FFF0
0019
0028
FFF7
000F
0030
FFD3
FFF9
FFEF
FFD8
FFDA
002D
FFE5
0027
0008
FFEA
FFF6
FFF9
FFE6
0004
0019
0012
FFE5
0005
FFE0
FFEC
001C
FFEB
FFF1
001F
000F
FFD3
FFEB
FFE2
002F
FFD3
FFE7
002B
FFEA
0027
001F
001F
FFFB
0015
FFF0
0011
FFDB
002F
FFDB
FFD4
0003
FFD7
001F
0010
0026
FFE8
0020
000E
FFFE
002E
000D
FFF0
FFF3
FFEA
FFE6
FFEF
0026
FFE6
FFF7
001C
0011
001C
FFE4
FFED
FFDD
0009
0021
FFEF
FFD0
002B
0027
FFEC
000E
FFE4
0000
FFF5
001B
FFE2
FFD7
000C
000D
0015
FFEF
FFF5
FFFB
FFDF
FFF0
0029
FFE7
FFE7
0009
002D
FFF6
FFD3
000F
000A
0027
FFEF
FFFC
0027
0015
000F
001B
0009
0025
002A
000B
0025
002C
FFD6
0005
FFF2
0016
0029
0013
0021
0014
0007
0016
FFD6
001A
0001
FFEB
FFFA
002F
FFE0
FFE2
000A
FFF8
FFFE
FFF4
FFD3
0000
000D
000B
FFED
FFEF
0010
FFD5
FFD6
001D
FFD6
FFD5
FFF5
000A
000A
FFD1
FFF1
0019
FFE9
0004
0006
0010
000E
002D
FFFD
FFF9
0003
FFEE
000A
FFDF
0016
0019
002B
FFFB
0018
FFD7
000D
0007
001A
FFF2
FFFA
0000
0017
0020
FFF4
0021
FFD4
001F
FFF0
0026
0005
FFF4
FFE4
FFFE
FFEE
001D
0026
0016
FFF4
0025
FFDC
001C
002B
0012
FFFB
0007
002A
FFED
000A
002C
0018
FFF4
0011
FFDB
FFEE
FFEB
FFFE
0014
FFEF
0016
0015
0014
0004
0018
FFE4
0020
002E
0001
0001
FFD7
FFFA
FFDB
FFE8
001D
FFDD
002E
0017
FFE4
0004
FFDA
000C
0015
0026
0018
002B
FFE2
0012
0008
0001
002F
0018
FFEF
0010
0013
FFEC
FFEF
0009
FFD8
FFEB
002A
002F
001C
0001
FFFF
0000
FFEB
FFFB
002B
FFDA
FFE6
FFD5
FFFA
FFDB
0018
FFDE
FFD3
0001
0029
0014
000D
FFF0
FFF1
FFE4
FFF3
FFE8
FFDB
002A
FFD3
FFEC
0002
FFF0
FFEC
001E
FFDF
0006
FFD2
0027
0009
FFF9
001C
002B
FFF1
0019
FFE3
FFF2
0011
FFF2
FFF3
0022
0013
FFE5
0029
002F
0000
FFEA
002E
FFD3
0017
0002
FFE3
000D
FFE2
FFF0
000A
0006
0001
FFEB
FFFD
002B
FFDB
FFD5
0029
FFF1
FFEE
FFFD
0001
FFEF
0017
FFFD
0012
001E
FFE4
0001
0028
FFD0
0003
0007
FFD7
FFFB
FFD7
001F
0005
0018
FFE3
0015
0011
FFD8
FFDB
FFFA
0008
001D
002C
FFF4
0018
FFF0
FFE9
0008
FFFD
FFD9
FFE5
FFD9
FFE9
0027
FFF8
FFD3
0005
FFE9
FFF3
FFD3
000D
FFFD
0022
000E
001F
FFD9
001C
FFEE
FFE4
FFF4
0029
0004
0017
0029
0010
FFEA
002A
0025
0016
002E
0020
001E
FFEB
FFFA
0002
FFF5
FFE8
0003
001B
FFDF
002B
002A
0014
0022
0021
FFE5
0025
FFE5
FFD6
FFEB
FFEB
0031
000B
FFFB
FFDE
0026
0025
0005
0010
FFD8
002D
001B
FFDD
FFE8
FFF4
FFEA
0013
FFEB
FFDE
FFE2
0025
FFE9
000E
0017
000E
FFE0
FFFE
FFD1
0031
0015
0008
FFDD
FFD3
0023
0014
001D
002C
FFE6
FFF6
FFD7
0004
FFF8
FFE0
FFD5
0020
0009
001A
0014
FFE0
0013
0001
FFD9
FFF9
FFE1
